{
  "version": "1.0",
  "truncation": null,
  "padding": null,
  "added_tokens": [
    {
      "id": 0,
      "content": "[UNK]",
      "single_word": false,
      "lstrip": false,
      "rstrip": false,
      "normalized": false,
      "special": true
    },
    {
      "id": 1,
      "content": "[PAD]",
      "single_word": false,
      "lstrip": false,
      "rstrip": false,
      "normalized": false,
      "special": true
    },
    {
      "id": 2,
      "content": "[SOS]",
      "single_word": false,
      "lstrip": false,
      "rstrip": false,
      "normalized": false,
      "special": true
    },
    {
      "id": 3,
      "content": "[EOS]",
      "single_word": false,
      "lstrip": false,
      "rstrip": false,
      "normalized": false,
      "special": true
    }
  ],
  "normalizer": null,
  "pre_tokenizer": {
    "type": "Whitespace"
  },
  "post_processor": null,
  "decoder": null,
  "model": {
    "type": "BPE",
    "dropout": null,
    "unk_token": "[UNK]",
    "continuing_subword_prefix": null,
    "end_of_word_suffix": null,
    "fuse_unk": false,
    "byte_fallback": false,
    "ignore_merges": false,
    "vocab": {
      "[UNK]": 0,
      "[PAD]": 1,
      "[SOS]": 2,
      "[EOS]": 3,
      "\u0014": 4,
      "\u001b": 5,
      "!": 6,
      "\"": 7,
      "#": 8,
      "$": 9,
      "%": 10,
      "&": 11,
      "'": 12,
      "(": 13,
      ")": 14,
      "*": 15,
      "+": 16,
      ",": 17,
      "-": 18,
      ".": 19,
      "/": 20,
      "0": 21,
      "1": 22,
      "2": 23,
      "3": 24,
      "4": 25,
      "5": 26,
      "6": 27,
      "7": 28,
      "8": 29,
      "9": 30,
      ":": 31,
      ";": 32,
      "<": 33,
      "=": 34,
      ">": 35,
      "?": 36,
      "@": 37,
      "A": 38,
      "B": 39,
      "C": 40,
      "D": 41,
      "E": 42,
      "F": 43,
      "G": 44,
      "H": 45,
      "I": 46,
      "J": 47,
      "K": 48,
      "L": 49,
      "M": 50,
      "N": 51,
      "O": 52,
      "P": 53,
      "Q": 54,
      "R": 55,
      "S": 56,
      "T": 57,
      "U": 58,
      "V": 59,
      "W": 60,
      "X": 61,
      "Y": 62,
      "Z": 63,
      "[": 64,
      "\\": 65,
      "]": 66,
      "^": 67,
      "_": 68,
      "`": 69,
      "a": 70,
      "b": 71,
      "c": 72,
      "d": 73,
      "e": 74,
      "f": 75,
      "g": 76,
      "h": 77,
      "i": 78,
      "j": 79,
      "k": 80,
      "l": 81,
      "m": 82,
      "n": 83,
      "o": 84,
      "p": 85,
      "q": 86,
      "r": 87,
      "s": 88,
      "t": 89,
      "u": 90,
      "v": 91,
      "w": 92,
      "x": 93,
      "y": 94,
      "z": 95,
      "{": 96,
      "|": 97,
      "}": 98,
      "~": 99,
      "": 100,
      "": 101,
      "": 102,
      "": 103,
      "": 104,
      "": 105,
      "": 106,
      "": 107,
      "": 108,
      "": 109,
      "": 110,
      "": 111,
      "": 112,
      "": 113,
      "": 114,
      "": 115,
      "": 116,
      "": 117,
      "": 118,
      "": 119,
      "": 120,
      "": 121,
      "": 122,
      "": 123,
      "": 124,
      "": 125,
      "": 126,
      "": 127,
      "": 128,
      "": 129,
      "¡": 130,
      "¢": 131,
      "£": 132,
      "¤": 133,
      "¥": 134,
      "¦": 135,
      "§": 136,
      "¨": 137,
      "©": 138,
      "ª": 139,
      "«": 140,
      "¬": 141,
      "­": 142,
      "®": 143,
      "¯": 144,
      "°": 145,
      "±": 146,
      "²": 147,
      "³": 148,
      "´": 149,
      "µ": 150,
      "¶": 151,
      "·": 152,
      "¸": 153,
      "¹": 154,
      "º": 155,
      "»": 156,
      "¼": 157,
      "½": 158,
      "¾": 159,
      "¿": 160,
      "À": 161,
      "Á": 162,
      "Â": 163,
      "Ã": 164,
      "Ä": 165,
      "Å": 166,
      "Æ": 167,
      "Ç": 168,
      "É": 169,
      "Ê": 170,
      "Í": 171,
      "Î": 172,
      "Ð": 173,
      "Ñ": 174,
      "Ó": 175,
      "Ô": 176,
      "Õ": 177,
      "Ö": 178,
      "×": 179,
      "Ø": 180,
      "Ú": 181,
      "Û": 182,
      "Ü": 183,
      "ß": 184,
      "à": 185,
      "á": 186,
      "â": 187,
      "ã": 188,
      "ä": 189,
      "å": 190,
      "æ": 191,
      "ç": 192,
      "è": 193,
      "é": 194,
      "ê": 195,
      "ë": 196,
      "ì": 197,
      "í": 198,
      "î": 199,
      "ï": 200,
      "ð": 201,
      "ñ": 202,
      "ò": 203,
      "ó": 204,
      "ô": 205,
      "õ": 206,
      "ö": 207,
      "÷": 208,
      "ø": 209,
      "ù": 210,
      "ú": 211,
      "ü": 212,
      "ý": 213,
      "þ": 214,
      "Ā": 215,
      "ā": 216,
      "Ă": 217,
      "ă": 218,
      "Ą": 219,
      "ą": 220,
      "Ć": 221,
      "ć": 222,
      "Č": 223,
      "č": 224,
      "ď": 225,
      "Đ": 226,
      "ē": 227,
      "ė": 228,
      "Ę": 229,
      "ę": 230,
      "Ě": 231,
      "ě": 232,
      "ğ": 233,
      "ģ": 234,
      "ī": 235,
      "ĭ": 236,
      "İ": 237,
      "ı": 238,
      "Ĺ": 239,
      "ĺ": 240,
      "ļ": 241,
      "Ľ": 242,
      "ľ": 243,
      "Ł": 244,
      "ł": 245,
      "ń": 246,
      "Ň": 247,
      "ň": 248,
      "Ō": 249,
      "ō": 250,
      "ŏ": 251,
      "ő": 252,
      "œ": 253,
      "ŕ": 254,
      "Ř": 255,
      "ř": 256,
      "Ś": 257,
      "ś": 258,
      "Ş": 259,
      "ş": 260,
      "Š": 261,
      "š": 262,
      "Ţ": 263,
      "ţ": 264,
      "Ť": 265,
      "ť": 266,
      "ū": 267,
      "ŭ": 268,
      "ů": 269,
      "ű": 270,
      "ų": 271,
      "ź": 272,
      "Ż": 273,
      "ż": 274,
      "Ž": 275,
      "ž": 276,
      "ơ": 277,
      "ư": 278,
      "ǁ": 279,
      "ǆ": 280,
      "ș": 281,
      "ț": 282,
      "ɓ": 283,
      "ə": 284,
      "ɪ": 285,
      "ʼ": 286,
      "ʿ": 287,
      "ˇ": 288,
      "ː": 289,
      "˘": 290,
      "˙": 291,
      "˚": 292,
      "˛": 293,
      "˜": 294,
      "˝": 295,
      "̀": 296,
      "́": 297,
      "̂": 298,
      "̃": 299,
      "̄": 300,
      "̆": 301,
      "̇": 302,
      "̈": 303,
      "̊": 304,
      "̌": 305,
      "̣": 306,
      "̧": 307,
      "̨": 308,
      "̪": 309,
      "ͧ": 310,
      ";": 311,
      "Β": 312,
      "Δ": 313,
      "Θ": 314,
      "Κ": 315,
      "Λ": 316,
      "Μ": 317,
      "Π": 318,
      "Ω": 319,
      "ί": 320,
      "α": 321,
      "β": 322,
      "γ": 323,
      "ε": 324,
      "ζ": 325,
      "η": 326,
      "θ": 327,
      "ι": 328,
      "κ": 329,
      "λ": 330,
      "μ": 331,
      "ν": 332,
      "ο": 333,
      "π": 334,
      "ρ": 335,
      "σ": 336,
      "τ": 337,
      "φ": 338,
      "ψ": 339,
      "ω": 340,
      "ό": 341,
      "ώ": 342,
      "Ѕ": 343,
      "І": 344,
      "А": 345,
      "Б": 346,
      "В": 347,
      "Г": 348,
      "Д": 349,
      "Е": 350,
      "Ж": 351,
      "З": 352,
      "И": 353,
      "К": 354,
      "Л": 355,
      "М": 356,
      "Н": 357,
      "О": 358,
      "П": 359,
      "Р": 360,
      "С": 361,
      "Т": 362,
      "У": 363,
      "Х": 364,
      "Ч": 365,
      "Ш": 366,
      "Ы": 367,
      "Я": 368,
      "а": 369,
      "б": 370,
      "в": 371,
      "г": 372,
      "д": 373,
      "е": 374,
      "ж": 375,
      "з": 376,
      "и": 377,
      "й": 378,
      "к": 379,
      "л": 380,
      "м": 381,
      "н": 382,
      "о": 383,
      "п": 384,
      "р": 385,
      "с": 386,
      "т": 387,
      "у": 388,
      "ф": 389,
      "х": 390,
      "ц": 391,
      "ч": 392,
      "ш": 393,
      "щ": 394,
      "ъ": 395,
      "ы": 396,
      "ь": 397,
      "э": 398,
      "ю": 399,
      "я": 400,
      "є": 401,
      "і": 402,
      "ғ": 403,
      "Қ": 404,
      "қ": 405,
      "ң": 406,
      "Ү": 407,
      "ү": 408,
      "ұ": 409,
      "ә": 410,
      "Ө": 411,
      "ө": 412,
      "֠": 413,
      "֦": 414,
      "ֹ": 415,
      "׃": 416,
      "،": 417,
      "آ": 418,
      "أ": 419,
      "إ": 420,
      "ا": 421,
      "ة": 422,
      "ت": 423,
      "ج": 424,
      "ح": 425,
      "د": 426,
      "ر": 427,
      "س": 428,
      "ق": 429,
      "ك": 430,
      "ل": 431,
      "م": 432,
      "ن": 433,
      "و": 434,
      "ي": 435,
      "ٓ": 436,
      "ٕ": 437,
      "ی": 438,
      "ँ": 439,
      "ं": 440,
      "ः": 441,
      "अ": 442,
      "आ": 443,
      "इ": 444,
      "ई": 445,
      "उ": 446,
      "ऊ": 447,
      "ऋ": 448,
      "ऌ": 449,
      "ऍ": 450,
      "ऎ": 451,
      "ए": 452,
      "ऐ": 453,
      "ऑ": 454,
      "ऒ": 455,
      "ओ": 456,
      "औ": 457,
      "क": 458,
      "ख": 459,
      "ग": 460,
      "घ": 461,
      "ङ": 462,
      "च": 463,
      "छ": 464,
      "ज": 465,
      "झ": 466,
      "ञ": 467,
      "ट": 468,
      "ठ": 469,
      "ड": 470,
      "ढ": 471,
      "ण": 472,
      "त": 473,
      "थ": 474,
      "द": 475,
      "ध": 476,
      "न": 477,
      "ऩ": 478,
      "प": 479,
      "फ": 480,
      "ब": 481,
      "भ": 482,
      "म": 483,
      "य": 484,
      "र": 485,
      "ऱ": 486,
      "ल": 487,
      "ळ": 488,
      "ऴ": 489,
      "व": 490,
      "श": 491,
      "ष": 492,
      "स": 493,
      "ह": 494,
      "़": 495,
      "ऽ": 496,
      "ा": 497,
      "ि": 498,
      "ी": 499,
      "ु": 500,
      "ू": 501,
      "ृ": 502,
      "ॄ": 503,
      "ॅ": 504,
      "ॆ": 505,
      "े": 506,
      "ै": 507,
      "ॉ": 508,
      "ॊ": 509,
      "ो": 510,
      "ौ": 511,
      "्": 512,
      "ॐ": 513,
      "॑": 514,
      "॒": 515,
      "॓": 516,
      "॔": 517,
      "क़": 518,
      "ख़": 519,
      "ग़": 520,
      "ज़": 521,
      "ड़": 522,
      "ढ़": 523,
      "फ़": 524,
      "य़": 525,
      "ॠ": 526,
      "ॡ": 527,
      "ॣ": 528,
      "।": 529,
      "॥": 530,
      "०": 531,
      "१": 532,
      "२": 533,
      "३": 534,
      "४": 535,
      "५": 536,
      "६": 537,
      "७": 538,
      "८": 539,
      "९": 540,
      "॰": 541,
      "ক": 542,
      "চ": 543,
      "ঠ": 544,
      "থ": 545,
      "দ": 546,
      "ন": 547,
      "ব": 548,
      "ভ": 549,
      "র": 550,
      "ষ": 551,
      "স": 552,
      "া": 553,
      "ী": 554,
      "ু": 555,
      "্": 556,
      "ਦ": 557,
      "ਲ": 558,
      "ਿ": 559,
      "ੀ": 560,
      "ੱ": 561,
      "પ": 562,
      "બ": 563,
      "ા": 564,
      "ુ": 565,
      "ḍ": 566,
      "ḥ": 567,
      "ḷ": 568,
      "ṁ": 569,
      "ṃ": 570,
      "ṅ": 571,
      "ṇ": 572,
      "Ṛ": 573,
      "ṛ": 574,
      "ṣ": 575,
      "ṭ": 576,
      "ẻ": 577,
      "ờ": 578,
      "ủ": 579,
      "​": 580,
      "‌": 581,
      "‍": 582,
      "‎": 583,
      "‏": 584,
      "‐": 585,
      "‑": 586,
      "–": 587,
      "—": 588,
      "―": 589,
      "‘": 590,
      "’": 591,
      "‚": 592,
      "“": 593,
      "”": 594,
      "„": 595,
      "†": 596,
      "‡": 597,
      "•": 598,
      "…": 599,
      "‰": 600,
      "′": 601,
      "⁰": 602,
      "⁴": 603,
      "⁵": 604,
      "⁶": 605,
      "⁷": 606,
      "⁻": 607,
      "₀": 608,
      "₁": 609,
      "₂": 610,
      "€": 611,
      "₹": 612,
      "™": 613,
      "⅓": 614,
      "⅔": 615,
      "⅕": 616,
      "⅖": 617,
      "⅗": 618,
      "⅘": 619,
      "⅙": 620,
      "←": 621,
      "→": 622,
      "⇒": 623,
      "∂": 624,
      "−": 625,
      "∕": 626,
      "√": 627,
      "∞": 628,
      "∣": 629,
      "∨": 630,
      "∶": 631,
      "≠": 632,
      "≤": 633,
      "≥": 634,
      "⋯": 635,
      "⌈": 636,
      "⌉": 637,
      "⌊": 638,
      "⌋": 639,
      "⌘": 640,
      "⏎": 641,
      "─": 642,
      "═": 643,
      "■": 644,
      "☺": 645,
      "☻": 646,
      "♪": 647,
      "♫": 648,
      "➣": 649,
      "、": 650,
      "。": 651,
      "あ": 652,
      "い": 653,
      "う": 654,
      "え": 655,
      "か": 656,
      "き": 657,
      "く": 658,
      "け": 659,
      "こ": 660,
      "さ": 661,
      "し": 662,
      "す": 663,
      "せ": 664,
      "そ": 665,
      "た": 666,
      "ち": 667,
      "っ": 668,
      "つ": 669,
      "て": 670,
      "と": 671,
      "な": 672,
      "に": 673,
      "の": 674,
      "は": 675,
      "ひ": 676,
      "へ": 677,
      "ま": 678,
      "み": 679,
      "め": 680,
      "も": 681,
      "よ": 682,
      "ら": 683,
      "り": 684,
      "る": 685,
      "れ": 686,
      "を": 687,
      "ん": 688,
      "゙": 689,
      "゚": 690,
      "ァ": 691,
      "ア": 692,
      "ィ": 693,
      "イ": 694,
      "ウ": 695,
      "エ": 696,
      "ォ": 697,
      "オ": 698,
      "カ": 699,
      "ク": 700,
      "コ": 701,
      "サ": 702,
      "シ": 703,
      "ス": 704,
      "タ": 705,
      "ッ": 706,
      "テ": 707,
      "ト": 708,
      "ニ": 709,
      "ネ": 710,
      "ハ": 711,
      "ヒ": 712,
      "フ": 713,
      "ヘ": 714,
      "ホ": 715,
      "マ": 716,
      "ム": 717,
      "メ": 718,
      "モ": 719,
      "ョ": 720,
      "ラ": 721,
      "リ": 722,
      "ル": 723,
      "レ": 724,
      "ロ": 725,
      "ワ": 726,
      "ン": 727,
      "ー": 728,
      "一": 729,
      "上": 730,
      "下": 731,
      "不": 732,
      "両": 733,
      "並": 734,
      "中": 735,
      "了": 736,
      "他": 737,
      "付": 738,
      "作": 739,
      "使": 740,
      "保": 741,
      "信": 742,
      "傭": 743,
      "優": 744,
      "元": 745,
      "先": 746,
      "入": 747,
      "全": 748,
      "共": 749,
      "内": 750,
      "再": 751,
      "出": 752,
      "分": 753,
      "切": 754,
      "利": 755,
      "削": 756,
      "前": 757,
      "力": 758,
      "加": 759,
      "動": 760,
      "化": 761,
      "匿": 762,
      "参": 763,
      "可": 764,
      "同": 765,
      "名": 766,
      "否": 767,
      "含": 768,
      "員": 769,
      "國": 770,
      "堀": 771,
      "報": 772,
      "境": 773,
      "変": 774,
      "外": 775,
      "大": 776,
      "失": 777,
      "妖": 778,
      "始": 779,
      "字": 780,
      "存": 781,
      "定": 782,
      "容": 783,
      "対": 784,
      "小": 785,
      "広": 786,
      "度": 787,
      "庸": 788,
      "当": 789,
      "待": 790,
      "後": 791,
      "従": 792,
      "必": 793,
      "悠": 794,
      "情": 795,
      "態": 796,
      "憂": 797,
      "成": 798,
      "戻": 799,
      "所": 800,
      "手": 801,
      "打": 802,
      "承": 803,
      "択": 804,
      "抹": 805,
      "拒": 806,
      "接": 807,
      "揺": 808,
      "擁": 809,
      "敗": 810,
      "数": 811,
      "断": 812,
      "新": 813,
      "方": 814,
      "既": 815,
      "明": 816,
      "時": 817,
      "曜": 818,
      "更": 819,
      "替": 820,
      "最": 821,
      "有": 822,
      "未": 823,
      "本": 824,
      "様": 825,
      "正": 826,
      "毎": 827,
      "求": 828,
      "洋": 829,
      "消": 830,
      "満": 831,
      "溶": 832,
      "漢": 833,
      "点": 834,
      "熔": 835,
      "版": 836,
      "状": 837,
      "環": 838,
      "用": 839,
      "由": 840,
      "病": 841,
      "登": 842,
      "直": 843,
      "知": 844,
      "短": 845,
      "確": 846,
      "示": 847,
      "秒": 848,
      "秦": 849,
      "細": 850,
      "終": 851,
      "続": 852,
      "編": 853,
      "置": 854,
      "羊": 855,
      "耀": 856,
      "者": 857,
      "能": 858,
      "脱": 859,
      "自": 860,
      "致": 861,
      "般": 862,
      "色": 863,
      "葉": 864,
      "行": 865,
      "表": 866,
      "複": 867,
      "要": 868,
      "見": 869,
      "規": 870,
      "覧": 871,
      "設": 872,
      "詳": 873,
      "認": 874,
      "謡": 875,
      "设": 876,
      "象": 877,
      "起": 878,
      "越": 879,
      "追": 880,
      "送": 881,
      "通": 882,
      "連": 883,
      "遥": 884,
      "選": 885,
      "重": 886,
      "録": 887,
      "開": 888,
      "関": 889,
      "除": 890,
      "集": 891,
      "離": 892,
      "順": 893,
      "預": 894,
      "째": 895,
      "": 896,
      "": 897,
      "": 898,
      "": 899,
      "": 900,
      "": 901,
      "ﬁ": 902,
      "ﬂ": 903,
      "﻿": 904,
      "：": 905,
      "？": 906,
      "￼": 907,
      "�": 908,
      "th": 909,
      "in": 910,
      "the": 911,
      "an": 912,
      "re": 913,
      "on": 914,
      "er": 915,
      "के": 916,
      "्र": 917,
      "at": 918,
      "en": 919,
      "ार": 920,
      "is": 921,
      "है": 922,
      "or": 923,
      "ें": 924,
      "of": 925,
      "या": 926,
      "al": 927,
      "ou": 928,
      "es": 929,
      "ed": 930,
      "ने": 931,
      "and": 932,
      "ों": 933,
      "ar": 934,
      "में": 935,
      "to": 936,
      "कर": 937,
      "it": 938,
      "का": 939,
      "से": 940,
      "की": 941,
      "as": 942,
      "और": 943,
      "कि": 944,
      "ing": 945,
      "ता": 946,
      "ion": 947,
      "र्": 948,
      "स्": 949,
      "को": 950,
      "प्र": 951,
      "्य": 952,
      "ना": 953,
      "ic": 954,
      "le": 955,
      "क्": 956,
      "he": 957,
      "om": 958,
      "ान": 959,
      "ent": 960,
      "वि": 961,
      "st": 962,
      "se": 963,
      "be": 964,
      "ही": 965,
      "पर": 966,
      "il": 967,
      "वा": 968,
      "ति": 969,
      "ve": 970,
      "लि": 971,
      "ला": 972,
      "नि": 973,
      "ct": 974,
      "हो": 975,
      "न्": 976,
      "जा": 977,
      "de": 978,
      "for": 979,
      "सा": 980,
      "रा": 981,
      "ro": 982,
      "wh": 983,
      "no": 984,
      "ते": 985,
      "सं": 986,
      "ch": 987,
      "am": 988,
      "ित": 989,
      "कार": 990,
      "ce": 991,
      "ation": 992,
      "दे": 993,
      "im": 994,
      "ले": 995,
      "nd": 996,
      "ha": 997,
      "मा": 998,
      "तु": 999,
      "हा": 1000,
      "ay": 1001,
      "दि": 1002,
      "हैं": 1003,
      "ly": 1004,
      "you": 1005,
      "ver": 1006,
      "त्": 1007,
      "id": 1008,
      "था": 1009,
      "ती": 1010,
      "ur": 1011,
      "ोग": 1012,
      "इस": 1013,
      "भी": 1014,
      "लिए": 1015,
      "ड़": 1016,
      "क्ष": 1017,
      "ut": 1018,
      "एक": 1019,
      "lo": 1020,
      "The": 1021,
      "ir": 1022,
      "सी": 1023,
      "li": 1024,
      "ad": 1025,
      "that": 1026,
      "tr": 1027,
      "are": 1028,
      "दा": 1029,
      "हीं": 1030,
      "जो": 1031,
      "सम": 1032,
      "उस": 1033,
      "उन": 1034,
      "ab": 1035,
      "तो": 1036,
      "बा": 1037,
      "ol": 1038,
      "ag": 1039,
      "su": 1040,
      "ment": 1041,
      "त्र": 1042,
      "अप": 1043,
      "द्": 1044,
      "ter": 1045,
      "जि": 1046,
      "नहीं": 1047,
      "we": 1048,
      "con": 1049,
      "ज़": 1050,
      "हु": 1051,
      "तुम": 1052,
      "ith": 1053,
      "हम": 1054,
      "ig": 1055,
      "ल्": 1056,
      "ष्": 1057,
      "not": 1058,
      "पा": 1059,
      "िक": 1060,
      "pe": 1061,
      "गा": 1062,
      "res": 1063,
      "ill": 1064,
      "all": 1065,
      "नी": 1066,
      "ll": 1067,
      "com": 1068,
      "pro": 1069,
      "us": 1070,
      "with": 1071,
      "un": 1072,
      "ess": 1073,
      "ul": 1074,
      "वे": 1075,
      "od": 1076,
      "तर": 1077,
      "ac": 1078,
      "et": 1079,
      "fr": 1080,
      "भा": 1081,
      "ate": 1082,
      "मु": 1083,
      "sh": 1084,
      "te": 1085,
      "चा": 1086,
      "किया": 1087,
      "if": 1088,
      "po": 1089,
      "यह": 1090,
      "ली": 1091,
      "per": 1092,
      "ain": 1093,
      "ld": 1094,
      "कु": 1095,
      "ther": 1096,
      "यों": 1097,
      "his": 1098,
      "री": 1099,
      "by": 1100,
      "वह": 1101,
      "श्": 1102,
      "ष्ट": 1103,
      "मि": 1104,
      "our": 1105,
      "रू": 1106,
      "अन": 1107,
      "ex": 1108,
      "so": 1109,
      "मान": 1110,
      "ारा": 1111,
      "पू": 1112,
      "ak": 1113,
      "do": 1114,
      "करने": 1115,
      "लोग": 1116,
      "अध": 1117,
      "ये": 1118,
      "fe": 1119,
      "ne": 1120,
      "was": 1121,
      "me": 1122,
      "iv": 1123,
      "have": 1124,
      "ap": 1125,
      "ht": 1126,
      "from": 1127,
      "ity": 1128,
      "they": 1129,
      "will": 1130,
      "op": 1131,
      "mo": 1132,
      "them": 1133,
      "ंग": 1134,
      "pl": 1135,
      "मे": 1136,
      "est": 1137,
      "रे": 1138,
      "खा": 1139,
      "who": 1140,
      "ah": 1141,
      "जी": 1142,
      "ख़": 1143,
      "art": 1144,
      "दी": 1145,
      "शा": 1146,
      "ri": 1147,
      "has": 1148,
      "हि": 1149,
      "this": 1150,
      "one": 1151,
      "ich": 1152,
      "ers": 1153,
      "वर्": 1154,
      "देश": 1155,
      "ant": 1156,
      "क़": 1157,
      "रह": 1158,
      "ारे": 1159,
      "अपने": 1160,
      "भार": 1161,
      "्या": 1162,
      "ind": 1163,
      "qu": 1164,
      "He": 1165,
      "सक": 1166,
      "ord": 1167,
      "ction": 1168,
      "ies": 1169,
      "न्ह": 1170,
      "सि": 1171,
      "सु": 1172,
      "फ़": 1173,
      "स्थ": 1174,
      "ive": 1175,
      "which": 1176,
      "pr": 1177,
      "िर": 1178,
      "उप": 1179,
      "any": 1180,
      "um": 1181,
      "out": 1182,
      "red": 1183,
      "In": 1184,
      "20": 1185,
      "ia": 1186,
      "Ind": 1187,
      "end": 1188,
      "सू": 1189,
      "ould": 1190,
      "ist": 1191,
      "All": 1192,
      "गे": 1193,
      "their": 1194,
      "शि": 1195,
      "क्र": 1196,
      "च्": 1197,
      "ard": 1198,
      "ge": 1199,
      "अनु": 1200,
      "जिस": 1201,
      "ci": 1202,
      "ार्": 1203,
      "व्य": 1204,
      "पु": 1205,
      "दो": 1206,
      "19": 1207,
      "प्": 1208,
      "गया": 1209,
      "em": 1210,
      "age": 1211,
      "ure": 1212,
      "ओं": 1213,
      "ैं": 1214,
      "तथा": 1215,
      "आप": 1216,
      "सर": 1217,
      "gr": 1218,
      "act": 1219,
      "ारी": 1220,
      "कुछ": 1221,
      "उन्ह": 1222,
      "oun": 1223,
      "रूप": 1224,
      "निर्": 1225,
      "ous": 1226,
      "up": 1227,
      "तक": 1228,
      "ort": 1229,
      "wor": 1230,
      "जब": 1231,
      "्ह": 1232,
      "over": 1233,
      "किसी": 1234,
      "द्व": 1235,
      "तुम्ह": 1236,
      "मी": 1237,
      "्री": 1238,
      "रि": 1239,
      "ear": 1240,
      "साथ": 1241,
      "We": 1242,
      "परि": 1243,
      "ow": 1244,
      "sa": 1245,
      "पूर्": 1246,
      "ंध": 1247,
      "ong": 1248,
      "au": 1249,
      "योग": 1250,
      "ame": 1251,
      "ish": 1252,
      "Allah": 1253,
      "but": 1254,
      "And": 1255,
      "ust": 1256,
      "प्रा": 1257,
      "dis": 1258,
      "ुदा": 1259,
      "गी": 1260,
      "कोई": 1261,
      "दू": 1262,
      "now": 1263,
      "ंड": 1264,
      "fo": 1265,
      "म्": 1266,
      "प्रति": 1267,
      "ans": 1268,
      "यो": 1269,
      "थे": 1270,
      "उनके": 1271,
      "हर": 1272,
      "वी": 1273,
      "ated": 1274,
      "कृ": 1275,
      "av": 1276,
      "द्ध": 1277,
      "बी": 1278,
      "your": 1279,
      "ance": 1280,
      "ight": 1281,
      "und": 1282,
      "ev": 1283,
      "able": 1284,
      "cl": 1285,
      "other": 1286,
      "ma": 1287,
      "इन": 1288,
      "द्वारा": 1289,
      "बना": 1290,
      "ke": 1291,
      "go": 1292,
      "िया": 1293,
      "जन": 1294,
      "वर": 1295,
      "ose": 1296,
      "क्ति": 1297,
      "ज्": 1298,
      "लोगों": 1299,
      "करें": 1300,
      "ren": 1301,
      "धार": 1302,
      "pt": 1303,
      "its": 1304,
      "ढ़": 1305,
      "करते": 1306,
      "फिर": 1307,
      "ra": 1308,
      "बे": 1309,
      "दिया": 1310,
      "ची": 1311,
      "can": 1312,
      "रो": 1313,
      "क्त": 1314,
      "port": 1315,
      "राज": 1316,
      "भारत": 1317,
      "गर": 1318,
      "राष्ट": 1319,
      "India": 1320,
      "जाए": 1321,
      "form": 1322,
      "यु": 1323,
      "ome": 1324,
      "नों": 1325,
      "गु": 1326,
      "there": 1327,
      "टी": 1328,
      "पह": 1329,
      "लाह": 1330,
      "पी": 1331,
      "ंत्र": 1332,
      "अल्": 1333,
      "ass": 1334,
      "ide": 1335,
      "oug": 1336,
      "ud": 1337,
      "Th": 1338,
      "टा": 1339,
      "कार्य": 1340,
      "लो": 1341,
      "मैं": 1342,
      "low": 1343,
      "थी": 1344,
      "क्या": 1345,
      "ast": 1346,
      "part": 1347,
      "अं": 1348,
      "ग्र": 1349,
      "him": 1350,
      "स्त": 1351,
      "ever": 1352,
      "बंध": 1353,
      "ach": 1354,
      "ary": 1355,
      "सब": 1356,
      "द्य": 1357,
      "..": 1358,
      "उत्": 1359,
      "स्था": 1360,
      "had": 1361,
      "कह": 1362,
      "कहा": 1363,
      "man": 1364,
      "अधि": 1365,
      "cre": 1366,
      "ज्ञ": 1367,
      "ख़ुदा": 1368,
      "ip": 1369,
      "जाता": 1370,
      "रख": 1371,
      "अल्लाह": 1372,
      "ice": 1373,
      "उसके": 1374,
      "00": 1375,
      "दु": 1376,
      "been": 1377,
      "af": 1378,
      "चार": 1379,
      "ok": 1380,
      "रहे": 1381,
      "ब्": 1382,
      "comp": 1383,
      "co": 1384,
      "coun": 1385,
      "अपनी": 1386,
      "ence": 1387,
      "ople": 1388,
      "ड़ा": 1389,
      "It": 1390,
      "were": 1391,
      "ical": 1392,
      "करना": 1393,
      "know": 1394,
      "मू": 1395,
      "अव": 1396,
      "br": 1397,
      "fore": 1398,
      "द्र": 1399,
      "लों": 1400,
      "ियों": 1401,
      "ie": 1402,
      "ions": 1403,
      "बहु": 1404,
      "रु": 1405,
      "भि": 1406,
      "tim": 1407,
      "way": 1408,
      "pres": 1409,
      "त्य": 1410,
      "ire": 1411,
      "pre": 1412,
      "निय": 1413,
      "those": 1414,
      "बर": 1415,
      "न्न": 1416,
      "bo": 1417,
      "du": 1418,
      "क्षे": 1419,
      "ine": 1420,
      "क्षा": 1421,
      "fa": 1422,
      "च्छ": 1423,
      "when": 1424,
      "ake": 1425,
      "प्त": 1426,
      "Wh": 1427,
      "iz": 1428,
      "said": 1429,
      "ber": 1430,
      "बात": 1431,
      "people": 1432,
      "beli": 1433,
      "वाले": 1434,
      "bl": 1435,
      "ser": 1436,
      "ानी": 1437,
      "बि": 1438,
      "ound": 1439,
      "je": 1440,
      "हुए": 1441,
      "चे": 1442,
      "टे": 1443,
      "ts": 1444,
      "under": 1445,
      "ang": 1446,
      "बाद": 1447,
      "str": 1448,
      "el": 1449,
      "shall": 1450,
      "शन": 1451,
      "चु": 1452,
      "लग": 1453,
      "उन्हें": 1454,
      "शी": 1455,
      "ase": 1456,
      "ign": 1457,
      "डा": 1458,
      "करता": 1459,
      "ile": 1460,
      "ens": 1461,
      "day": 1462,
      "स्व": 1463,
      "pos": 1464,
      "ations": 1465,
      "होता": 1466,
      "what": 1467,
      "old": 1468,
      "comm": 1469,
      "her": 1470,
      "come": 1471,
      "here": 1472,
      "दर्": 1473,
      "God": 1474,
      "विध": 1475,
      "ings": 1476,
      "ial": 1477,
      "क्षेत्र": 1478,
      "रहा": 1479,
      "ोंने": 1480,
      "also": 1481,
      "जान": 1482,
      "अधिक": 1483,
      "उसे": 1484,
      "सकता": 1485,
      "ड़े": 1486,
      "rit": 1487,
      "वन": 1488,
      "देख": 1489,
      "work": 1490,
      "पै": 1491,
      "शु": 1492,
      "ian": 1493,
      "समय": 1494,
      "दान": 1495,
      "चि": 1496,
      "ult": 1497,
      "चित": 1498,
      "cess": 1499,
      "sel": 1500,
      "जै": 1501,
      "बु": 1502,
      "ble": 1503,
      "बहुत": 1504,
      "मो": 1505,
      "राष्ट्र": 1506,
      "मह": 1507,
      "may": 1508,
      "ack": 1509,
      "ef": 1510,
      "्यों": 1511,
      "मिल": 1512,
      "र्थ": 1513,
      "कर्": 1514,
      "sp": 1515,
      "भू": 1516,
      "prov": 1517,
      "tain": 1518,
      "This": 1519,
      "ough": 1520,
      "काम": 1521,
      "Lord": 1522,
      "त्व": 1523,
      "then": 1524,
      "हे": 1525,
      "शे": 1526,
      "ted": 1527,
      "पति": 1528,
      "ful": 1529,
      "ise": 1530,
      "ड़ी": 1531,
      "पास": 1532,
      "some": 1533,
      "पूर्ण": 1534,
      "ep": 1535,
      "ail": 1536,
      "ater": 1537,
      "spe": 1538,
      "ident": 1539,
      "ace": 1540,
      "ath": 1541,
      "St": 1542,
      "तीय": 1543,
      "पि": 1544,
      "201": 1545,
      "ory": 1546,
      "ition": 1547,
      "णा": 1548,
      "overn": 1549,
      "try": 1550,
      "Ch": 1551,
      "कारी": 1552,
      "निक": 1553,
      "लय": 1554,
      "तरह": 1555,
      "डि": 1556,
      "tw": 1557,
      "ree": 1558,
      "वर्ष": 1559,
      "ally": 1560,
      "विश्": 1561,
      "year": 1562,
      "टि": 1563,
      "भाग": 1564,
      "ot": 1565,
      "टर": 1566,
      "हू": 1567,
      "कम": 1568,
      "only": 1569,
      "करण": 1570,
      "वं": 1571,
      "sub": 1572,
      "उन्होंने": 1573,
      "हुआ": 1574,
      "urn": 1575,
      "would": 1576,
      "ple": 1577,
      "पहले": 1578,
      "दर": 1579,
      "my": 1580,
      "सम्": 1581,
      "ious": 1582,
      "time": 1583,
      "योज": 1584,
      "such": 1585,
      "यदि": 1586,
      "पे": 1587,
      "हमने": 1588,
      "चना": 1589,
      "ject": 1590,
      "जिन": 1591,
      "दिन": 1592,
      "मत": 1593,
      "wn": 1594,
      "ty": 1595,
      "समा": 1596,
      "हों": 1597,
      "कों": 1598,
      "ue": 1599,
      "उनकी": 1600,
      "होने": 1601,
      "तुम्हारे": 1602,
      "चाहि": 1603,
      "नाम": 1604,
      "धि": 1605,
      "मुख": 1606,
      "than": 1607,
      "lig": 1608,
      "छो": 1609,
      "new": 1610,
      "ause": 1611,
      "होगा": 1612,
      "व्यक्ति": 1613,
      "ck": 1614,
      "son": 1615,
      "ज़ा": 1616,
      "्रे": 1617,
      "गत": 1618,
      "संबंध": 1619,
      "एं": 1620,
      "पर्": 1621,
      "गई": 1622,
      "cent": 1623,
      "्रीय": 1624,
      "गए": 1625,
      "मन": 1626,
      "झे": 1627,
      "हां": 1628,
      "अन्य": 1629,
      "like": 1630,
      "ational": 1631,
      "बो": 1632,
      "ौर": 1633,
      "ities": 1634,
      "हमारे": 1635,
      "made": 1636,
      "lect": 1637,
      "Re": 1638,
      "ob": 1639,
      "्रा": 1640,
      "ओर": 1641,
      "िति": 1642,
      "सभी": 1643,
      "gre": 1644,
      "ress": 1645,
      "ऐसे": 1646,
      "ite": 1647,
      "दार": 1648,
      "ward": 1649,
      "after": 1650,
      "min": 1651,
      "वाला": 1652,
      "sc": 1653,
      "thing": 1654,
      "दन": 1655,
      "करो": 1656,
      "should": 1657,
      "more": 1658,
      "एँ": 1659,
      "ho": 1660,
      "राष्ट्रपति": 1661,
      "ild": 1662,
      "स्ता": 1663,
      "eng": 1664,
      "about": 1665,
      "bet": 1666,
      "Com": 1667,
      "बद": 1668,
      "gu": 1669,
      "धान": 1670,
      "int": 1671,
      "say": 1672,
      "स्ट": 1673,
      "बार": 1674,
      "यी": 1675,
      "into": 1676,
      "off": 1677,
      "प्राप्त": 1678,
      "cont": 1679,
      "Sh": 1680,
      "Pr": 1681,
      "overnment": 1682,
      "ग़": 1683,
      "श्य": 1684,
      "As": 1685,
      "cur": 1686,
      "नियम": 1687,
      "भाव": 1688,
      "प्रकार": 1689,
      "स्थान": 1690,
      "सकते": 1691,
      "हाँ": 1692,
      "tern": 1693,
      "ces": 1694,
      "राज्य": 1695,
      "अच्छ": 1696,
      "लन": 1697,
      "giv": 1698,
      "200": 1699,
      "इसके": 1700,
      "see": 1701,
      "साम": 1702,
      "चाहिए": 1703,
      "vers": 1704,
      "But": 1705,
      "So": 1706,
      "ark": 1707,
      "जाने": 1708,
      "डी": 1709,
      "Un": 1710,
      "हित": 1711,
      "They": 1712,
      "उसकी": 1713,
      "पूर्व": 1714,
      "तों": 1715,
      "लिया": 1716,
      "बढ़": 1717,
      "ave": 1718,
      "eve": 1719,
      "Pro": 1720,
      "सार": 1721,
      "cer": 1722,
      "न्द": 1723,
      "किए": 1724,
      "lop": 1725,
      "दूस": 1726,
      "्यू": 1727,
      "सर्": 1728,
      "cial": 1729,
      "des": 1730,
      "किन": 1731,
      "igh": 1732,
      "reg": 1733,
      "ness": 1734,
      "होती": 1735,
      "ज्ञान": 1736,
      "aw": 1737,
      "ईमान": 1738,
      "Con": 1739,
      "क्रम": 1740,
      "sy": 1741,
      "),": 1742,
      "सरकार": 1743,
      "विका": 1744,
      "two": 1745,
      "stit": 1746,
      "ied": 1747,
      "माण": 1748,
      "गार": 1749,
      "ener": 1750,
      "अगर": 1751,
      "समझ": 1752,
      "cept": 1753,
      "खु": 1754,
      "चाह": 1755,
      "led": 1756,
      "ry": 1757,
      "करे": 1758,
      "शेष": 1759,
      "fir": 1760,
      "turn": 1761,
      "ific": 1762,
      "योजना": 1763,
      "न्या": 1764,
      "ीन": 1765,
      "ऐसा": 1766,
      "ph": 1767,
      "get": 1768,
      "वार": 1769,
      "used": 1770,
      "trans": 1771,
      "set": 1772,
      "यन": 1773,
      "ship": 1774,
      "जे": 1775,
      "deed": 1776,
      "good": 1777,
      "विक": 1778,
      "तन": 1779,
      "ual": 1780,
      "अभि": 1781,
      "ank": 1782,
      "ates": 1783,
      "ments": 1784,
      "serv": 1785,
      "these": 1786,
      "पो": 1787,
      "एवं": 1788,
      "ट्": 1789,
      "इल": 1790,
      "धन": 1791,
      "कारण": 1792,
      "ठा": 1793,
      "अब": 1794,
      "पहु": 1795,
      "भारतीय": 1796,
      "व्या": 1797,
      "द्योग": 1798,
      "लगा": 1799,
      "ange": 1800,
      "ंच": 1801,
      "क्षण": 1802,
      "har": 1803,
      "मुझे": 1804,
      "वै": 1805,
      "before": 1806,
      "विकास": 1807,
      "mis": 1808,
      "क्यों": 1809,
      "stitut": 1810,
      "mer": 1811,
      "log": 1812,
      "भे": 1813,
      "रसू": 1814,
      "तः": 1815,
      "सो": 1816,
      "मार्": 1817,
      "फल": 1818,
      "again": 1819,
      "mon": 1820,
      "गो": 1821,
      "सद": 1822,
      "ध्य": 1823,
      "क्रिया": 1824,
      "धारा": 1825,
      "मंत्र": 1826,
      "row": 1827,
      "His": 1828,
      "ash": 1829,
      "thr": 1830,
      "हुई": 1831,
      "where": 1832,
      "cause": 1833,
      "खो": 1834,
      "cy": 1835,
      "life": 1836,
      "निश्": 1837,
      "भाष": 1838,
      "Mo": 1839,
      "feren": 1840,
      "ubl": 1841,
      "वृ": 1842,
      "जू": 1843,
      "डर": 1844,
      "त्म": 1845,
      "ink": 1846,
      "call": 1847,
      "ors": 1848,
      "self": 1849,
      "यू": 1850,
      "आर": 1851,
      "ंद": 1852,
      "ily": 1853,
      "स्थिति": 1854,
      "most": 1855,
      "च्च": 1856,
      "An": 1857,
      "कृति": 1858,
      "दिखा": 1859,
      "col": 1860,
      "si": 1861,
      "well": 1862,
      "fer": 1863,
      "सह": 1864,
      "Se": 1865,
      "रसूल": 1866,
      "person": 1867,
      "ves": 1868,
      "sion": 1869,
      "वल": 1870,
      "hi": 1871,
      "मौ": 1872,
      "मूल": 1873,
      "उसने": 1874,
      "ating": 1875,
      "pol": 1876,
      "Ex": 1877,
      "very": 1878,
      "fol": 1879,
      "रब": 1880,
      "दोनों": 1881,
      "स्तु": 1882,
      "ेंगे": 1883,
      "De": 1884,
      "mem": 1885,
      "आई": 1886,
      "लेकिन": 1887,
      "world": 1888,
      "अपना": 1889,
      "You": 1890,
      "att": 1891,
      "Indian": 1892,
      "दृ": 1893,
      "विष": 1894,
      "resident": 1895,
      "add": 1896,
      "प्रे": 1897,
      "pur": 1898,
      "फा": 1899,
      "If": 1900,
      "बै": 1901,
      "जाती": 1902,
      "med": 1903,
      "युक्त": 1904,
      "being": 1905,
      "तुम्हें": 1906,
      "oc": 1907,
      "val": 1908,
      "For": 1909,
      "विश्व": 1910,
      "जीवन": 1911,
      "ख्या": 1912,
      "own": 1913,
      "प्रदान": 1914,
      "ict": 1915,
      "वाद": 1916,
      "पत्र": 1917,
      "पार": 1918,
      "विशेष": 1919,
      "rel": 1920,
      "ऐसी": 1921,
      "long": 1922,
      "...": 1923,
      "ced": 1924,
      "आय": 1925,
      "ru": 1926,
      "through": 1927,
      "वाली": 1928,
      "ative": 1929,
      "stru": 1930,
      "deve": 1931,
      "उपयोग": 1932,
      "लिख": 1933,
      "There": 1934,
      "ंक": 1935,
      "माल": 1936,
      "णी": 1937,
      "प्रयोग": 1938,
      "wer": 1939,
      "cons": 1940,
      "mat": 1941,
      "चल": 1942,
      "less": 1943,
      "section": 1944,
      ").": 1945,
      "fl": 1946,
      "कै": 1947,
      "read": 1948,
      "hel": 1949,
      "land": 1950,
      "every": 1951,
      "होते": 1952,
      "हाय": 1953,
      "10": 1954,
      "develop": 1955,
      "जु": 1956,
      "कं": 1957,
      "ext": 1958,
      "कता": 1959,
      "vis": 1960,
      "जैसे": 1961,
      "बन": 1962,
      "En": 1963,
      "ning": 1964,
      "श्री": 1965,
      "down": 1966,
      "ख्": 1967,
      "dif": 1968,
      "need": 1969,
      "डे": 1970,
      "name": 1971,
      "right": 1972,
      "ati": 1973,
      "tri": 1974,
      "Is": 1975,
      "fin": 1976,
      "ye": 1977,
      "stand": 1978,
      "produ": 1979,
      "main": 1980,
      "निया": 1981,
      "rest": 1982,
      "बीच": 1983,
      "No": 1984,
      "रही": 1985,
      "ंत": 1986,
      "ask": 1987,
      "बारे": 1988,
      "18": 1989,
      "aj": 1990,
      "ism": 1991,
      "lear": 1992,
      "काश": 1993,
      "use": 1994,
      "स्वा": 1995,
      "ण्": 1996,
      "war": 1997,
      "sure": 1998,
      "पं": 1999,
      "just": 2000,
      "ages": 2001,
      "make": 2002,
      "ents": 2003,
      "वास": 2004,
      "उसका": 2005,
      "uring": 2006,
      "सहाय": 2007,
      "inv": 2008,
      "ween": 2009,
      "char": 2010,
      "country": 2011,
      "arch": 2012,
      "ten": 2013,
      "tru": 2014,
      "लेख": 2015,
      "tak": 2016,
      "कू": 2017,
      "ided": 2018,
      "तना": 2019,
      "President": 2020,
      "।\"": 2021,
      "ting": 2022,
      "Government": 2023,
      "आव": 2024,
      "राष्ट्रीय": 2025,
      "ick": 2026,
      "ष्ठ": 2027,
      "put": 2028,
      "does": 2029,
      "मै": 2030,
      "आधार": 2031,
      "फ़ा": 2032,
      "र्म": 2033,
      "काल": 2034,
      "between": 2035,
      "सेवा": 2036,
      "men": 2037,
      "bu": 2038,
      "follow": 2039,
      "stem": 2040,
      "nor": 2041,
      "ublic": 2042,
      "inte": 2043,
      "स्थाप": 2044,
      "pp": 2045,
      "मेरे": 2046,
      "many": 2047,
      "ular": 2048,
      "fic": 2049,
      "सके": 2050,
      "एस": 2051,
      "भर": 2052,
      "believe": 2053,
      "gan": 2054,
      "Min": 2055,
      "back": 2056,
      "even": 2057,
      "first": 2058,
      "भिन्न": 2059,
      "ural": 2060,
      "नीति": 2061,
      "धी": 2062,
      "upon": 2063,
      "ms": 2064,
      "could": 2065,
      "did": 2066,
      "hand": 2067,
      "Him": 2068,
      "अंत": 2069,
      "pect": 2070,
      "ax": 2071,
      "शक": 2072,
      "hav": 2073,
      "num": 2074,
      "Act": 2075,
      "िय": 2076,
      "ought": 2077,
      "उनका": 2078,
      "sign": 2079,
      "cour": 2080,
      "विचार": 2081,
      "जाएगा": 2082,
      "देने": 2083,
      "हमें": 2084,
      "15": 2085,
      "years": 2086,
      "वही": 2087,
      "ters": 2088,
      "केवल": 2089,
      "cord": 2090,
      "मित": 2091,
      "lim": 2092,
      "तम": 2093,
      "चीज़": 2094,
      "शो": 2095,
      "माम": 2096,
      "given": 2097,
      "let": 2098,
      "यर": 2099,
      "came": 2100,
      "बू": 2101,
      "mu": 2102,
      "tem": 2103,
      "जिसमें": 2104,
      "स्प": 2105,
      "cond": 2106,
      "चय": 2107,
      "परा": 2108,
      "आवश्य": 2109,
      "ताकि": 2110,
      "हूँ": 2111,
      "मान्य": 2112,
      "प्रत्य": 2113,
      "धा": 2114,
      "सूचना": 2115,
      "present": 2116,
      "mit": 2117,
      "ility": 2118,
      "den": 2119,
      "sha": 2120,
      "ंभ": 2121,
      "peri": 2122,
      "श्र": 2123,
      "cap": 2124,
      "earth": 2125,
      "ited": 2126,
      "fect": 2127,
      "पत्": 2128,
      "als": 2129,
      "ल्प": 2130,
      "against": 2131,
      "uc": 2132,
      "निर्धार": 2133,
      "कृत": 2134,
      "play": 2135,
      "Bo": 2136,
      "mess": 2137,
      "पैदा": 2138,
      "वालों": 2139,
      "among": 2140,
      "par": 2141,
      "जाना": 2142,
      "take": 2143,
      "लें": 2144,
      "खे": 2145,
      "writ": 2146,
      "ature": 2147,
      "उसी": 2148,
      "ष्टि": 2149,
      "क्स": 2150,
      "requ": 2151,
      "हमारी": 2152,
      "12": 2153,
      "दूसरे": 2154,
      "place": 2155,
      "sent": 2156,
      "इसे": 2157,
      "ond": 2158,
      "आज": 2159,
      "बड़ा": 2160,
      "सन": 2161,
      "सबसे": 2162,
      "त्या": 2163,
      "न्तु": 2164,
      "ised": 2165,
      "संग": 2166,
      "soci": 2167,
      "To": 2168,
      "मद": 2169,
      "word": 2170,
      "तंत्र": 2171,
      "उत्पा": 2172,
      "मार्ग": 2173,
      "फ्": 2174,
      "formation": 2175,
      "भव": 2176,
      "अन्": 2177,
      "Ar": 2178,
      "ved": 2179,
      "वान": 2180,
      "incl": 2181,
      "पश्": 2182,
      "give": 2183,
      "great": 2184,
      "iew": 2185,
      "वेश": 2186,
      "घा": 2187,
      "cri": 2188,
      "तब": 2189,
      "अथ": 2190,
      "irect": 2191,
      "mark": 2192,
      "मार": 2193,
      "लब्": 2194,
      "pa": 2195,
      "cal": 2196,
      "ज्ञा": 2197,
      "cr": 2198,
      "var": 2199,
      "जाते": 2200,
      "inter": 2201,
      "लोक": 2202,
      "help": 2203,
      "इसमें": 2204,
      "गति": 2205,
      "ner": 2206,
      "स्वी": 2207,
      "ज़ि": 2208,
      "Ad": 2209,
      "घर": 2210,
      "ices": 2211,
      "क्योंकि": 2212,
      "IN": 2213,
      "अधिनियम": 2214,
      "car": 2215,
      "अधिकार": 2216,
      "कंप": 2217,
      "त्ता": 2218,
      "vel": 2219,
      "On": 2220,
      "power": 2221,
      "शक्ति": 2222,
      "देता": 2223,
      "समान": 2224,
      "स्त्र": 2225,
      "जिसे": 2226,
      "Su": 2227,
      "lar": 2228,
      "व्यव": 2229,
      "system": 2230,
      "pass": 2231,
      "Minis": 2232,
      "बस": 2233,
      "नो": 2234,
      "बल्": 2235,
      "ased": 2236,
      "यार": 2237,
      "gram": 2238,
      "alth": 2239,
      "भाषा": 2240,
      "ional": 2241,
      "उपलब्": 2242,
      "हरा": 2243,
      "छा": 2244,
      "ग्रा": 2245,
      "फी": 2246,
      "लू": 2247,
      "les": 2248,
      "ants": 2249,
      "lish": 2250,
      "अथवा": 2251,
      "ade": 2252,
      "इं": 2253,
      "cor": 2254,
      "अर्": 2255,
      "State": 2256,
      "दूर": 2257,
      "cho": 2258,
      "उनसे": 2259,
      "क्षम": 2260,
      "Ne": 2261,
      "Al": 2262,
      "उद्": 2263,
      "hum": 2264,
      "child": 2265,
      "ताओं": 2266,
      "ven": 2267,
      "पन": 2268,
      "ins": 2269,
      "संदेश": 2270,
      "ध्या": 2271,
      "भु": 2272,
      "वाह": 2273,
      "पुर": 2274,
      "because": 2275,
      "plo": 2276,
      "ures": 2277,
      "उससे": 2278,
      "import": 2279,
      "यालय": 2280,
      "कभी": 2281,
      "jo": 2282,
      "टन": 2283,
      "must": 2284,
      "she": 2285,
      "भूमि": 2286,
      "खि": 2287,
      "tal": 2288,
      "oper": 2289,
      "बैं": 2290,
      "lit": 2291,
      "fact": 2292,
      "दों": 2293,
      "When": 2294,
      "दाय": 2295,
      "count": 2296,
      "ital": 2297,
      "कुल": 2298,
      "ठी": 2299,
      "ii": 2300,
      "परवर": 2301,
      "तै": 2302,
      "फ़ाइल": 2303,
      "दिगार": 2304,
      "सान": 2305,
      "thor": 2306,
      "plic": 2307,
      "हूं": 2308,
      "षण": 2309,
      "शिक्षा": 2310,
      "महा": 2311,
      "परवरदिगार": 2312,
      "qual": 2313,
      "light": 2314,
      "अंतर": 2315,
      "सूची": 2316,
      "त्रा": 2317,
      "Our": 2318,
      "सकती": 2319,
      "ror": 2320,
      "ार्थ": 2321,
      "वो": 2322,
      "ides": 2323,
      "स्ते": 2324,
      "ouse": 2325,
      "iness": 2326,
      "कान": 2327,
      "gener": 2328,
      "मिक": 2329,
      "स्तर": 2330,
      "wom": 2331,
      "prom": 2332,
      "चर": 2333,
      "ES": 2334,
      "water": 2335,
      "how": 2336,
      "दौर": 2337,
      "करा": 2338,
      "कट": 2339,
      "यं": 2340,
      "रत": 2341,
      "वरण": 2342,
      "बन्": 2343,
      "लं": 2344,
      "ivers": 2345,
      "पहुँ": 2346,
      "tribut": 2347,
      "differen": 2348,
      "pend": 2349,
      "करती": 2350,
      "शब्": 2351,
      "ब्र": 2352,
      "ese": 2353,
      "बड़ी": 2354,
      "state": 2355,
      "ss": 2356,
      "sup": 2357,
      "महत्व": 2358,
      "उपलब्ध": 2359,
      "order": 2360,
      "तू": 2361,
      "found": 2362,
      "evers": 2363,
      "पुन": 2364,
      "बरा": 2365,
      "इसलिए": 2366,
      "leg": 2367,
      "Day": 2368,
      "स्ति": 2369,
      "199": 2370,
      "सहायता": 2371,
      "हाल": 2372,
      "उत्तर": 2373,
      "प्रो": 2374,
      "कई": 2375,
      "hold": 2376,
      "अलग": 2377,
      "tre": 2378,
      "लिये": 2379,
      "याद": 2380,
      "संख्या": 2381,
      "cus": 2382,
      "che": 2383,
      "ps": 2384,
      "मं": 2385,
      "11": 2386,
      "लाभ": 2387,
      "bod": 2388,
      "far": 2389,
      "ग्रह": 2390,
      "गि": 2391,
      "selves": 2392,
      "ीय": 2393,
      "मेरी": 2394,
      "आया": 2395,
      "ट्र": 2396,
      "छोड़": 2397,
      "कला": 2398,
      "फि": 2399,
      "fil": 2400,
      "ताब": 2401,
      "resp": 2402,
      "Hind": 2403,
      "अति": 2404,
      "while": 2405,
      "away": 2406,
      "तान": 2407,
      "होना": 2408,
      "निर्माण": 2409,
      "पता": 2410,
      "बल्कि": 2411,
      "न्द्र": 2412,
      "उनमें": 2413,
      "संस्": 2414,
      "lead": 2415,
      "want": 2416,
      "ata": 2417,
      "Do": 2418,
      "ution": 2419,
      "pay": 2420,
      "ft": 2421,
      "जिन्ह": 2422,
      "सुर": 2423,
      "पक": 2424,
      "अर्थ": 2425,
      "each": 2426,
      "होगी": 2427,
      "उठा": 2428,
      "ified": 2429,
      "परिवर्": 2430,
      "number": 2431,
      "इससे": 2432,
      "सल": 2433,
      "बता": 2434,
      "फे": 2435,
      "sur": 2436,
      "शामिल": 2437,
      "अधीन": 2438,
      "सदस्": 2439,
      "clo": 2440,
      "कॉ": 2441,
      "सामान्य": 2442,
      "िका": 2443,
      "mal": 2444,
      "विभिन्न": 2445,
      "सफल": 2446,
      "यहाँ": 2447,
      "fam": 2448,
      "इसी": 2449,
      "ral": 2450,
      "angu": 2451,
      "dec": 2452,
      "ety": 2453,
      "list": 2454,
      "book": 2455,
      "कर्म": 2456,
      "द्धि": 2457,
      "भग": 2458,
      "शै": 2459,
      "उच्च": 2460,
      "स्थित": 2461,
      "heav": 2462,
      "ys": 2463,
      "आगे": 2464,
      ".\"": 2465,
      "पड़": 2466,
      "कहते": 2467,
      "view": 2468,
      "जहां": 2469,
      "conom": 2470,
      "करके": 2471,
      "बल": 2472,
      "mission": 2473,
      "og": 2474,
      "dow": 2475,
      "िकी": 2476,
      "दौरान": 2477,
      "Cent": 2478,
      "धर": 2479,
      "heart": 2480,
      "वस्तु": 2481,
      "मंत्री": 2482,
      "विद्": 2483,
      "लित": 2484,
      "during": 2485,
      "organ": 2486,
      "Mu": 2487,
      "लिक": 2488,
      "high": 2489,
      "ime": 2490,
      "अंग": 2491,
      "खंड": 2492,
      "believers": 2493,
      "ctions": 2494,
      "त्मक": 2495,
      "move": 2496,
      "वित": 2497,
      "यही": 2498,
      "्व": 2499,
      "मृ": 2500,
      "वास्त": 2501,
      "घट": 2502,
      "Res": 2503,
      "dev": 2504,
      "स्पष्ट": 2505,
      "उनको": 2506,
      "कें": 2507,
      "logy": 2508,
      "case": 2509,
      "aug": 2510,
      "विषय": 2511,
      "000": 2512,
      "same": 2513,
      "dr": 2514,
      "sm": 2515,
      "spec": 2516,
      "जल": 2517,
      "EN": 2518,
      "अनुसार": 2519,
      "ls": 2520,
      "र्इ": 2521,
      "change": 2522,
      "ledge": 2523,
      "बैठ": 2524,
      "law": 2525,
      "अवसर": 2526,
      "मुख्य": 2527,
      "एम": 2528,
      "la": 2529,
      "त्त": 2530,
      "whom": 2531,
      "AN": 2532,
      "हाथ": 2533,
      "ंगा": 2534,
      "Be": 2535,
      "rece": 2536,
      "जिसके": 2537,
      "पूरा": 2538,
      "ana": 2539,
      "ars": 2540,
      "ेक": 2541,
      "दुनिया": 2542,
      "issu": 2543,
      "छे": 2544,
      "development": 2545,
      "हत": 2546,
      "मीन": 2547,
      "सित": 2548,
      "called": 2549,
      "process": 2550,
      "यां": 2551,
      "होंगे": 2552,
      "सामने": 2553,
      "ik": 2554,
      "तरफ": 2555,
      "कौ": 2556,
      "इसका": 2557,
      "Then": 2558,
      "मर": 2559,
      "नेक": 2560,
      "ics": 2561,
      "cas": 2562,
      "fac": 2563,
      "ired": 2564,
      "अच्छा": 2565,
      "ya": 2566,
      "हार": 2567,
      "bus": 2568,
      "ists": 2569,
      "both": 2570,
      ":%": 2571,
      "संर": 2572,
      "ives": 2573,
      "परी": 2574,
      "बढ़ा": 2575,
      "ways": 2576,
      "certain": 2577,
      "प्रक्रिया": 2578,
      "16": 2579,
      "My": 2580,
      "tech": 2581,
      "Par": 2582,
      "open": 2583,
      "धु": 2584,
      "look": 2585,
      "sul": 2586,
      "press": 2587,
      "समू": 2588,
      "पृ": 2589,
      "गह": 2590,
      "stud": 2591,
      "file": 2592,
      "another": 2593,
      "public": 2594,
      "क्षित": 2595,
      "bal": 2596,
      "etc": 2597,
      "पक्ष": 2598,
      "mind": 2599,
      "उसमें": 2600,
      "जाएँ": 2601,
      "cro": 2602,
      "ंतु": 2603,
      "कल": 2604,
      "आपको": 2605,
      "30": 2606,
      "Tr": 2607,
      "things": 2608,
      "यास": 2609,
      "head": 2610,
      "टो": 2611,
      "educ": 2612,
      "known": 2613,
      "mak": 2614,
      "संबंधित": 2615,
      "truth": 2616,
      "fu": 2617,
      "पद": 2618,
      "start": 2619,
      "सौ": 2620,
      "देते": 2621,
      "wards": 2622,
      "bro": 2623,
      "commun": 2624,
      "करेगा": 2625,
      "Mus": 2626,
      "तैयार": 2627,
      "साइ": 2628,
      "kind": 2629,
      "निश्चित": 2630,
      "नई": 2631,
      "io": 2632,
      "opt": 2633,
      "रंग": 2634,
      "बाहर": 2635,
      "फो": 2636,
      "रखा": 2637,
      "र्ष": 2638,
      "जार": 2639,
      "Of": 2640,
      "return": 2641,
      "ared": 2642,
      "जह": 2643,
      "जित": 2644,
      "period": 2645,
      "gg": 2646,
      "ID": 2647,
      "पानी": 2648,
      "knowledge": 2649,
      "sto": 2650,
      "comple": 2651,
      "indust": 2652,
      "लाने": 2653,
      "ize": 2654,
      "econom": 2655,
      "cut": 2656,
      "ount": 2657,
      "प्रत्येक": 2658,
      "लगे": 2659,
      "प्रौ": 2660,
      "जारी": 2661,
      "hal": 2662,
      "different": 2663,
      "चाहते": 2664,
      "राम": 2665,
      "किताब": 2666,
      "indeed": 2667,
      "बड़े": 2668,
      "partic": 2669,
      "विधा": 2670,
      "14": 2671,
      "National": 2672,
      "AT": 2673,
      "पढ़": 2674,
      "find": 2675,
      "तार": 2676,
      "योजन": 2677,
      "sect": 2678,
      "without": 2679,
      "ann": 2680,
      "लने": 2681,
      "ON": 2682,
      "What": 2683,
      "अग": 2684,
      "र्ट": 2685,
      "win": 2686,
      "por": 2687,
      "समर्थ": 2688,
      "50": 2689,
      "three": 2690,
      "Mess": 2691,
      "ज्या": 2692,
      "bers": 2693,
      "suc": 2694,
      "show": 2695,
      "महि": 2696,
      "तीन": 2697,
      "lease": 2698,
      "चुन": 2699,
      "mar": 2700,
      "तुम्हारी": 2701,
      "रात": 2702,
      "support": 2703,
      "account": 2704,
      "ving": 2705,
      "bed": 2706,
      "अध्य": 2707,
      "bar": 2708,
      "प्रकाश": 2709,
      "देशों": 2710,
      "OF": 2711,
      "avail": 2712,
      "शान": 2713,
      "बनाने": 2714,
      "गू": 2715,
      "body": 2716,
      "includ": 2717,
      "निश्चय": 2718,
      "सिद्ध": 2719,
      "धर्म": 2720,
      "लु": 2721,
      "खुदा": 2722,
      "ून": 2723,
      "आदि": 2724,
      "bre": 2725,
      "relig": 2726,
      "प्रार": 2727,
      "फै": 2728,
      "respect": 2729,
      "line": 2730,
      "पूरी": 2731,
      "author": 2732,
      "pun": 2733,
      "स्वयं": 2734,
      "रुप": 2735,
      "कार्यक्रम": 2736,
      "सां": 2737,
      "ision": 2738,
      "cu": 2739,
      "एन": 2740,
      "शुरू": 2741,
      "झु": 2742,
      "interest": 2743,
      "यम": 2744,
      "istr": 2745,
      "sing": 2746,
      "means": 2747,
      "AR": 2748,
      "much": 2749,
      "'%": 2750,
      "except": 2751,
      "last": 2752,
      "program": 2753,
      "wr": 2754,
      "शत": 2755,
      "ived": 2756,
      "सभा": 2757,
      "contin": 2758,
      "ध्यम": 2759,
      "तरी": 2760,
      "sol": 2761,
      "श्रे": 2762,
      "appe": 2763,
      "अत्य": 2764,
      "गल": 2765,
      "adv": 2766,
      "dom": 2767,
      "fear": 2768,
      "प्रौद्योग": 2769,
      "आपके": 2770,
      "ric": 2771,
      "सन्": 2772,
      "दृष्टि": 2773,
      "गुण": 2774,
      "grow": 2775,
      "स्थापित": 2776,
      "आं": 2777,
      "information": 2778,
      "निर्धारित": 2779,
      "PR": 2780,
      "ince": 2781,
      "Shri": 2782,
      "यान": 2783,
      "क़ा": 2784,
      "व्यवस्था": 2785,
      "ament": 2786,
      "tax": 2787,
      "जें": 2788,
      "king": 2789,
      "langu": 2790,
      "grou": 2791,
      "tle": 2792,
      "अज़ा": 2793,
      "esh": 2794,
      "संघ": 2795,
      "प्रधान": 2796,
      "Man": 2797,
      "प्रयास": 2798,
      "taken": 2799,
      "direct": 2800,
      "गण": 2801,
      "गै": 2802,
      "sk": 2803,
      "पस": 2804,
      "ield": 2805,
      "ele": 2806,
      "मगर": 2807,
      "ऊपर": 2808,
      "44": 2809,
      "सुन": 2810,
      "मदद": 2811,
      "Or": 2812,
      "उन्": 2813,
      "हास": 2814,
      "vir": 2815,
      "''": 2816,
      "hy": 2817,
      "side": 2818,
      "unto": 2819,
      "real": 2820,
      "ह्": 2821,
      "post": 2822,
      "देह": 2823,
      "incre": 2824,
      "ither": 2825,
      "mod": 2826,
      "गये": 2827,
      "ण्ड": 2828,
      "Say": 2829,
      "government": 2830,
      "परियोजना": 2831,
      "ished": 2832,
      "ix": 2833,
      "human": 2834,
      "rent": 2835,
      "sible": 2836,
      "जरू": 2837,
      "ben": 2838,
      "aim": 2839,
      "action": 2840,
      "That": 2841,
      "सिवा": 2842,
      "दर्शन": 2843,
      "inst": 2844,
      "अज़ाब": 2845,
      "Go": 2846,
      "prev": 2847,
      "13": 2848,
      "अनेक": 2849,
      "think": 2850,
      "ठीक": 2851,
      "गिर": 2852,
      "आद": 2853,
      "लौ": 2854,
      "हेतु": 2855,
      "अंतर्": 2856,
      "कार्": 2857,
      "विश्वास": 2858,
      "unt": 2859,
      "गें": 2860,
      "member": 2861,
      "ai": 2862,
      "हरी": 2863,
      "भावना": 2864,
      "Ac": 2865,
      "प्रणा": 2866,
      "विज्ञान": 2867,
      "चाहता": 2868,
      "sim": 2869,
      "institut": 2870,
      "बैंक": 2871,
      "ER": 2872,
      "women": 2873,
      "हिं": 2874,
      "षि": 2875,
      "बनाया": 2876,
      "तुम्हारा": 2877,
      "search": 2878,
      "25": 2879,
      "vol": 2880,
      "ized": 2881,
      "उद्योग": 2882,
      "prof": 2883,
      "भवन": 2884,
      "यत": 2885,
      "ोर": 2886,
      "hether": 2887,
      "महत्वपूर्ण": 2888,
      "Me": 2889,
      "गयी": 2890,
      "ग्": 2891,
      "clear": 2892,
      "small": 2893,
      "point": 2894,
      "happ": 2895,
      "ca": 2896,
      "विधान": 2897,
      "ियाँ": 2898,
      "प्रभाव": 2899,
      "आए": 2900,
      "pen": 2901,
      "meet": 2902,
      "सिं": 2903,
      "जोड़": 2904,
      "lam": 2905,
      "शील": 2906,
      "project": 2907,
      "New": 2908,
      "वादी": 2909,
      "प्रमाण": 2910,
      "proper": 2911,
      "ned": 2912,
      "मूल्य": 2913,
      "ham": 2914,
      "त्रु": 2915,
      "प्रबंध": 2916,
      "might": 2917,
      "फ़ो": 2918,
      "app": 2919,
      "Name": 2920,
      "created": 2921,
      "प्रौद्योगिकी": 2922,
      "itu": 2923,
      "RB": 2924,
      "न्त": 2925,
      "देखा": 2926,
      "allow": 2927,
      "ablish": 2928,
      "प्रतिशत": 2929,
      "han": 2930,
      "company": 2931,
      "evil": 2932,
      "ंजी": 2933,
      "क्षेत्रों": 2934,
      "परिणा": 2935,
      "मैंने": 2936,
      "तियों": 2937,
      "संस्थान": 2938,
      "exam": 2939,
      "sou": 2940,
      "जमा": 2941,
      "cult": 2942,
      "pet": 2943,
      "div": 2944,
      "17": 2945,
      "शरी": 2946,
      "आर्थ": 2947,
      "बह": 2948,
      "ched": 2949,
      "यहां": 2950,
      "196": 2951,
      "कित": 2952,
      "लाए": 2953,
      "जिसने": 2954,
      "ध्यान": 2955,
      "cannot": 2956,
      "ल्डर": 2957,
      "bit": 2958,
      "घु": 2959,
      "These": 2960,
      "effect": 2961,
      "ify": 2962,
      "सीमा": 2963,
      "बेशक": 2964,
      "नीचे": 2965,
      "देना": 2966,
      "वर्ग": 2967,
      "ंति": 2968,
      "मौजू": 2969,
      "vi": 2970,
      "dist": 2971,
      "important": 2972,
      "फर": 2973,
      "साहित": 2974,
      "पाठ": 2975,
      "become": 2976,
      "plan": 2977,
      "पीछे": 2978,
      "message": 2979,
      "करेंगे": 2980,
      "बिना": 2981,
      "नीय": 2982,
      "शब्द": 2983,
      "ason": 2984,
      "ient": 2985,
      "शासन": 2986,
      "bring": 2987,
      "धित": 2988,
      "ज़ी": 2989,
      "प्रमुख": 2990,
      "believ": 2991,
      "Who": 2992,
      "Book": 2993,
      "उल्": 2994,
      "lected": 2995,
      "समाज": 2996,
      "cell": 2997,
      "आर्थिक": 2998,
      "दिष्ट": 2999,
      "ज़मीन": 3000,
      "ency": 3001,
      "तिहास": 3002,
      "आवश्यकता": 3003,
      "conne": 3004,
      "च्चे": 3005,
      "business": 3006,
      "राह": 3007,
      "hist": 3008,
      "bes": 3009,
      "जिसका": 3010,
      "नु": 3011,
      "Ram": 3012,
      "ends": 3013,
      "ज्यादा": 3014,
      "depend": 3015,
      "ider": 3016,
      "gn": 3017,
      "परिणाम": 3018,
      "Au": 3019,
      "स्या": 3020,
      "today": 3021,
      "nam": 3022,
      "हिस्": 3023,
      "लाया": 3024,
      "केंद्र": 3025,
      "ses": 3026,
      "दिर": 3027,
      "चाहे": 3028,
      "never": 3029,
      "रखने": 3030,
      "going": 3031,
      "surely": 3032,
      "सत": 3033,
      "इन्": 3034,
      "older": 3035,
      "ense": 3036,
      "Pl": 3037,
      "लेकर": 3038,
      "किन्तु": 3039,
      "establish": 3040,
      "कवि": 3041,
      "sum": 3042,
      "चित्र": 3043,
      "wrong": 3044,
      "too": 3045,
      "At": 3046,
      "धरती": 3047,
      "days": 3048,
      "ready": 3049,
      "fri": 3050,
      "198": 3051,
      "्त": 3052,
      "income": 3053,
      "ग्री": 3054,
      "?\"": 3055,
      "chang": 3056,
      "माध्यम": 3057,
      "punish": 3058,
      "चौ": 3059,
      "ator": 3060,
      "जबकि": 3061,
      "बेह": 3062,
      "आने": 3063,
      "activ": 3064,
      "पड़े": 3065,
      "ones": 3066,
      "विदेश": 3067,
      "quest": 3068,
      "children": 3069,
      "best": 3070,
      "दें": 3071,
      "दारी": 3072,
      "mand": 3073,
      "IT": 3074,
      "air": 3075,
      "ोह": 3076,
      "ज्य": 3077,
      "र्ड": 3078,
      "bank": 3079,
      "gress": 3080,
      "विस्त": 3081,
      "रोग": 3082,
      "fun": 3083,
      "घो": 3084,
      "bs": 3085,
      "di": 3086,
      "month": 3087,
      "ashtr": 3088,
      "Muslim": 3089,
      "icy": 3090,
      "अतः": 3091,
      "गुना": 3092,
      "कंपनी": 3093,
      "ably": 3094,
      "Lo": 3095,
      "शिष्ट": 3096,
      "आग": 3097,
      "applic": 3098,
      "अमे": 3099,
      "कृषि": 3100,
      "four": 3101,
      "tex": 3102,
      "दर्श": 3103,
      "Minister": 3104,
      "कठ": 3105,
      "ica": 3106,
      "हिन्": 3107,
      "अच्छे": 3108,
      "large": 3109,
      "इसकी": 3110,
      "दिए": 3111,
      "emplo": 3112,
      "लड़": 3113,
      "accept": 3114,
      "पिछ": 3115,
      "सुधार": 3116,
      "सुविधा": 3117,
      "विधि": 3118,
      "various": 3119,
      "लना": 3120,
      "प्रभा": 3121,
      "within": 3122,
      "पन्न": 3123,
      "gy": 3124,
      "ल्ली": 3125,
      "wit": 3126,
      "nology": 3127,
      "cture": 3128,
      "होकर": 3129,
      "विंड": 3130,
      "निर्दिष्ट": 3131,
      "tail": 3132,
      "निष्": 3133,
      "faith": 3134,
      "bas": 3135,
      "लाल": 3136,
      "झा": 3137,
      "jud": 3138,
      "क्षि": 3139,
      "date": 3140,
      "themselves": 3141,
      "ech": 3142,
      "कार्या": 3143,
      "gin": 3144,
      "राशि": 3145,
      "जिक": 3146,
      "र्य": 3147,
      "ore": 3148,
      "success": 3149,
      "रहने": 3150,
      "ल्म": 3151,
      "मेरा": 3152,
      "ines": 3153,
      "अभी": 3154,
      "नाथ": 3155,
      "better": 3156,
      "मध्य": 3157,
      "रिक्त": 3158,
      "नियंत्र": 3159,
      "plain": 3160,
      "window": 3161,
      "times": 3162,
      "विद्य": 3163,
      "face": 3164,
      "परिवर्तन": 3165,
      "Af": 3166,
      "others": 3167,
      "विभाग": 3168,
      "इनकार": 3169,
      "net": 3170,
      "धिक": 3171,
      "जैसा": 3172,
      "sess": 3173,
      "IS": 3174,
      "dra": 3175,
      "ination": 3176,
      "उद्देश": 3177,
      "htt": 3178,
      "समूह": 3179,
      "एल": 3180,
      "done": 3181,
      "ternal": 3182,
      "कर्ता": 3183,
      "spir": 3184,
      "भो": 3185,
      "जनता": 3186,
      "वर्ण": 3187,
      "तुमसे": 3188,
      "थो": 3189,
      "ali": 3190,
      "लाम": 3191,
      "शं": 3192,
      "amount": 3193,
      "suf": 3194,
      "proble": 3195,
      "Raj": 3196,
      "पश्चा": 3197,
      "प्रणाली": 3198,
      "pri": 3199,
      "सामा": 3200,
      "transl": 3201,
      "बद्ध": 3202,
      "left": 3203,
      "लगभग": 3204,
      "जानकारी": 3205,
      "लक्ष": 3206,
      "level": 3207,
      "respon": 3208,
      "साल": 3209,
      "सारे": 3210,
      "क़ौ": 3211,
      "रखते": 3212,
      "निम्": 3213,
      "ref": 3214,
      "स्वीकार": 3215,
      "पर्या": 3216,
      "कहीं": 3217,
      "मंड": 3218,
      "सहयोग": 3219,
      "position": 3220,
      "Eng": 3221,
      "ceed": 3222,
      "अवधि": 3223,
      "अमेरि": 3224,
      "contro": 3225,
      "197": 3226,
      "टक": 3227,
      "Im": 3228,
      "वर्त": 3229,
      "address": 3230,
      "फ़ोल्डर": 3231,
      "wever": 3232,
      "abo": 3233,
      "विद्यालय": 3234,
      "path": 3235,
      "tar": 3236,
      "बदला": 3237,
      "concer": 3238,
      "अच्छी": 3239,
      "Le": 3240,
      "काफी": 3241,
      "संगठ": 3242,
      "build": 3243,
      "polit": 3244,
      "education": 3245,
      "194": 3246,
      "ible": 3247,
      "ऋण": 3248,
      "az": 3249,
      "ढा": 3250,
      "पर्क": 3251,
      "due": 3252,
      "keep": 3253,
      "धे": 3254,
      "समस्या": 3255,
      "दम": 3256,
      "संस्था": 3257,
      "लागू": 3258,
      "free": 3259,
      "लॉ": 3260,
      "मानव": 3261,
      "बन्द": 3262,
      "):": 3263,
      "social": 3264,
      "ont": 3265,
      "worship": 3266,
      "जानता": 3267,
      "वहां": 3268,
      "cient": 3269,
      "eas": 3270,
      "व्यापार": 3271,
      "mad": 3272,
      "cover": 3273,
      "सदस्य": 3274,
      "Gr": 3275,
      "ically": 3276,
      "ton": 3277,
      "वक्त": 3278,
      "tries": 3279,
      "remain": 3280,
      "trad": 3281,
      "ंतर": 3282,
      "tract": 3283,
      "arr": 3284,
      "full": 3285,
      "available": 3286,
      "ट्टी": 3287,
      "नेट": 3288,
      "प्रती": 3289,
      "सामाजिक": 3290,
      "Ser": 3291,
      "24": 3292,
      "Mah": 3293,
      "देव": 3294,
      "ability": 3295,
      "invest": 3296,
      "मिला": 3297,
      "ization": 3298,
      "http": 3299,
      "मामले": 3300,
      "nic": 3301,
      "कोशि": 3302,
      "आदेश": 3303,
      "गम": 3304,
      "सका": 3305,
      "जों": 3306,
      "ENT": 3307,
      "र्फ": 3308,
      "grap": 3309,
      "डाल": 3310,
      "conf": 3311,
      "comes": 3312,
      "ulation": 3313,
      "चान": 3314,
      "house": 3315,
      "आख़": 3316,
      "इस्": 3317,
      "que": 3318,
      "प्रस्तु": 3319,
      "ंचा": 3320,
      "डियो": 3321,
      "मर्": 3322,
      "jee": 3323,
      "cted": 3324,
      "ferred": 3325,
      "benef": 3326,
      "दिल": 3327,
      "exp": 3328,
      "One": 3329,
      "कल्प": 3330,
      "ंट": 3331,
      "पोर्ट": 3332,
      "ium": 3333,
      "गर्": 3334,
      "ances": 3335,
      "निका": 3336,
      "offic": 3337,
      "//": 3338,
      "mor": 3339,
      "father": 3340,
      "enter": 3341,
      "जाएगी": 3342,
      "towards": 3343,
      "pop": 3344,
      "cle": 3345,
      "tee": 3346,
      "बराबर": 3347,
      "यक़": 3348,
      "रिया": 3349,
      "text": 3350,
      "पट": 3351,
      "resul": 3352,
      "क़ु": 3353,
      "Dis": 3354,
      "equ": 3355,
      "appro": 3356,
      "षित": 3357,
      "क्षमता": 3358,
      "non": 3359,
      "घटना": 3360,
      "आवश्यक": 3361,
      "ged": 3362,
      "लाई": 3363,
      "निवेश": 3364,
      "सुरक्षा": 3365,
      "reach": 3366,
      "TH": 3367,
      "म्बर": 3368,
      "na": 3369,
      "लिखित": 3370,
      "जाओ": 3371,
      "Central": 3372,
      "उसको": 3373,
      "ger": 3374,
      "top": 3375,
      "धारण": 3376,
      "health": 3377,
      "ption": 3378,
      "amp": 3379,
      "contain": 3380,
      "वाई": 3381,
      "संदेह": 3382,
      "://": 3383,
      "care": 3384,
      "चन": 3385,
      "run": 3386,
      "राय": 3387,
      "class": 3388,
      "195": 3389,
      "enger": 3390,
      "नया": 3391,
      "जगह": 3392,
      "¤¾": 3393,
      "उदा": 3394,
      "prote": 3395,
      "test": 3396,
      "mb": 3397,
      "सै": 3398,
      "Bhav": 3399,
      "pose": 3400,
      "पित": 3401,
      "लेने": 3402,
      "understand": 3403,
      "आत": 3404,
      "live": 3405,
      "Po": 3406,
      "ME": 3407,
      "वेब": 3408,
      "हमे": 3409,
      "exist": 3410,
      "ta": 3411,
      "plac": 3412,
      "language": 3413,
      "ury": 3414,
      "महिला": 3415,
      "यात्रा": 3416,
      "value": 3417,
      "chool": 3418,
      "iful": 3419,
      "cording": 3420,
      "seen": 3421,
      "fort": 3422,
      "साह": 3423,
      "किस": 3424,
      "inal": 3425,
      "जानते": 3426,
      "heavens": 3427,
      "Indeed": 3428,
      "ended": 3429,
      "क़ौम": 3430,
      "कोर्इ": 3431,
      "वों": 3432,
      "हरण": 3433,
      "युद्ध": 3434,
      "Ho": 3435,
      "निर्ण": 3436,
      "जिससे": 3437,
      "निम्न": 3438,
      "key": 3439,
      "iversity": 3440,
      "हक़": 3441,
      "तिक": 3442,
      "ुष": 3443,
      "ird": 3444,
      "gether": 3445,
      "लिम": 3446,
      "thou": 3447,
      "संधान": 3448,
      "loc": 3449,
      "command": 3450,
      "brought": 3451,
      "पार्": 3452,
      "सही": 3453,
      "national": 3454,
      "सत्य": 3455,
      "निस्": 3456,
      "पाल": 3457,
      "field": 3458,
      "नए": 3459,
      "ंगे": 3460,
      "चुका": 3461,
      "Islam": 3462,
      "punishment": 3463,
      "Co": 3464,
      "Wor": 3465,
      "ूम": 3466,
      "अभ": 3467,
      "though": 3468,
      "रों": 3469,
      "sche": 3470,
      "आकार": 3471,
      "Gu": 3472,
      "जाय": 3473,
      "itions": 3474,
      "family": 3475,
      "तौर": 3476,
      "lay": 3477,
      "kher": 3478,
      "तुमने": 3479,
      "तिम": 3480,
      "group": 3481,
      "ियां": 3482,
      "together": 3483,
      "न्याय": 3484,
      "रोक": 3485,
      "अतिरिक्त": 3486,
      "प्ति": 3487,
      "Rs": 3488,
      "kherjee": 3489,
      "बुरा": 3490,
      "कूल": 3491,
      "रहते": 3492,
      "got": 3493,
      "आन": 3494,
      "dest": 3495,
      "ww": 3496,
      "fair": 3497,
      "detail": 3498,
      "तें": 3499,
      "regard": 3500,
      "food": 3501,
      "उत्पादन": 3502,
      "भाई": 3503,
      "कहने": 3504,
      "Del": 3505,
      "योग्य": 3506,
      "ks": 3507,
      "product": 3508,
      "night": 3509,
      "poin": 3510,
      "ually": 3511,
      "स्क": 3512,
      "something": 3513,
      "Br": 3514,
      "बच्च": 3515,
      "kg": 3516,
      "चला": 3517,
      "ateg": 3518,
      "अनुसंधान": 3519,
      "चुके": 3520,
      "वेदन": 3521,
      "मंदिर": 3522,
      "clause": 3523,
      "comput": 3524,
      "अंतर्गत": 3525,
      "death": 3526,
      "पृष्ठ": 3527,
      "मूसा": 3528,
      "एफ": 3529,
      "आकाश": 3530,
      "scri": 3531,
      "associ": 3532,
      "apati": 3533,
      "words": 3534,
      "She": 3535,
      "स्र": 3536,
      "blo": 3537,
      "क्ता": 3538,
      "यातना": 3539,
      "service": 3540,
      "छु": 3541,
      "UR": 3542,
      "महान": 3543,
      "समिति": 3544,
      "ately": 3545,
      "जाये": 3546,
      "market": 3547,
      "बचा": 3548,
      "aring": 3549,
      "nat": 3550,
      "शल": 3551,
      "कृतिक": 3552,
      "ource": 3553,
      "वरी": 3554,
      "ale": 3555,
      "IC": 3556,
      "¥": 3557,
      "Bhavan": 3558,
      "true": 3559,
      "माँ": 3560,
      "agement": 3561,
      "र्च": 3562,
      "wish": 3563,
      "समु": 3564,
      "flow": 3565,
      "क्ट": 3566,
      "नही": 3567,
      "aren": 3568,
      "Add": 3569,
      "pray": 3570,
      "पश्चि": 3571,
      "hard": 3572,
      "anab": 3573,
      "object": 3574,
      "ification": 3575,
      "वास्तव": 3576,
      "पाद": 3577,
      "उद्देश्य": 3578,
      "मेल": 3579,
      "फू": 3580,
      "ari": 3581,
      "Can": 3582,
      "Ver": 3583,
      "ternational": 3584,
      "vill": 3585,
      "माना": 3586,
      "साय": 3587,
      "maj": 3588,
      "gl": 3589,
      "nation": 3590,
      "ste": 3591,
      "Fr": 3592,
      "Your": 3593,
      "ंस": 3594,
      "हुक्": 3595,
      "हाला": 3596,
      "Amer": 3597,
      "der": 3598,
      "जिन्हें": 3599,
      "ground": 3600,
      "वर्तमान": 3601,
      "sed": 3602,
      "reve": 3603,
      "23": 3604,
      "gen": 3605,
      "रान": 3606,
      "uty": 3607,
      "ंश": 3608,
      "कौन": 3609,
      "god": 3610,
      "रोध": 3611,
      "fall": 3612,
      "स्वतंत्र": 3613,
      "ivid": 3614,
      "ey": 3615,
      "phe": 3616,
      "reason": 3617,
      "ड्": 3618,
      "सिर्फ": 3619,
      "subject": 3620,
      "matter": 3621,
      "खोज": 3622,
      "वर्षों": 3623,
      "ष्ण": 3624,
      "संपर्क": 3625,
      "प्रारंभ": 3626,
      "second": 3627,
      "परिवार": 3628,
      "गीत": 3629,
      "OR": 3630,
      "Gener": 3631,
      "love": 3632,
      "लाइन": 3633,
      "AL": 3634,
      "अधिकारी": 3635,
      "data": 3636,
      "ज़र": 3637,
      "स्वास्थ": 3638,
      "Spe": 3639,
      "उपधारा": 3640,
      "ंधी": 3641,
      "provided": 3642,
      "मनुष": 3643,
      "छि": 3644,
      "area": 3645,
      "economic": 3646,
      "प्रदेश": 3647,
      "near": 3648,
      "ential": 3649,
      "कम्": 3650,
      "बनाए": 3651,
      "already": 3652,
      "gave": 3653,
      "परन्तु": 3654,
      "साहित्य": 3655,
      "विशिष्ट": 3656,
      "met": 3657,
      "Rashtr": 3658,
      "रिश्": 3659,
      "urther": 3660,
      "charact": 3661,
      "pain": 3662,
      "rep": 3663,
      "ference": 3664,
      "acy": 3665,
      "स्तान": 3666,
      "based": 3667,
      "हमारा": 3668,
      "बेहतर": 3669,
      "इतिहास": 3670,
      "Sub": 3671,
      "अल": 3672,
      "whole": 3673,
      "निकाल": 3674,
      "इंड": 3675,
      "दक्षि": 3676,
      "isions": 3677,
      "half": 3678,
      "दूसरी": 3679,
      "fund": 3680,
      "reng": 3681,
      "Sing": 3682,
      "Gand": 3683,
      "दुर्": 3684,
      "जन्": 3685,
      "संभव": 3686,
      "fully": 3687,
      "thy": 3688,
      "onment": 3689,
      "ising": 3690,
      "त्मा": 3691,
      "नित": 3692,
      "आरंभ": 3693,
      "liter": 3694,
      "yed": 3695,
      "Delhi": 3696,
      "anch": 3697,
      "equal": 3698,
      "instru": 3699,
      "capital": 3700,
      "याँ": 3701,
      "स्वास्थ्य": 3702,
      "took": 3703,
      "26": 3704,
      "तुमको": 3705,
      "Those": 3706,
      "बदल": 3707,
      "सेना": 3708,
      "निर्णय": 3709,
      "perform": 3710,
      "न्यू": 3711,
      "commit": 3712,
      "छवि": 3713,
      "Cha": 3714,
      "type": 3715,
      "ूब": 3716,
      "मुद्र": 3717,
      "oney": 3718,
      "दिल्ली": 3719,
      "पत्ति": 3720,
      "त्रुटि": 3721,
      "Rashtrapati": 3722,
      "signs": 3723,
      "वहाँ": 3724,
      "Pre": 3725,
      "प्रशि": 3726,
      "ख़ा": 3727,
      "एक्स": 3728,
      "शहर": 3729,
      "निर": 3730,
      "services": 3731,
      "थीं": 3732,
      "टों": 3733,
      "हुक्म": 3734,
      "term": 3735,
      "countries": 3736,
      "Am": 3737,
      "विवरण": 3738,
      "pract": 3739,
      "वत": 3740,
      "सिल": 3741,
      "शरीर": 3742,
      "following": 3743,
      "भेज": 3744,
      "आख़िर": 3745,
      "ention": 3746,
      "खी": 3747,
      "झुठ": 3748,
      "उपा": 3749,
      "pal": 3750,
      "iding": 3751,
      "above": 3752,
      "न्यायालय": 3753,
      "making": 3754,
      "शीर्ष": 3755,
      "नर": 3756,
      "तरा": 3757,
      "जवा": 3758,
      "वहार": 3759,
      "न्यास": 3760,
      "स्थानी": 3761,
      "नौ": 3762,
      "mail": 3763,
      "ib": 3764,
      "¤": 3765,
      "डॉ": 3766,
      "ues": 3767,
      "including": 3768,
      "Brit": 3769,
      "fail": 3770,
      "¤°": 3771,
      "htm": 3772,
      "पण": 3773,
      "cost": 3774,
      "थम": 3775,
      "little": 3776,
      "निर्देश": 3777,
      "सलमान": 3778,
      "giving": 3779,
      "reed": 3780,
      "बत": 3781,
      "provide": 3782,
      "lies": 3783,
      "dou": 3784,
      "ather": 3785,
      "aged": 3786,
      "प्रधानमंत्री": 3787,
      "himself": 3788,
      "ined": 3789,
      "अंग्रे": 3790,
      "लाख": 3791,
      "major": 3792,
      "पालन": 3793,
      "current": 3794,
      "few": 3795,
      "areas": 3796,
      "जर": 3797,
      "streng": 3798,
      "सम्बन्": 3799,
      "particular": 3800,
      "चै": 3801,
      "liament": 3802,
      "सिक": 3803,
      "वार्": 3804,
      "consider": 3805,
      "दया": 3806,
      "pat": 3807,
      "train": 3808,
      "अपे": 3809,
      "SA": 3810,
      "परे": 3811,
      "पुरा": 3812,
      "बच्चों": 3813,
      "मति": 3814,
      "having": 3815,
      "मुसलमान": 3816,
      "Pe": 3817,
      "र्क": 3818,
      "load": 3819,
      "thought": 3820,
      "ancial": 3821,
      "teach": 3822,
      "श्रेणी": 3823,
      "सिंह": 3824,
      "ery": 3825,
      "छोटे": 3826,
      "rate": 3827,
      "ृत": 3828,
      "जिनके": 3829,
      "देखते": 3830,
      "हमेशा": 3831,
      "विश्वविद्यालय": 3832,
      "kgm": 3833,
      "प्रस्तुत": 3834,
      "itor": 3835,
      "mes": 3836,
      "प्रश्": 3837,
      "सार्": 3838,
      "उत्पाद": 3839,
      "यक": 3840,
      "क्षर": 3841,
      "tor": 3842,
      "erc": 3843,
      "init": 3844,
      "देगा": 3845,
      "necess": 3846,
      "००": 3847,
      "ief": 3848,
      "वासी": 3849,
      "special": 3850,
      "complete": 3851,
      "अमेरिका": 3852,
      "still": 3853,
      "वीं": 3854,
      "ilities": 3855,
      "local": 3856,
      "कैसे": 3857,
      "मंत्रा": 3858,
      "mode": 3859,
      "possible": 3860,
      "विकसित": 3861,
      "परंतु": 3862,
      "ala": 3863,
      "संसा": 3864,
      "जहाँ": 3865,
      "वास्ते": 3866,
      "शिया": 3867,
      "cred": 3868,
      "isation": 3869,
      "वृद्धि": 3870,
      "policy": 3871,
      "निर्धारण": 3872,
      "अग्र": 3873,
      "उदाहरण": 3874,
      "ling": 3875,
      "पुस्": 3876,
      "आसमान": 3877,
      "prob": 3878,
      "ividual": 3879,
      "22": 3880,
      "रचना": 3881,
      "थि": 3882,
      "until": 3883,
      "mus": 3884,
      "त्ति": 3885,
      "pot": 3886,
      "लै": 3887,
      "hearts": 3888,
      "100": 3889,
      "योजित": 3890,
      "members": 3891,
      "मौजूद": 3892,
      "around": 3893,
      "ians": 3894,
      "report": 3895,
      "cil": 3896,
      "send": 3897,
      "cogn": 3898,
      "DI": 3899,
      "द्वि": 3900,
      "स्थानीय": 3901,
      "operation": 3902,
      "Commission": 3903,
      "वित्": 3904,
      "ples": 3905,
      "partment": 3906,
      "adesh": 3907,
      "निकल": 3908,
      "ब्रि": 3909,
      "पथ": 3910,
      "Some": 3911,
      "bor": 3912,
      "curity": 3913,
      "निधि": 3914,
      "hind": 3915,
      "विदेशी": 3916,
      "deeds": 3917,
      "mil": 3918,
      "tic": 3919,
      "using": 3920,
      "कित्": 3921,
      "Reg": 3922,
      "ng": 3923,
      "स्वरूप": 3924,
      "industri": 3925,
      "Col": 3926,
      "जिन्होंने": 3927,
      "five": 3928,
      "चीन": 3929,
      "Cour": 3930,
      "common": 3931,
      "संबंधी": 3932,
      "fav": 3933,
      "चू": 3934,
      "firm": 3935,
      "opy": 3936,
      "लेखा": 3937,
      "claim": 3938,
      "भूत": 3939,
      "Dr": 3940,
      "whether": 3941,
      "तहत": 3942,
      "sector": 3943,
      "rul": 3944,
      "प्रस्ता": 3945,
      "belong": 3946,
      "ज़े": 3947,
      "प्रथम": 3948,
      "II": 3949,
      "मक": 3950,
      "ded": 3951,
      "साइट": 3952,
      "posed": 3953,
      "wo": 3954,
      "21": 3955,
      "society": 3956,
      "श्वर": 3957,
      "Nor": 3958,
      "लक": 3959,
      "aled": 3960,
      "orig": 3961,
      "दस्ता": 3962,
      "ories": 3963,
      "28": 3964,
      "ait": 3965,
      "idence": 3966,
      "ried": 3967,
      "तारी": 3968,
      "atic": 3969,
      "lection": 3970,
      "मिले": 3971,
      "always": 3972,
      "सक्र": 3973,
      "uro": 3974,
      "along": 3975,
      "रण": 3976,
      "occas": 3977,
      "States": 3978,
      "फ़ि": 3979,
      "pan": 3980,
      "मिटा": 3981,
      "whose": 3982,
      "ern": 3983,
      "मिन": 3984,
      "आधारित": 3985,
      "meas": 3986,
      "Ma": 3987,
      "individual": 3988,
      "क़ि": 3989,
      "believed": 3990,
      "हटा": 3991,
      "vironment": 3992,
      "ering": 3993,
      "स्थापना": 3994,
      "home": 3995,
      "अफ": 3996,
      "ats": 3997,
      "भेजा": 3998,
      "अंतिम": 3999,
      "सार्व": 4000,
      "तत्व": 4001,
      "nothing": 4002,
      "PRES": 4003,
      "mill": 4004,
      "टिंग": 4005,
      "hammad": 4006,
      "पाया": 4007,
      "plement": 4008,
      "वायु": 4009,
      "termin": 4010,
      "दिशा": 4011,
      "held": 4012,
      "friend": 4013,
      "दृश्य": 4014,
      "ron": 4015,
      "tom": 4016,
      "सक्रिय": 4017,
      "lab": 4018,
      "प्रवेश": 4019,
      "किये": 4020,
      "अला": 4021,
      "झू": 4022,
      "गां": 4023,
      "create": 4024,
      "समाप्त": 4025,
      "therefore": 4026,
      "contribut": 4027,
      "political": 4028,
      "bey": 4029,
      "later": 4030,
      "Show": 4031,
      "रिक": 4032,
      "spirit": 4033,
      "Coun": 4034,
      "With": 4035,
      "करी": 4036,
      "प्रेम": 4037,
      "जन्म": 4038,
      "ji": 4039,
      "ards": 4040,
      "mean": 4041,
      "mult": 4042,
      "yet": 4043,
      "ल्या": 4044,
      "lot": 4045,
      "अनुभव": 4046,
      "error": 4047,
      "folder": 4048,
      "निस्संदेह": 4049,
      "विस्तार": 4050,
      "2014": 4051,
      "course": 4052,
      "wise": 4053,
      "दारों": 4054,
      "लत": 4055,
      "Please": 4056,
      "लगता": 4057,
      "भूमिका": 4058,
      "feel": 4059,
      "asses": 4060,
      "Ap": 4061,
      "कारा": 4062,
      "prin": 4063,
      "Beng": 4064,
      "thee": 4065,
      "जिसकी": 4066,
      "गांधी": 4067,
      "ems": 4068,
      "जल्": 4069,
      "मॉ": 4070,
      "Bank": 4071,
      "जाति": 4072,
      "मित्र": 4073,
      "fel": 4074,
      "flu": 4075,
      "संयुक्त": 4076,
      "ges": 4077,
      "पहचान": 4078,
      "र्जा": 4079,
      "पुरु": 4080,
      "खेल": 4081,
      "ban": 4082,
      "religion": 4083,
      "force": 4084,
      "school": 4085,
      "ंब": 4086,
      "How": 4087,
      "आस": 4088,
      "stitution": 4089,
      "Not": 4090,
      "witness": 4091,
      "मांग": 4092,
      "वित्तीय": 4093,
      "total": 4094,
      "further": 4095,
      "दय": 4096,
      "आम": 4097,
      "ours": 4098,
      "दस्तावे": 4099,
      "चिकित्": 4100,
      "cir": 4101,
      "लक्ष्य": 4102,
      "राजनीति": 4103,
      "अनुमति": 4104,
      "27": 4105,
      "growth": 4106,
      "sever": 4107,
      "ज़िल": 4108,
      "research": 4109,
      "नियंत्रण": 4110,
      "Gandhi": 4111,
      "¥": 4112,
      "पुस्तक": 4113,
      "स्‍": 4114,
      "पहुँचा": 4115,
      "नागर": 4116,
      "ministr": 4117,
      "तृ": 4118,
      "रहता": 4119,
      "केन्द्र": 4120,
      "cit": 4121,
      "पुरुष": 4122,
      "anim": 4123,
      "ideo": 4124,
      "pati": 4125,
      "चले": 4126,
      "British": 4127,
      "ife": 4128,
      "बंद": 4129,
      "vo": 4130,
      "सर्व": 4131,
      "control": 4132,
      "cing": 4133,
      "received": 4134,
      "plant": 4135,
      "cience": 4136,
      "विकल्प": 4137,
      "यक़ीन": 4138,
      "ड़ों": 4139,
      "peace": 4140,
      "record": 4141,
      "मूर्": 4142,
      "कमी": 4143,
      "तकनी": 4144,
      "बाजार": 4145,
      "portun": 4146,
      "पहुंच": 4147,
      "सला": 4148,
      "Muhammad": 4149,
      "अप्र": 4150,
      "link": 4151,
      "ऊँ": 4152,
      "cret": 4153,
      "Ro": 4154,
      "sis": 4155,
      "Offic": 4156,
      "सेट": 4157,
      "सफलता": 4158,
      "image": 4159,
      "taking": 4160,
      "question": 4161,
      "atch": 4162,
      "Hindi": 4163,
      "शर्": 4164,
      "ख़ु": 4165,
      "ल्क": 4166,
      "संरचना": 4167,
      "किसान": 4168,
      "दियों": 4169,
      "जहन्न": 4170,
      "मंत्रालय": 4171,
      "Commit": 4172,
      "हिस्सा": 4173,
      "त्यु": 4174,
      "short": 4175,
      "docu": 4176,
      "nature": 4177,
      "ush": 4178,
      "अन्त": 4179,
      "technology": 4180,
      "atever": 4181,
      "became": 4182,
      "function": 4183,
      "तत्": 4184,
      "डाक": 4185,
      "सरकारी": 4186,
      "coming": 4187,
      "gain": 4188,
      "प्रयोजन": 4189,
      "र्स": 4190,
      "यात": 4191,
      "verse": 4192,
      "मनुष्य": 4193,
      "English": 4194,
      "strong": 4195,
      "since": 4196,
      "ources": 4197,
      "Ab": 4198,
      "बाहरी": 4199,
      "सहायक": 4200,
      "60": 4201,
      "रीब": 4202,
      "After": 4203,
      "मल": 4204,
      "Sha": 4205,
      "अनि": 4206,
      "itional": 4207,
      "Isra": 4208,
      "priv": 4209,
      "mother": 4210,
      "नाज़िल": 4211,
      "संविधान": 4212,
      "इत": 4213,
      "fig": 4214,
      "mater": 4215,
      "THE": 4216,
      "fill": 4217,
      "क्षक": 4218,
      "sat": 4219,
      "शाली": 4220,
      "Sy": 4221,
      "six": 4222,
      "मृत्यु": 4223,
      "cast": 4224,
      "ream": 4225,
      "leave": 4226,
      "प्रेर": 4227,
      "went": 4228,
      "crit": 4229,
      "Deve": 4230,
      "next": 4231,
      "opportun": 4232,
      "access": 4233,
      "जांच": 4234,
      "Messenger": 4235,
      "विंडो": 4236,
      "forms": 4237,
      "Most": 4238,
      "glo": 4239,
      "सत्ता": 4240,
      "खाता": 4241,
      "स्ती": 4242,
      "पहली": 4243,
      "IDENT": 4244,
      "प्रगति": 4245,
      "जीव": 4246,
      "पौ": 4247,
      "कृप": 4248,
      "पूंजी": 4249,
      "ened": 4250,
      "translation": 4251,
      "प्रबंधन": 4252,
      "tell": 4253,
      "भुग": 4254,
      "probably": 4255,
      "road": 4256,
      "tra": 4257,
      "टै": 4258,
      "ences": 4259,
      "step": 4260,
      "Per": 4261,
      "पहुँच": 4262,
      "bt": 4263,
      "पैग़": 4264,
      "optional": 4265,
      "lied": 4266,
      "works": 4267,
      "previous": 4268,
      "forth": 4269,
      "\"%": 4270,
      "required": 4271,
      "ute": 4272,
      "ently": 4273,
      "टल": 4274,
      "outh": 4275,
      "ीकरण": 4276,
      "ons": 4277,
      "पिछले": 4278,
      "pointed": 4279,
      "31": 4280,
      "knows": 4281,
      "कठि": 4282,
      "उपकरण": 4283,
      "reward": 4284,
      "wel": 4285,
      "Prime": 4286,
      "ama": 4287,
      "ज्ञात": 4288,
      "पर्य": 4289,
      "लेते": 4290,
      "earch": 4291,
      "PRESIDENT": 4292,
      "नागरिक": 4293,
      "सहित": 4294,
      "selected": 4295,
      "share": 4296,
      "brother": 4297,
      "मही": 4298,
      "recogn": 4299,
      "दिनों": 4300,
      "पुनर्": 4301,
      "कृपया": 4302,
      "कांग": 4303,
      "समर्थन": 4304,
      "ivil": 4305,
      "पूर्वक": 4306,
      "रहो": 4307,
      "tered": 4308,
      "यामत": 4309,
      "वैज्ञान": 4310,
      "सोच": 4311,
      "अलावा": 4312,
      "augh": 4313,
      "money": 4314,
      "foreign": 4315,
      "दक्षिण": 4316,
      "decl": 4317,
      "either": 4318,
      "निशान": 4319,
      "गैर": 4320,
      "descri": 4321,
      "ert": 4322,
      "सामग्री": 4323,
      "पड़ा": 4324,
      "fault": 4325,
      "task": 4326,
      "speak": 4327,
      "पसं": 4328,
      "application": 4329,
      "occasion": 4330,
      "सर्वर": 4331,
      "hands": 4332,
      "industry": 4333,
      "chan": 4334,
      "assess": 4335,
      "राजा": 4336,
      "लोड": 4337,
      "भुगतान": 4338,
      "ION": 4339,
      "artic": 4340,
      "पुनः": 4341,
      "सहे": 4342,
      "साधारण": 4343,
      "pers": 4344,
      "व्यवहार": 4345,
      "ज़रू": 4346,
      "स्रो": 4347,
      "रखता": 4348,
      "sib": 4349,
      "वैज्ञानिक": 4350,
      "ानि": 4351,
      "चरण": 4352,
      "च्छा": 4353,
      "Singh": 4354,
      "quality": 4355,
      "Hindu": 4356,
      "production": 4357,
      "म्मे": 4358,
      "several": 4359,
      "भीतर": 4360,
      "मात्रा": 4361,
      "Develop": 4362,
      "aid": 4363,
      "संशो": 4364,
      "बच": 4365,
      "ier": 4366,
      "2015": 4367,
      "वास्तविक": 4368,
      "इस्ते": 4369,
      "लिखा": 4370,
      "gar": 4371,
      "उत्पन्न": 4372,
      "टु": 4373,
      "अध्ययन": 4374,
      "ंकि": 4375,
      "क्रा": 4376,
      "AP": 4377,
      "वेद": 4378,
      "आदमी": 4379,
      "uary": 4380,
      "प्रशिक्षण": 4381,
      "Ministry": 4382,
      "चर्": 4383,
      "ival": 4384,
      "thod": 4385,
      "बाप": 4386,
      "graph": 4387,
      "working": 4388,
      "राज्यों": 4389,
      "लयों": 4390,
      "stat": 4391,
      "don": 4392,
      "aster": 4393,
      "ब्रा": 4394,
      "Prov": 4395,
      "Cont": 4396,
      "activities": 4397,
      "खाते": 4398,
      "hu": 4399,
      "certainly": 4400,
      "trust": 4401,
      "बाज़": 4402,
      "elect": 4403,
      "बोर्ड": 4404,
      "Parliament": 4405,
      "role": 4406,
      "यंत्र": 4407,
      "University": 4408,
      "वस": 4409,
      "authority": 4410,
      "young": 4411,
      "Serv": 4412,
      "ैंड": 4413,
      "General": 4414,
      "खरी": 4415,
      "ऊर्जा": 4416,
      "close": 4417,
      "उठ": 4418,
      "character": 4419,
      "क्षमा": 4420,
      "समुदा": 4421,
      "फाइल": 4422,
      "नियों": 4423,
      "पल": 4424,
      "सुनिश्चित": 4425,
      "contact": 4426,
      "आधु": 4427,
      "मजब": 4428,
      "क़यामत": 4429,
      "च्चा": 4430,
      "बच्चे": 4431,
      "mag": 4432,
      "प्रश्न": 4433,
      "अर": 4434,
      "anything": 4435,
      "visit": 4436,
      "example": 4437,
      "ran": 4438,
      "बान": 4439,
      "40": 4440,
      "साब": 4441,
      "paren": 4442,
      "agree": 4443,
      "छ्": 4444,
      "progress": 4445,
      "Moses": 4446,
      "मजबू": 4447,
      "80": 4448,
      "ighte": 4449,
      "Des": 4450,
      "urely": 4451,
      "idance": 4452,
      "fire": 4453,
      "जोर": 4454,
      "ension": 4455,
      "--": 4456,
      "ively": 4457,
      "sl": 4458,
      "जय": 4459,
      "टू": 4460,
      "रक्षा": 4461,
      "hon": 4462,
      "ises": 4463,
      "यदा": 4464,
      "oh": 4465,
      "िता": 4466,
      "सियों": 4467,
      "situ": 4468,
      "continu": 4469,
      "itself": 4470,
      "सुना": 4471,
      "सम्मान": 4472,
      "big": 4473,
      "igher": 4474,
      "तौ": 4475,
      "City": 4476,
      "विन": 4477,
      "ulture": 4478,
      "fut": 4479,
      "sal": 4480,
      "उम्": 4481,
      "वापस": 4482,
      "deal": 4483,
      "उनपर": 4484,
      "paid": 4485,
      "kill": 4486,
      "Cong": 4487,
      "जैसी": 4488,
      "Here": 4489,
      "सार्वज": 4490,
      "उपबंध": 4491,
      "हैः": 4492,
      "यद": 4493,
      "udd": 4494,
      "बर्": 4495,
      "फ़िर": 4496,
      "स्थायी": 4497,
      "खुद": 4498,
      "भौ": 4499,
      "प्रकृति": 4500,
      "ficult": 4501,
      "वृत्ति": 4502,
      "साफ": 4503,
      "fast": 4504,
      "मरा": 4505,
      "necessary": 4506,
      "इतना": 4507,
      "तीस": 4508,
      "परिक": 4509,
      "सार्वजनिक": 4510,
      "ctor": 4511,
      "युवा": 4512,
      "आत्म": 4513,
      "ील": 4514,
      "city": 4515,
      "कमा": 4516,
      "भ्र": 4517,
      "acc": 4518,
      "जाएँगे": 4519,
      "oud": 4520,
      "दर्भ": 4521,
      "poet": 4522,
      "remo": 4523,
      "medi": 4524,
      "इस्तेमाल": 4525,
      "समझा": 4526,
      "ँच": 4527,
      "हस्ता": 4528,
      "ण्श्": 4529,
      "By": 4530,
      "ऊण्श्": 4531,
      "छ्ष्": 4532,
      "ऊण्श्छ्ष्": 4533,
      "experi": 4534,
      "represent": 4535,
      "निकट": 4536,
      "history": 4537,
      "material": 4538,
      "akh": 4539,
      "पूर्ति": 4540,
      "farm": 4541,
      "sequ": 4542,
      "न्व": 4543,
      "agric": 4544,
      "काली": 4545,
      "charge": 4546,
      "Pol": 4547,
      "ross": 4548,
      "soon": 4549,
      "Direct": 4550,
      "related": 4551,
      "NA": 4552,
      "धिकार": 4553,
      "difficult": 4554,
      "provisions": 4555,
      "शुभ": 4556,
      "property": 4557,
      "चुनें": 4558,
      "2018": 4559,
      "established": 4560,
      "save": 4561,
      "financial": 4562,
      "चुना": 4563,
      "स्कार": 4564,
      "विष्य": 4565,
      "ST": 4566,
      "स्टे": 4567,
      "mic": 4568,
      "Mar": 4569,
      "mber": 4570,
      "बातें": 4571,
      "poses": 4572,
      "Now": 4573,
      "भागी": 4574,
      "une": 4575,
      "उद्य": 4576,
      "गठ": 4577,
      "Em": 4578,
      "umb": 4579,
      "Fin": 4580,
      "bsite": 4581,
      "भविष्य": 4582,
      "thus": 4583,
      "क्रि": 4584,
      "पूरे": 4585,
      "यें": 4586,
      "purpose": 4587,
      "केंद": 4588,
      "sin": 4589,
      "Pradesh": 4590,
      "Open": 4591,
      "देखने": 4592,
      "Court": 4593,
      "हरे": 4594,
      "grant": 4595,
      "security": 4596,
      "मामलों": 4597,
      "therein": 4598,
      "enjo": 4599,
      "isl": 4600,
      "ending": 4601,
      "hath": 4602,
      "High": 4603,
      "बिल": 4604,
      "draw": 4605,
      "nov": 4606,
      "जरूरत": 4607,
      "Development": 4608,
      "scheme": 4609,
      "र्जी": 4610,
      "ँह": 4611,
      "idd": 4612,
      "changes": 4613,
      "दशा": 4614,
      "meeting": 4615,
      "ude": 4616,
      "aught": 4617,
      "दौ": 4618,
      "मय": 4619,
      "Cal": 4620,
      "soul": 4621,
      "संगठन": 4622,
      "म्ब": 4623,
      "्रेस": 4624,
      "प्रिय": 4625,
      "compan": 4626,
      "पात": 4627,
      "Cl": 4628,
      "ped": 4629,
      "ौती": 4630,
      "जिनमें": 4631,
      "urope": 4632,
      "मालूम": 4633,
      "files": 4634,
      "doing": 4635,
      "bur": 4636,
      "अपरा": 4637,
      "ध्व": 4638,
      "जवाब": 4639,
      "phet": 4640,
      "behind": 4641,
      "acity": 4642,
      "ग्रामी": 4643,
      "लौट": 4644,
      "ilar": 4645,
      "अत्यन्त": 4646,
      "उल्लेख": 4647,
      "rain": 4648,
      "2016": 4649,
      "started": 4650,
      "मात्र": 4651,
      "Know": 4652,
      "वाही": 4653,
      "बाव": 4654,
      "बातों": 4655,
      "वेबसाइट": 4656,
      "Sat": 4657,
      "mot": 4658,
      "entire": 4659,
      "च्छे": 4660,
      "ेंट": 4661,
      "ग्रामीण": 4662,
      "written": 4663,
      "court": 4664,
      "प्रभु": 4665,
      "pread": 4666,
      "पहा": 4667,
      "कहो": 4668,
      "2000": 4669,
      "Us": 4670,
      "सक्षम": 4671,
      "uni": 4672,
      "कोशिश": 4673,
      "35": 4674,
      "संके": 4675,
      "Could": 4676,
      "दिखाएँ": 4677,
      "gri": 4678,
      "चारी": 4679,
      "aud": 4680,
      "ek": 4681,
      "29": 4682,
      "mir": 4683,
      "asked": 4684,
      "संसद": 4685,
      "mercy": 4686,
      "def": 4687,
      "forward": 4688,
      "शख्": 4689,
      "्यूटर": 4690,
      "पश्चात": 4691,
      "यक़ीनन": 4692,
      "specified": 4693,
      "खिला": 4694,
      "सदस्यों": 4695,
      "vent": 4696,
      "future": 4697,
      "णि": 4698,
      "logical": 4699,
      "referred": 4700,
      "रिपोर्ट": 4701,
      "त्रि": 4702,
      "Thus": 4703,
      "personal": 4704,
      "yment": 4705,
      "सवा": 4706,
      "लिंग": 4707,
      "distr": 4708,
      "2013": 4709,
      "demand": 4710,
      "constru": 4711,
      "male": 4712,
      "rich": 4713,
      "लती": 4714,
      "soever": 4715,
      "fight": 4716,
      "मुँह": 4717,
      "बंगा": 4718,
      "Congress": 4719,
      "expect": 4720,
      "imum": 4721,
      "greater": 4722,
      "बने": 4723,
      "नदी": 4724,
      "भारी": 4725,
      "List": 4726,
      "stitute": 4727,
      "करोड़": 4728,
      "ल्यू": 4729,
      "कने": 4730,
      "अर्था": 4731,
      "volution": 4732,
      "treat": 4733,
      "implement": 4734,
      "Europe": 4735,
      "मुक्त": 4736,
      "शख्स": 4737,
      "ners": 4738,
      "once": 4739,
      "कानून": 4740,
      "living": 4741,
      "पैग़म्बर": 4742,
      "aware": 4743,
      "revealed": 4744,
      "community": 4745,
      "वर्ती": 4746,
      "ighteous": 4747,
      "म्भ": 4748,
      "whatever": 4749,
      "समार": 4750,
      "aves": 4751,
      "higher": 4752,
      "House": 4753,
      "उचित": 4754,
      "Li": 4755,
      "आँ": 4756,
      "मों": 4757,
      "seek": 4758,
      "institutions": 4759,
      "parts": 4760,
      "रोप": 4761,
      "लिस": 4762,
      "ordin": 4763,
      "aries": 4764,
      "istan": 4765,
      "नक": 4766,
      "अपेक्षा": 4767,
      "RRB": 4768,
      "क्टर": 4769,
      "सात": 4770,
      "हक": 4771,
      "lled": 4772,
      "केंद्रीय": 4773,
      "पिता": 4774,
      "प्रोत्": 4775,
      "Chr": 4776,
      "vision": 4777,
      "engers": 4778,
      "शास्त्र": 4779,
      "formed": 4780,
      "व्यापक": 4781,
      "आधुनिक": 4782,
      "ilt": 4783,
      "एशिया": 4784,
      "ख़बर": 4785,
      "अध्यक्ष": 4786,
      "guidance": 4787,
      "नल": 4788,
      "students": 4789,
      "मुद्रा": 4790,
      "iction": 4791,
      "डो": 4792,
      "वर्क": 4793,
      "guide": 4794,
      "initi": 4795,
      "गं": 4796,
      "ficient": 4797,
      "modern": 4798,
      "mach": 4799,
      "ease": 4800,
      "standing": 4801,
      "dro": 4802,
      "फु": 4803,
      "दल": 4804,
      "Rep": 4805,
      "प्रस": 4806,
      "औद्योग": 4807,
      "एच": 4808,
      "¤¸": 4809,
      "uses": 4810,
      "abha": 4811,
      "CO": 4812,
      "separ": 4813,
      "defin": 4814,
      "Department": 4815,
      "Let": 4816,
      "आयु": 4817,
      "mitted": 4818,
      "deli": 4819,
      "hood": 4820,
      "Union": 4821,
      "Er": 4822,
      "ईसा": 4823,
      "लिका": 4824,
      "hor": 4825,
      "संदर्भ": 4826,
      "squ": 4827,
      "rele": 4828,
      "according": 4829,
      "ोगे": 4830,
      "पुकार": 4831,
      "INDI": 4832,
      "पुरस्कार": 4833,
      "परीक्षा": 4834,
      "दिखाई": 4835,
      "posit": 4836,
      "months": 4837,
      "righteous": 4838,
      "ूँ": 4839,
      "website": 4840,
      "कामना": 4841,
      "relation": 4842,
      "देती": 4843,
      "इनमें": 4844,
      "Qur": 4845,
      "¤¿": 4846,
      "irth": 4847,
      "Muslims": 4848,
      "mocr": 4849,
      "release": 4850,
      "मुझ": 4851,
      "round": 4852,
      "told": 4853,
      "appointed": 4854,
      "Surely": 4855,
      "व्यक्त": 4856,
      "महत्": 4857,
      "condu": 4858,
      "निजी": 4859,
      "ख्त": 4860,
      "Verily": 4861,
      "१९": 4862,
      "ठहरा": 4863,
      "itation": 4864,
      "sof": 4865,
      "lier": 4866,
      "बदले": 4867,
      "vari": 4868,
      "ग्रहण": 4869,
      "building": 4870,
      "बयान": 4871,
      "सृ": 4872,
      "host": 4873,
      "tray": 4874,
      "घोष": 4875,
      "प्राथ": 4876,
      "story": 4877,
      "ोग्रा": 4878,
      "prove": 4879,
      "till": 4880,
      "bel": 4881,
      "turned": 4882,
      "शायद": 4883,
      "past": 4884,
      "goods": 4885,
      "Israel": 4886,
      "संस्कृति": 4887,
      "वजह": 4888,
      "result": 4889,
      "ountain": 4890,
      "Ass": 4891,
      "रोज": 4892,
      "नाटक": 4893,
      "बाल": 4894,
      "check": 4895,
      "Committee": 4896,
      "wealth": 4897,
      "प्रदर्श": 4898,
      "verily": 4899,
      "loss": 4900,
      "कोण": 4901,
      "निर्भर": 4902,
      "क्रमण": 4903,
      "environment": 4904,
      "#-": 4905,
      "grad": 4906,
      "valid": 4907,
      "प्राथमिक": 4908,
      "संगीत": 4909,
      "केन्द": 4910,
      "ouch": 4911,
      "remember": 4912,
      "computer": 4913,
      "गाह": 4914,
      "पेश": 4915,
      "atives": 4916,
      "eyes": 4917,
      "नू": 4918,
      "लाइ": 4919,
      "Sup": 4920,
      "needs": 4921,
      "बं": 4922,
      "ina": 4923,
      "nder": 4924,
      "मीटर": 4925,
      "कांग्रेस": 4926,
      "सदी": 4927,
      "cially": 4928,
      "सर्वो": 4929,
      "तय": 4930,
      "योगदान": 4931,
      "forts": 4932,
      "अधिका": 4933,
      "sen": 4934,
      "acqu": 4935,
      "डिस्क": 4936,
      "01": 4937,
      "band": 4938,
      "पाए": 4939,
      "integr": 4940,
      "वधान": 4941,
      "पूछ": 4942,
      "ऑफ": 4943,
      "aut": 4944,
      "office": 4945,
      "reme": 4946,
      "नगर": 4947,
      "इस्लाम": 4948,
      "Tech": 4949,
      "निर्यात": 4950,
      "रखे": 4951,
      "स्वतंत्रता": 4952,
      "शता": 4953,
      "fru": 4954,
      "destro": 4955,
      "ills": 4956,
      "स्य": 4957,
      "AS": 4958,
      "Cor": 4959,
      "method": 4960,
      "cious": 4961,
      "Mad": 4962,
      "Govern": 4963,
      "reedom": 4964,
      "परिष": 4965,
      "चयनित": 4966,
      "LRB": 4967,
      "invol": 4968,
      "आवेदन": 4969,
      "वित्त": 4970,
      "ires": 4971,
      "century": 4972,
      "TO": 4973,
      "शांति": 4974,
      "नै": 4975,
      "किंतु": 4976,
      "व्यक्तियों": 4977,
      "‍य": 4978,
      "प्रस्ताव": 4979,
      "rish": 4980,
      "server": 4981,
      "ategory": 4982,
      "रखना": 4983,
      "Mr": 4984,
      "¤": 4985,
      "design": 4986,
      "्म": 4987,
      "gives": 4988,
      "ieve": 4989,
      "why": 4990,
      "चाहिये": 4991,
      "issue": 4992,
      "blood": 4993,
      "माता": 4994,
      "Cre": 4995,
      "allowed": 4996,
      "poor": 4997,
      "prep": 4998,
      "नमा": 4999,
      "श्त": 5000,
      "कीय": 5001,
      "mention": 5002,
      "sun": 5003,
      "Set": 5004,
      "saying": 5005,
      "मंडल": 5006,
      "particip": 5007,
      "problem": 5008,
      "enc": 5009,
      "लब": 5010,
      "हृ": 5011,
      "idered": 5012,
      "आतंक": 5013,
      "औद्योगिक": 5014,
      "रहेंगे": 5015,
      "अदा": 5016,
      "books": 5017,
      "publ": 5018,
      "आशा": 5019,
      "asse": 5020,
      "क्का": 5021,
      "प्रकट": 5022,
      "आयतों": 5023,
      "किंग": 5024,
      "रखो": 5025,
      "रल": 5026,
      "ultural": 5027,
      "लियों": 5028,
      "party": 5029,
      "however": 5030,
      "Bengal": 5031,
      "सुरक्षित": 5032,
      "sor": 5033,
      "हन": 5034,
      "aste": 5035,
      "ंख": 5036,
      "ita": 5037,
      "Select": 5038,
      "write": 5039,
      "दिवस": 5040,
      "basis": 5041,
      "ंज": 5042,
      "रहम": 5043,
      "लागत": 5044,
      "trade": 5045,
      "बनी": 5046,
      "ret": 5047,
      "deep": 5048,
      "ित्व": 5049,
      "बिल्": 5050,
      "terror": 5051,
      "दीन": 5052,
      "tree": 5053,
      "fal": 5054,
      "Are": 5055,
      "युक्ति": 5056,
      "considered": 5057,
      "लर": 5058,
      "administr": 5059,
      "चर्चा": 5060,
      "sense": 5061,
      "energy": 5062,
      "persons": 5063,
      "!\"": 5064,
      "Where": 5065,
      "ट्स": 5066,
      "hab": 5067,
      "vert": 5068,
      "problems": 5069,
      "समारोह": 5070,
      "कार्यालय": 5071,
      "Council": 5072,
      "ane": 5073,
      "spread": 5074,
      "क्रो": 5075,
      "ken": 5076,
      "UN": 5077,
      "स्रोत": 5078,
      "kar": 5079,
      "purposes": 5080,
      "rup": 5081,
      "begin": 5082,
      "rect": 5083,
      "कत": 5084,
      "Fire": 5085,
      "rad": 5086,
      "wide": 5087,
      "Mon": 5088,
      "मुद्": 5089,
      "supp": 5090,
      "viol": 5091,
      "jour": 5092,
      "movement": 5093,
      "terms": 5094,
      "pleas": 5095,
      "आवा": 5096,
      "scient": 5097,
      "¤¨": 5098,
      "क़र": 5099,
      "रकम": 5100,
      "अवश्य": 5101,
      "पांच": 5102,
      "html": 5103,
      "single": 5104,
      "ंचे": 5105,
      "stri": 5106,
      "Public": 5107,
      "चयन": 5108,
      "हद": 5109,
      "कारों": 5110,
      "दूसरा": 5111,
      "कार्ड": 5112,
      "फार": 5113,
      "manner": 5114,
      "proved": 5115,
      "कम्प": 5116,
      "रक्त": 5117,
      "discus": 5118,
      "प्रभावित": 5119,
      "version": 5120,
      "phys": 5121,
      "ंकन": 5122,
      "यल": 5123,
      "ication": 5124,
      "शुरु": 5125,
      "अध्या": 5126,
      "ब्या": 5127,
      "approach": 5128,
      "मना": 5129,
      "display": 5130,
      "ga": 5131,
      "आयोजित": 5132,
      "natural": 5133,
      "sac": 5134,
      "itude": 5135,
      "हट": 5136,
      "often": 5137,
      "ificate": 5138,
      "प्रकाशित": 5139,
      "princi": 5140,
      "ढंग": 5141,
      "reat": 5142,
      "room": 5143,
      "ताल": 5144,
      "08": 5145,
      "none": 5146,
      "संपत्ति": 5147,
      "Constitution": 5148,
      "passed": 5149,
      "international": 5150,
      "मुस्": 5151,
      "However": 5152,
      "assist": 5153,
      "religious": 5154,
      "citiz": 5155,
      "चालन": 5156,
      "cul": 5157,
      "user": 5158,
      "ृह": 5159,
      "Information": 5160,
      "नव": 5161,
      "इयों": 5162,
      "size": 5163,
      ".)": 5164,
      "चो": 5165,
      "शताब्": 5166,
      "त्री": 5167,
      "डेटा": 5168,
      "शिका": 5169,
      "village": 5170,
      "शुल्क": 5171,
      "छू": 5172,
      "Arab": 5173,
      "समुदाय": 5174,
      "ero": 5175,
      "possess": 5176,
      "imp": 5177,
      "डाला": 5178,
      "ंगी": 5179,
      "network": 5180,
      "lines": 5181,
      "फ़ॉ": 5182,
      "विशा": 5183,
      "general": 5184,
      "ूप": 5185,
      "pression": 5186,
      "खोल": 5187,
      "ड़ाई": 5188,
      "fix": 5189,
      "मेलन": 5190,
      "ister": 5191,
      "जिला": 5192,
      "पश्चिम": 5193,
      "ured": 5194,
      "विभा": 5195,
      "US": 5196,
      "सॉ": 5197,
      "प्राय": 5198,
      "रुद्ध": 5199,
      "राजनीतिक": 5200,
      "मशी": 5201,
      "दोलन": 5202,
      "front": 5203,
      "America": 5204,
      "File": 5205,
      "तरण": 5206,
      "संरक्षण": 5207,
      "ouses": 5208,
      "'.": 5209,
      "Ed": 5210,
      "Prophet": 5211,
      "sound": 5212,
      "मारी": 5213,
      "ीप": 5214,
      "कूट": 5215,
      "carry": 5216,
      "May": 5217,
      "ंग्": 5218,
      "निर्धारिती": 5219,
      "doers": 5220,
      "रेल": 5221,
      "messages": 5222,
      "बंगाल": 5223,
      "counts": 5224,
      "पर्याप्त": 5225,
      "क्शन": 5226,
      "विद्या": 5227,
      "assessee": 5228,
      "फ़ी": 5229,
      "ging": 5230,
      "दंड": 5231,
      "कदम": 5232,
      "management": 5233,
      "redu": 5234,
      "box": 5235,
      "मुसलमानों": 5236,
      "(%": 5237,
      "पाने": 5238,
      "संस्करण": 5239,
      "makes": 5240,
      "brah": 5241,
      "बुद्धि": 5242,
      "issued": 5243,
      "payment": 5244,
      "ousand": 5245,
      "बोल": 5246,
      "प्रशा": 5247,
      "condition": 5248,
      "sec": 5249,
      "सीधे": 5250,
      "अवस्था": 5251,
      "देंगे": 5252,
      "पदार्थ": 5253,
      "civil": 5254,
      "INDIA": 5255,
      "CH": 5256,
      "लाते": 5257,
      "वें": 5258,
      "भंड": 5259,
      "alone": 5260,
      "assessment": 5261,
      "चुकी": 5262,
      "समझौ": 5263,
      "hara": 5264,
      "break": 5265,
      "छोटी": 5266,
      "यद्य": 5267,
      "benefit": 5268,
      "ub": 5269,
      "सलाह": 5270,
      "space": 5271,
      "फ्ट": 5272,
      "freedom": 5273,
      "san": 5274,
      "बैठे": 5275,
      "शख़": 5276,
      "हासिल": 5277,
      "ior": 5278,
      "टिक": 5279,
      "occur": 5280,
      "maintain": 5281,
      "आपकी": 5282,
      "योक्ता": 5283,
      "guard": 5284,
      "केन्द्रीय": 5285,
      "early": 5286,
      "दायित्व": 5287,
      "increase": 5288,
      "बॉ": 5289,
      "बाग़": 5290,
      "सेवाओं": 5291,
      "आस्ति": 5292,
      "आत्मा": 5293,
      "ug": 5294,
      "मुखर्जी": 5295,
      "विविध": 5296,
      "ule": 5297,
      "झी": 5298,
      "यथा": 5299,
      "Chand": 5300,
      "यद्यपि": 5301,
      "गुनाह": 5302,
      "region": 5303,
      "लघु": 5304,
      "everything": 5305,
      "mukherjee": 5306,
      "pranab": 5307,
      "हार्": 5308,
      "चिकित्सा": 5309,
      "इका": 5310,
      "ani": 5311,
      "निम्नलिखित": 5312,
      "sil": 5313,
      "हिन्दी": 5314,
      "source": 5315,
      "ड़क": 5316,
      "ज़रूर": 5317,
      "conditions": 5318,
      "सिद्धा": 5319,
      "istic": 5320,
      "शैली": 5321,
      "pranabmukherjee": 5322,
      "gard": 5323,
      "प्रमाणपत्र": 5324,
      "ports": 5325,
      "वान्": 5326,
      "profess": 5327,
      "प्रण": 5328,
      "imes": 5329,
      "cert": 5330,
      "iii": 5331,
      "झूठ": 5332,
      "MS": 5333
    },
    "merges": [
      [
        "t",
        "h"
      ],
      [
        "i",
        "n"
      ],
      [
        "th",
        "e"
      ],
      [
        "a",
        "n"
      ],
      [
        "r",
        "e"
      ],
      [
        "o",
        "n"
      ],
      [
        "e",
        "r"
      ],
      [
        "क",
        "े"
      ],
      [
        "्",
        "र"
      ],
      [
        "a",
        "t"
      ],
      [
        "e",
        "n"
      ],
      [
        "ा",
        "र"
      ],
      [
        "i",
        "s"
      ],
      [
        "ह",
        "ै"
      ],
      [
        "o",
        "r"
      ],
      [
        "े",
        "ं"
      ],
      [
        "o",
        "f"
      ],
      [
        "य",
        "ा"
      ],
      [
        "a",
        "l"
      ],
      [
        "o",
        "u"
      ],
      [
        "e",
        "s"
      ],
      [
        "e",
        "d"
      ],
      [
        "न",
        "े"
      ],
      [
        "an",
        "d"
      ],
      [
        "ो",
        "ं"
      ],
      [
        "a",
        "r"
      ],
      [
        "म",
        "ें"
      ],
      [
        "t",
        "o"
      ],
      [
        "क",
        "र"
      ],
      [
        "i",
        "t"
      ],
      [
        "क",
        "ा"
      ],
      [
        "स",
        "े"
      ],
      [
        "क",
        "ी"
      ],
      [
        "a",
        "s"
      ],
      [
        "औ",
        "र"
      ],
      [
        "क",
        "ि"
      ],
      [
        "in",
        "g"
      ],
      [
        "त",
        "ा"
      ],
      [
        "i",
        "on"
      ],
      [
        "र",
        "्"
      ],
      [
        "स",
        "्"
      ],
      [
        "क",
        "ो"
      ],
      [
        "प",
        "्र"
      ],
      [
        "्",
        "य"
      ],
      [
        "न",
        "ा"
      ],
      [
        "i",
        "c"
      ],
      [
        "l",
        "e"
      ],
      [
        "क",
        "्"
      ],
      [
        "h",
        "e"
      ],
      [
        "o",
        "m"
      ],
      [
        "ा",
        "न"
      ],
      [
        "en",
        "t"
      ],
      [
        "व",
        "ि"
      ],
      [
        "s",
        "t"
      ],
      [
        "s",
        "e"
      ],
      [
        "b",
        "e"
      ],
      [
        "ह",
        "ी"
      ],
      [
        "प",
        "र"
      ],
      [
        "i",
        "l"
      ],
      [
        "व",
        "ा"
      ],
      [
        "त",
        "ि"
      ],
      [
        "v",
        "e"
      ],
      [
        "ल",
        "ि"
      ],
      [
        "ल",
        "ा"
      ],
      [
        "न",
        "ि"
      ],
      [
        "c",
        "t"
      ],
      [
        "ह",
        "ो"
      ],
      [
        "न",
        "्"
      ],
      [
        "ज",
        "ा"
      ],
      [
        "d",
        "e"
      ],
      [
        "f",
        "or"
      ],
      [
        "स",
        "ा"
      ],
      [
        "र",
        "ा"
      ],
      [
        "r",
        "o"
      ],
      [
        "w",
        "h"
      ],
      [
        "n",
        "o"
      ],
      [
        "त",
        "े"
      ],
      [
        "स",
        "ं"
      ],
      [
        "c",
        "h"
      ],
      [
        "a",
        "m"
      ],
      [
        "ि",
        "त"
      ],
      [
        "क",
        "ार"
      ],
      [
        "c",
        "e"
      ],
      [
        "at",
        "ion"
      ],
      [
        "द",
        "े"
      ],
      [
        "i",
        "m"
      ],
      [
        "ल",
        "े"
      ],
      [
        "n",
        "d"
      ],
      [
        "h",
        "a"
      ],
      [
        "म",
        "ा"
      ],
      [
        "त",
        "ु"
      ],
      [
        "ह",
        "ा"
      ],
      [
        "a",
        "y"
      ],
      [
        "द",
        "ि"
      ],
      [
        "है",
        "ं"
      ],
      [
        "l",
        "y"
      ],
      [
        "y",
        "ou"
      ],
      [
        "v",
        "er"
      ],
      [
        "त",
        "्"
      ],
      [
        "i",
        "d"
      ],
      [
        "थ",
        "ा"
      ],
      [
        "त",
        "ी"
      ],
      [
        "u",
        "r"
      ],
      [
        "ो",
        "ग"
      ],
      [
        "इ",
        "स"
      ],
      [
        "भ",
        "ी"
      ],
      [
        "लि",
        "ए"
      ],
      [
        "ड",
        "़"
      ],
      [
        "क्",
        "ष"
      ],
      [
        "u",
        "t"
      ],
      [
        "ए",
        "क"
      ],
      [
        "l",
        "o"
      ],
      [
        "T",
        "he"
      ],
      [
        "i",
        "r"
      ],
      [
        "स",
        "ी"
      ],
      [
        "l",
        "i"
      ],
      [
        "a",
        "d"
      ],
      [
        "th",
        "at"
      ],
      [
        "t",
        "r"
      ],
      [
        "a",
        "re"
      ],
      [
        "द",
        "ा"
      ],
      [
        "ही",
        "ं"
      ],
      [
        "ज",
        "ो"
      ],
      [
        "स",
        "म"
      ],
      [
        "उ",
        "स"
      ],
      [
        "उ",
        "न"
      ],
      [
        "a",
        "b"
      ],
      [
        "त",
        "ो"
      ],
      [
        "ब",
        "ा"
      ],
      [
        "o",
        "l"
      ],
      [
        "a",
        "g"
      ],
      [
        "s",
        "u"
      ],
      [
        "m",
        "ent"
      ],
      [
        "त",
        "्र"
      ],
      [
        "अ",
        "प"
      ],
      [
        "द",
        "्"
      ],
      [
        "t",
        "er"
      ],
      [
        "ज",
        "ि"
      ],
      [
        "न",
        "हीं"
      ],
      [
        "w",
        "e"
      ],
      [
        "c",
        "on"
      ],
      [
        "ज",
        "़"
      ],
      [
        "ह",
        "ु"
      ],
      [
        "तु",
        "म"
      ],
      [
        "i",
        "th"
      ],
      [
        "ह",
        "म"
      ],
      [
        "i",
        "g"
      ],
      [
        "ल",
        "्"
      ],
      [
        "ष",
        "्"
      ],
      [
        "no",
        "t"
      ],
      [
        "प",
        "ा"
      ],
      [
        "ि",
        "क"
      ],
      [
        "p",
        "e"
      ],
      [
        "ग",
        "ा"
      ],
      [
        "re",
        "s"
      ],
      [
        "il",
        "l"
      ],
      [
        "al",
        "l"
      ],
      [
        "न",
        "ी"
      ],
      [
        "l",
        "l"
      ],
      [
        "c",
        "om"
      ],
      [
        "p",
        "ro"
      ],
      [
        "u",
        "s"
      ],
      [
        "w",
        "ith"
      ],
      [
        "u",
        "n"
      ],
      [
        "es",
        "s"
      ],
      [
        "u",
        "l"
      ],
      [
        "व",
        "े"
      ],
      [
        "o",
        "d"
      ],
      [
        "त",
        "र"
      ],
      [
        "a",
        "c"
      ],
      [
        "e",
        "t"
      ],
      [
        "f",
        "r"
      ],
      [
        "भ",
        "ा"
      ],
      [
        "at",
        "e"
      ],
      [
        "म",
        "ु"
      ],
      [
        "s",
        "h"
      ],
      [
        "t",
        "e"
      ],
      [
        "च",
        "ा"
      ],
      [
        "कि",
        "या"
      ],
      [
        "i",
        "f"
      ],
      [
        "p",
        "o"
      ],
      [
        "य",
        "ह"
      ],
      [
        "ल",
        "ी"
      ],
      [
        "p",
        "er"
      ],
      [
        "a",
        "in"
      ],
      [
        "l",
        "d"
      ],
      [
        "क",
        "ु"
      ],
      [
        "the",
        "r"
      ],
      [
        "य",
        "ों"
      ],
      [
        "h",
        "is"
      ],
      [
        "र",
        "ी"
      ],
      [
        "b",
        "y"
      ],
      [
        "व",
        "ह"
      ],
      [
        "श",
        "्"
      ],
      [
        "ष्",
        "ट"
      ],
      [
        "म",
        "ि"
      ],
      [
        "ou",
        "r"
      ],
      [
        "र",
        "ू"
      ],
      [
        "अ",
        "न"
      ],
      [
        "e",
        "x"
      ],
      [
        "s",
        "o"
      ],
      [
        "म",
        "ान"
      ],
      [
        "ार",
        "ा"
      ],
      [
        "प",
        "ू"
      ],
      [
        "a",
        "k"
      ],
      [
        "d",
        "o"
      ],
      [
        "कर",
        "ने"
      ],
      [
        "ल",
        "ोग"
      ],
      [
        "अ",
        "ध"
      ],
      [
        "य",
        "े"
      ],
      [
        "f",
        "e"
      ],
      [
        "n",
        "e"
      ],
      [
        "w",
        "as"
      ],
      [
        "m",
        "e"
      ],
      [
        "i",
        "v"
      ],
      [
        "ha",
        "ve"
      ],
      [
        "a",
        "p"
      ],
      [
        "h",
        "t"
      ],
      [
        "fr",
        "om"
      ],
      [
        "it",
        "y"
      ],
      [
        "the",
        "y"
      ],
      [
        "w",
        "ill"
      ],
      [
        "o",
        "p"
      ],
      [
        "m",
        "o"
      ],
      [
        "the",
        "m"
      ],
      [
        "ं",
        "ग"
      ],
      [
        "p",
        "l"
      ],
      [
        "म",
        "े"
      ],
      [
        "es",
        "t"
      ],
      [
        "र",
        "े"
      ],
      [
        "ख",
        "ा"
      ],
      [
        "wh",
        "o"
      ],
      [
        "a",
        "h"
      ],
      [
        "ज",
        "ी"
      ],
      [
        "ख",
        "़"
      ],
      [
        "ar",
        "t"
      ],
      [
        "द",
        "ी"
      ],
      [
        "श",
        "ा"
      ],
      [
        "r",
        "i"
      ],
      [
        "h",
        "as"
      ],
      [
        "ह",
        "ि"
      ],
      [
        "th",
        "is"
      ],
      [
        "on",
        "e"
      ],
      [
        "ic",
        "h"
      ],
      [
        "er",
        "s"
      ],
      [
        "व",
        "र्"
      ],
      [
        "दे",
        "श"
      ],
      [
        "an",
        "t"
      ],
      [
        "क",
        "़"
      ],
      [
        "र",
        "ह"
      ],
      [
        "ार",
        "े"
      ],
      [
        "अप",
        "ने"
      ],
      [
        "भ",
        "ार"
      ],
      [
        "्",
        "या"
      ],
      [
        "in",
        "d"
      ],
      [
        "q",
        "u"
      ],
      [
        "H",
        "e"
      ],
      [
        "स",
        "क"
      ],
      [
        "or",
        "d"
      ],
      [
        "ct",
        "ion"
      ],
      [
        "i",
        "es"
      ],
      [
        "न्",
        "ह"
      ],
      [
        "स",
        "ि"
      ],
      [
        "स",
        "ु"
      ],
      [
        "फ",
        "़"
      ],
      [
        "स्",
        "थ"
      ],
      [
        "i",
        "ve"
      ],
      [
        "wh",
        "ich"
      ],
      [
        "p",
        "r"
      ],
      [
        "ि",
        "र"
      ],
      [
        "उ",
        "प"
      ],
      [
        "an",
        "y"
      ],
      [
        "u",
        "m"
      ],
      [
        "ou",
        "t"
      ],
      [
        "re",
        "d"
      ],
      [
        "I",
        "n"
      ],
      [
        "2",
        "0"
      ],
      [
        "i",
        "a"
      ],
      [
        "I",
        "nd"
      ],
      [
        "en",
        "d"
      ],
      [
        "स",
        "ू"
      ],
      [
        "ou",
        "ld"
      ],
      [
        "is",
        "t"
      ],
      [
        "A",
        "ll"
      ],
      [
        "ग",
        "े"
      ],
      [
        "the",
        "ir"
      ],
      [
        "श",
        "ि"
      ],
      [
        "क",
        "्र"
      ],
      [
        "च",
        "्"
      ],
      [
        "ar",
        "d"
      ],
      [
        "g",
        "e"
      ],
      [
        "अन",
        "ु"
      ],
      [
        "जि",
        "स"
      ],
      [
        "c",
        "i"
      ],
      [
        "ार",
        "्"
      ],
      [
        "व",
        "्य"
      ],
      [
        "प",
        "ु"
      ],
      [
        "द",
        "ो"
      ],
      [
        "1",
        "9"
      ],
      [
        "प",
        "्"
      ],
      [
        "ग",
        "या"
      ],
      [
        "e",
        "m"
      ],
      [
        "ag",
        "e"
      ],
      [
        "u",
        "re"
      ],
      [
        "ओ",
        "ं"
      ],
      [
        "ै",
        "ं"
      ],
      [
        "त",
        "था"
      ],
      [
        "आ",
        "प"
      ],
      [
        "स",
        "र"
      ],
      [
        "g",
        "r"
      ],
      [
        "a",
        "ct"
      ],
      [
        "ार",
        "ी"
      ],
      [
        "कु",
        "छ"
      ],
      [
        "उ",
        "न्ह"
      ],
      [
        "ou",
        "n"
      ],
      [
        "रू",
        "प"
      ],
      [
        "नि",
        "र्"
      ],
      [
        "ou",
        "s"
      ],
      [
        "u",
        "p"
      ],
      [
        "त",
        "क"
      ],
      [
        "or",
        "t"
      ],
      [
        "w",
        "or"
      ],
      [
        "ज",
        "ब"
      ],
      [
        "्",
        "ह"
      ],
      [
        "o",
        "ver"
      ],
      [
        "कि",
        "सी"
      ],
      [
        "द्",
        "व"
      ],
      [
        "तुम",
        "्ह"
      ],
      [
        "म",
        "ी"
      ],
      [
        "्र",
        "ी"
      ],
      [
        "र",
        "ि"
      ],
      [
        "e",
        "ar"
      ],
      [
        "सा",
        "थ"
      ],
      [
        "W",
        "e"
      ],
      [
        "पर",
        "ि"
      ],
      [
        "o",
        "w"
      ],
      [
        "s",
        "a"
      ],
      [
        "पू",
        "र्"
      ],
      [
        "ं",
        "ध"
      ],
      [
        "on",
        "g"
      ],
      [
        "a",
        "u"
      ],
      [
        "य",
        "ोग"
      ],
      [
        "am",
        "e"
      ],
      [
        "is",
        "h"
      ],
      [
        "All",
        "ah"
      ],
      [
        "b",
        "ut"
      ],
      [
        "A",
        "nd"
      ],
      [
        "u",
        "st"
      ],
      [
        "प्र",
        "ा"
      ],
      [
        "d",
        "is"
      ],
      [
        "ु",
        "दा"
      ],
      [
        "ग",
        "ी"
      ],
      [
        "को",
        "ई"
      ],
      [
        "द",
        "ू"
      ],
      [
        "no",
        "w"
      ],
      [
        "ं",
        "ड"
      ],
      [
        "f",
        "o"
      ],
      [
        "म",
        "्"
      ],
      [
        "प्र",
        "ति"
      ],
      [
        "an",
        "s"
      ],
      [
        "य",
        "ो"
      ],
      [
        "थ",
        "े"
      ],
      [
        "उन",
        "के"
      ],
      [
        "ह",
        "र"
      ],
      [
        "व",
        "ी"
      ],
      [
        "at",
        "ed"
      ],
      [
        "क",
        "ृ"
      ],
      [
        "a",
        "v"
      ],
      [
        "द्",
        "ध"
      ],
      [
        "ब",
        "ी"
      ],
      [
        "you",
        "r"
      ],
      [
        "an",
        "ce"
      ],
      [
        "ig",
        "ht"
      ],
      [
        "u",
        "nd"
      ],
      [
        "e",
        "v"
      ],
      [
        "ab",
        "le"
      ],
      [
        "c",
        "l"
      ],
      [
        "o",
        "ther"
      ],
      [
        "m",
        "a"
      ],
      [
        "इ",
        "न"
      ],
      [
        "द्व",
        "ारा"
      ],
      [
        "ब",
        "ना"
      ],
      [
        "k",
        "e"
      ],
      [
        "g",
        "o"
      ],
      [
        "ि",
        "या"
      ],
      [
        "ज",
        "न"
      ],
      [
        "व",
        "र"
      ],
      [
        "o",
        "se"
      ],
      [
        "क्",
        "ति"
      ],
      [
        "ज",
        "्"
      ],
      [
        "लोग",
        "ों"
      ],
      [
        "कर",
        "ें"
      ],
      [
        "re",
        "n"
      ],
      [
        "ध",
        "ार"
      ],
      [
        "p",
        "t"
      ],
      [
        "it",
        "s"
      ],
      [
        "ढ",
        "़"
      ],
      [
        "कर",
        "ते"
      ],
      [
        "फ",
        "िर"
      ],
      [
        "r",
        "a"
      ],
      [
        "ब",
        "े"
      ],
      [
        "दि",
        "या"
      ],
      [
        "च",
        "ी"
      ],
      [
        "c",
        "an"
      ],
      [
        "र",
        "ो"
      ],
      [
        "क्",
        "त"
      ],
      [
        "p",
        "ort"
      ],
      [
        "रा",
        "ज"
      ],
      [
        "भार",
        "त"
      ],
      [
        "ग",
        "र"
      ],
      [
        "रा",
        "ष्ट"
      ],
      [
        "Ind",
        "ia"
      ],
      [
        "जा",
        "ए"
      ],
      [
        "for",
        "m"
      ],
      [
        "य",
        "ु"
      ],
      [
        "om",
        "e"
      ],
      [
        "न",
        "ों"
      ],
      [
        "ग",
        "ु"
      ],
      [
        "the",
        "re"
      ],
      [
        "ट",
        "ी"
      ],
      [
        "प",
        "ह"
      ],
      [
        "ला",
        "ह"
      ],
      [
        "प",
        "ी"
      ],
      [
        "ं",
        "त्र"
      ],
      [
        "अ",
        "ल्"
      ],
      [
        "as",
        "s"
      ],
      [
        "i",
        "de"
      ],
      [
        "ou",
        "g"
      ],
      [
        "u",
        "d"
      ],
      [
        "T",
        "h"
      ],
      [
        "ट",
        "ा"
      ],
      [
        "कार",
        "्य"
      ],
      [
        "ल",
        "ो"
      ],
      [
        "म",
        "ैं"
      ],
      [
        "lo",
        "w"
      ],
      [
        "थ",
        "ी"
      ],
      [
        "क्",
        "या"
      ],
      [
        "as",
        "t"
      ],
      [
        "p",
        "art"
      ],
      [
        "अ",
        "ं"
      ],
      [
        "ग",
        "्र"
      ],
      [
        "h",
        "im"
      ],
      [
        "स्",
        "त"
      ],
      [
        "e",
        "ver"
      ],
      [
        "ब",
        "ंध"
      ],
      [
        "a",
        "ch"
      ],
      [
        "ar",
        "y"
      ],
      [
        "स",
        "ब"
      ],
      [
        "द",
        "्य"
      ],
      [
        ".",
        "."
      ],
      [
        "उ",
        "त्"
      ],
      [
        "स्",
        "था"
      ],
      [
        "ha",
        "d"
      ],
      [
        "क",
        "ह"
      ],
      [
        "क",
        "हा"
      ],
      [
        "m",
        "an"
      ],
      [
        "अध",
        "ि"
      ],
      [
        "c",
        "re"
      ],
      [
        "ज्",
        "ञ"
      ],
      [
        "ख़",
        "ुदा"
      ],
      [
        "i",
        "p"
      ],
      [
        "जा",
        "ता"
      ],
      [
        "र",
        "ख"
      ],
      [
        "अल्",
        "लाह"
      ],
      [
        "ic",
        "e"
      ],
      [
        "उस",
        "के"
      ],
      [
        "0",
        "0"
      ],
      [
        "द",
        "ु"
      ],
      [
        "be",
        "en"
      ],
      [
        "a",
        "f"
      ],
      [
        "च",
        "ार"
      ],
      [
        "o",
        "k"
      ],
      [
        "रह",
        "े"
      ],
      [
        "ब",
        "्"
      ],
      [
        "com",
        "p"
      ],
      [
        "c",
        "o"
      ],
      [
        "c",
        "oun"
      ],
      [
        "अप",
        "नी"
      ],
      [
        "en",
        "ce"
      ],
      [
        "op",
        "le"
      ],
      [
        "ड़",
        "ा"
      ],
      [
        "I",
        "t"
      ],
      [
        "we",
        "re"
      ],
      [
        "ic",
        "al"
      ],
      [
        "कर",
        "ना"
      ],
      [
        "k",
        "now"
      ],
      [
        "म",
        "ू"
      ],
      [
        "अ",
        "व"
      ],
      [
        "b",
        "r"
      ],
      [
        "fo",
        "re"
      ],
      [
        "द",
        "्र"
      ],
      [
        "ल",
        "ों"
      ],
      [
        "ि",
        "यों"
      ],
      [
        "i",
        "e"
      ],
      [
        "ion",
        "s"
      ],
      [
        "ब",
        "हु"
      ],
      [
        "र",
        "ु"
      ],
      [
        "भ",
        "ि"
      ],
      [
        "t",
        "im"
      ],
      [
        "w",
        "ay"
      ],
      [
        "p",
        "res"
      ],
      [
        "त",
        "्य"
      ],
      [
        "i",
        "re"
      ],
      [
        "p",
        "re"
      ],
      [
        "नि",
        "य"
      ],
      [
        "th",
        "ose"
      ],
      [
        "ब",
        "र"
      ],
      [
        "न्",
        "न"
      ],
      [
        "b",
        "o"
      ],
      [
        "d",
        "u"
      ],
      [
        "क्ष",
        "े"
      ],
      [
        "in",
        "e"
      ],
      [
        "क्ष",
        "ा"
      ],
      [
        "f",
        "a"
      ],
      [
        "च्",
        "छ"
      ],
      [
        "wh",
        "en"
      ],
      [
        "ak",
        "e"
      ],
      [
        "प्",
        "त"
      ],
      [
        "W",
        "h"
      ],
      [
        "i",
        "z"
      ],
      [
        "sa",
        "id"
      ],
      [
        "b",
        "er"
      ],
      [
        "बा",
        "त"
      ],
      [
        "pe",
        "ople"
      ],
      [
        "be",
        "li"
      ],
      [
        "वा",
        "ले"
      ],
      [
        "b",
        "l"
      ],
      [
        "s",
        "er"
      ],
      [
        "ान",
        "ी"
      ],
      [
        "ब",
        "ि"
      ],
      [
        "ou",
        "nd"
      ],
      [
        "j",
        "e"
      ],
      [
        "हु",
        "ए"
      ],
      [
        "च",
        "े"
      ],
      [
        "ट",
        "े"
      ],
      [
        "t",
        "s"
      ],
      [
        "und",
        "er"
      ],
      [
        "an",
        "g"
      ],
      [
        "बा",
        "द"
      ],
      [
        "st",
        "r"
      ],
      [
        "e",
        "l"
      ],
      [
        "sh",
        "all"
      ],
      [
        "श",
        "न"
      ],
      [
        "च",
        "ु"
      ],
      [
        "ल",
        "ग"
      ],
      [
        "उन्ह",
        "ें"
      ],
      [
        "श",
        "ी"
      ],
      [
        "as",
        "e"
      ],
      [
        "ig",
        "n"
      ],
      [
        "ड",
        "ा"
      ],
      [
        "कर",
        "ता"
      ],
      [
        "i",
        "le"
      ],
      [
        "en",
        "s"
      ],
      [
        "d",
        "ay"
      ],
      [
        "स्",
        "व"
      ],
      [
        "po",
        "s"
      ],
      [
        "ation",
        "s"
      ],
      [
        "हो",
        "ता"
      ],
      [
        "wh",
        "at"
      ],
      [
        "ol",
        "d"
      ],
      [
        "com",
        "m"
      ],
      [
        "h",
        "er"
      ],
      [
        "com",
        "e"
      ],
      [
        "he",
        "re"
      ],
      [
        "द",
        "र्"
      ],
      [
        "G",
        "od"
      ],
      [
        "वि",
        "ध"
      ],
      [
        "ing",
        "s"
      ],
      [
        "i",
        "al"
      ],
      [
        "क्षे",
        "त्र"
      ],
      [
        "र",
        "हा"
      ],
      [
        "ों",
        "ने"
      ],
      [
        "al",
        "so"
      ],
      [
        "ज",
        "ान"
      ],
      [
        "अध",
        "िक"
      ],
      [
        "उ",
        "से"
      ],
      [
        "सक",
        "ता"
      ],
      [
        "ड़",
        "े"
      ],
      [
        "r",
        "it"
      ],
      [
        "व",
        "न"
      ],
      [
        "दे",
        "ख"
      ],
      [
        "wor",
        "k"
      ],
      [
        "प",
        "ै"
      ],
      [
        "श",
        "ु"
      ],
      [
        "i",
        "an"
      ],
      [
        "सम",
        "य"
      ],
      [
        "द",
        "ान"
      ],
      [
        "च",
        "ि"
      ],
      [
        "ul",
        "t"
      ],
      [
        "च",
        "ित"
      ],
      [
        "c",
        "ess"
      ],
      [
        "se",
        "l"
      ],
      [
        "ज",
        "ै"
      ],
      [
        "ब",
        "ु"
      ],
      [
        "b",
        "le"
      ],
      [
        "बहु",
        "त"
      ],
      [
        "म",
        "ो"
      ],
      [
        "राष्ट",
        "्र"
      ],
      [
        "म",
        "ह"
      ],
      [
        "m",
        "ay"
      ],
      [
        "ac",
        "k"
      ],
      [
        "e",
        "f"
      ],
      [
        "्य",
        "ों"
      ],
      [
        "मि",
        "ल"
      ],
      [
        "र्",
        "थ"
      ],
      [
        "कर",
        "्"
      ],
      [
        "s",
        "p"
      ],
      [
        "भ",
        "ू"
      ],
      [
        "pro",
        "v"
      ],
      [
        "t",
        "ain"
      ],
      [
        "T",
        "his"
      ],
      [
        "oug",
        "h"
      ],
      [
        "का",
        "म"
      ],
      [
        "L",
        "ord"
      ],
      [
        "त्",
        "व"
      ],
      [
        "the",
        "n"
      ],
      [
        "ह",
        "े"
      ],
      [
        "श",
        "े"
      ],
      [
        "t",
        "ed"
      ],
      [
        "प",
        "ति"
      ],
      [
        "f",
        "ul"
      ],
      [
        "is",
        "e"
      ],
      [
        "ड़",
        "ी"
      ],
      [
        "पा",
        "स"
      ],
      [
        "s",
        "ome"
      ],
      [
        "पूर्",
        "ण"
      ],
      [
        "e",
        "p"
      ],
      [
        "a",
        "il"
      ],
      [
        "at",
        "er"
      ],
      [
        "s",
        "pe"
      ],
      [
        "id",
        "ent"
      ],
      [
        "a",
        "ce"
      ],
      [
        "a",
        "th"
      ],
      [
        "S",
        "t"
      ],
      [
        "ती",
        "य"
      ],
      [
        "प",
        "ि"
      ],
      [
        "20",
        "1"
      ],
      [
        "or",
        "y"
      ],
      [
        "it",
        "ion"
      ],
      [
        "ण",
        "ा"
      ],
      [
        "over",
        "n"
      ],
      [
        "tr",
        "y"
      ],
      [
        "C",
        "h"
      ],
      [
        "कार",
        "ी"
      ],
      [
        "नि",
        "क"
      ],
      [
        "ल",
        "य"
      ],
      [
        "तर",
        "ह"
      ],
      [
        "ड",
        "ि"
      ],
      [
        "t",
        "w"
      ],
      [
        "re",
        "e"
      ],
      [
        "वर्",
        "ष"
      ],
      [
        "al",
        "ly"
      ],
      [
        "वि",
        "श्"
      ],
      [
        "y",
        "ear"
      ],
      [
        "ट",
        "ि"
      ],
      [
        "भा",
        "ग"
      ],
      [
        "o",
        "t"
      ],
      [
        "ट",
        "र"
      ],
      [
        "ह",
        "ू"
      ],
      [
        "क",
        "म"
      ],
      [
        "on",
        "ly"
      ],
      [
        "कर",
        "ण"
      ],
      [
        "व",
        "ं"
      ],
      [
        "su",
        "b"
      ],
      [
        "उन्ह",
        "ोंने"
      ],
      [
        "हु",
        "आ"
      ],
      [
        "ur",
        "n"
      ],
      [
        "w",
        "ould"
      ],
      [
        "p",
        "le"
      ],
      [
        "पह",
        "ले"
      ],
      [
        "द",
        "र"
      ],
      [
        "m",
        "y"
      ],
      [
        "सम",
        "्"
      ],
      [
        "i",
        "ous"
      ],
      [
        "tim",
        "e"
      ],
      [
        "यो",
        "ज"
      ],
      [
        "su",
        "ch"
      ],
      [
        "य",
        "दि"
      ],
      [
        "प",
        "े"
      ],
      [
        "हम",
        "ने"
      ],
      [
        "च",
        "ना"
      ],
      [
        "je",
        "ct"
      ],
      [
        "जि",
        "न"
      ],
      [
        "दि",
        "न"
      ],
      [
        "म",
        "त"
      ],
      [
        "w",
        "n"
      ],
      [
        "t",
        "y"
      ],
      [
        "स",
        "मा"
      ],
      [
        "ह",
        "ों"
      ],
      [
        "क",
        "ों"
      ],
      [
        "u",
        "e"
      ],
      [
        "उन",
        "की"
      ],
      [
        "हो",
        "ने"
      ],
      [
        "तुम्ह",
        "ारे"
      ],
      [
        "चा",
        "हि"
      ],
      [
        "ना",
        "म"
      ],
      [
        "ध",
        "ि"
      ],
      [
        "मु",
        "ख"
      ],
      [
        "th",
        "an"
      ],
      [
        "li",
        "g"
      ],
      [
        "छ",
        "ो"
      ],
      [
        "ne",
        "w"
      ],
      [
        "au",
        "se"
      ],
      [
        "हो",
        "गा"
      ],
      [
        "व्य",
        "क्ति"
      ],
      [
        "c",
        "k"
      ],
      [
        "s",
        "on"
      ],
      [
        "ज़",
        "ा"
      ],
      [
        "्र",
        "े"
      ],
      [
        "ग",
        "त"
      ],
      [
        "सं",
        "बंध"
      ],
      [
        "ए",
        "ं"
      ],
      [
        "प",
        "र्"
      ],
      [
        "ग",
        "ई"
      ],
      [
        "c",
        "ent"
      ],
      [
        "्री",
        "य"
      ],
      [
        "ग",
        "ए"
      ],
      [
        "म",
        "न"
      ],
      [
        "झ",
        "े"
      ],
      [
        "हा",
        "ं"
      ],
      [
        "अन",
        "्य"
      ],
      [
        "li",
        "ke"
      ],
      [
        "ation",
        "al"
      ],
      [
        "ब",
        "ो"
      ],
      [
        "ौ",
        "र"
      ],
      [
        "it",
        "ies"
      ],
      [
        "हम",
        "ारे"
      ],
      [
        "ma",
        "de"
      ],
      [
        "le",
        "ct"
      ],
      [
        "R",
        "e"
      ],
      [
        "o",
        "b"
      ],
      [
        "्र",
        "ा"
      ],
      [
        "ओ",
        "र"
      ],
      [
        "ि",
        "ति"
      ],
      [
        "स",
        "भी"
      ],
      [
        "g",
        "re"
      ],
      [
        "res",
        "s"
      ],
      [
        "ऐ",
        "से"
      ],
      [
        "it",
        "e"
      ],
      [
        "द",
        "ार"
      ],
      [
        "w",
        "ard"
      ],
      [
        "af",
        "ter"
      ],
      [
        "m",
        "in"
      ],
      [
        "वा",
        "ला"
      ],
      [
        "s",
        "c"
      ],
      [
        "th",
        "ing"
      ],
      [
        "द",
        "न"
      ],
      [
        "कर",
        "ो"
      ],
      [
        "sh",
        "ould"
      ],
      [
        "mo",
        "re"
      ],
      [
        "ए",
        "ँ"
      ],
      [
        "h",
        "o"
      ],
      [
        "राष्ट्र",
        "पति"
      ],
      [
        "il",
        "d"
      ],
      [
        "स्",
        "ता"
      ],
      [
        "en",
        "g"
      ],
      [
        "ab",
        "out"
      ],
      [
        "be",
        "t"
      ],
      [
        "C",
        "om"
      ],
      [
        "ब",
        "द"
      ],
      [
        "g",
        "u"
      ],
      [
        "ध",
        "ान"
      ],
      [
        "in",
        "t"
      ],
      [
        "s",
        "ay"
      ],
      [
        "स्",
        "ट"
      ],
      [
        "ब",
        "ार"
      ],
      [
        "य",
        "ी"
      ],
      [
        "in",
        "to"
      ],
      [
        "of",
        "f"
      ],
      [
        "प्रा",
        "प्त"
      ],
      [
        "con",
        "t"
      ],
      [
        "S",
        "h"
      ],
      [
        "P",
        "r"
      ],
      [
        "overn",
        "ment"
      ],
      [
        "ग",
        "़"
      ],
      [
        "श",
        "्य"
      ],
      [
        "A",
        "s"
      ],
      [
        "c",
        "ur"
      ],
      [
        "निय",
        "म"
      ],
      [
        "भा",
        "व"
      ],
      [
        "प्र",
        "कार"
      ],
      [
        "स्थ",
        "ान"
      ],
      [
        "सक",
        "ते"
      ],
      [
        "हा",
        "ँ"
      ],
      [
        "ter",
        "n"
      ],
      [
        "c",
        "es"
      ],
      [
        "राज",
        "्य"
      ],
      [
        "अ",
        "च्छ"
      ],
      [
        "ल",
        "न"
      ],
      [
        "g",
        "iv"
      ],
      [
        "20",
        "0"
      ],
      [
        "इस",
        "के"
      ],
      [
        "se",
        "e"
      ],
      [
        "सा",
        "म"
      ],
      [
        "चाहि",
        "ए"
      ],
      [
        "ver",
        "s"
      ],
      [
        "B",
        "ut"
      ],
      [
        "S",
        "o"
      ],
      [
        "ar",
        "k"
      ],
      [
        "जा",
        "ने"
      ],
      [
        "ड",
        "ी"
      ],
      [
        "U",
        "n"
      ],
      [
        "ह",
        "ित"
      ],
      [
        "The",
        "y"
      ],
      [
        "उस",
        "की"
      ],
      [
        "पूर्",
        "व"
      ],
      [
        "त",
        "ों"
      ],
      [
        "लि",
        "या"
      ],
      [
        "ब",
        "ढ़"
      ],
      [
        "a",
        "ve"
      ],
      [
        "e",
        "ve"
      ],
      [
        "P",
        "ro"
      ],
      [
        "स",
        "ार"
      ],
      [
        "c",
        "er"
      ],
      [
        "न्",
        "द"
      ],
      [
        "कि",
        "ए"
      ],
      [
        "lo",
        "p"
      ],
      [
        "दू",
        "स"
      ],
      [
        "्य",
        "ू"
      ],
      [
        "स",
        "र्"
      ],
      [
        "ci",
        "al"
      ],
      [
        "d",
        "es"
      ],
      [
        "कि",
        "न"
      ],
      [
        "ig",
        "h"
      ],
      [
        "re",
        "g"
      ],
      [
        "n",
        "ess"
      ],
      [
        "हो",
        "ती"
      ],
      [
        "ज्ञ",
        "ान"
      ],
      [
        "a",
        "w"
      ],
      [
        "ई",
        "मान"
      ],
      [
        "C",
        "on"
      ],
      [
        "क्र",
        "म"
      ],
      [
        "s",
        "y"
      ],
      [
        ")",
        ","
      ],
      [
        "सर",
        "कार"
      ],
      [
        "वि",
        "का"
      ],
      [
        "tw",
        "o"
      ],
      [
        "st",
        "it"
      ],
      [
        "i",
        "ed"
      ],
      [
        "मा",
        "ण"
      ],
      [
        "ग",
        "ार"
      ],
      [
        "en",
        "er"
      ],
      [
        "अ",
        "गर"
      ],
      [
        "सम",
        "झ"
      ],
      [
        "ce",
        "pt"
      ],
      [
        "ख",
        "ु"
      ],
      [
        "चा",
        "ह"
      ],
      [
        "l",
        "ed"
      ],
      [
        "r",
        "y"
      ],
      [
        "कर",
        "े"
      ],
      [
        "शे",
        "ष"
      ],
      [
        "f",
        "ir"
      ],
      [
        "t",
        "urn"
      ],
      [
        "if",
        "ic"
      ],
      [
        "योज",
        "ना"
      ],
      [
        "न्",
        "या"
      ],
      [
        "ी",
        "न"
      ],
      [
        "ऐ",
        "सा"
      ],
      [
        "p",
        "h"
      ],
      [
        "g",
        "et"
      ],
      [
        "व",
        "ार"
      ],
      [
        "us",
        "ed"
      ],
      [
        "tr",
        "ans"
      ],
      [
        "se",
        "t"
      ],
      [
        "य",
        "न"
      ],
      [
        "sh",
        "ip"
      ],
      [
        "ज",
        "े"
      ],
      [
        "de",
        "ed"
      ],
      [
        "go",
        "od"
      ],
      [
        "वि",
        "क"
      ],
      [
        "त",
        "न"
      ],
      [
        "u",
        "al"
      ],
      [
        "अ",
        "भि"
      ],
      [
        "an",
        "k"
      ],
      [
        "at",
        "es"
      ],
      [
        "ment",
        "s"
      ],
      [
        "ser",
        "v"
      ],
      [
        "the",
        "se"
      ],
      [
        "प",
        "ो"
      ],
      [
        "ए",
        "वं"
      ],
      [
        "ट",
        "्"
      ],
      [
        "इ",
        "ल"
      ],
      [
        "ध",
        "न"
      ],
      [
        "कार",
        "ण"
      ],
      [
        "ठ",
        "ा"
      ],
      [
        "अ",
        "ब"
      ],
      [
        "प",
        "हु"
      ],
      [
        "भार",
        "तीय"
      ],
      [
        "व",
        "्या"
      ],
      [
        "द्य",
        "ोग"
      ],
      [
        "ल",
        "गा"
      ],
      [
        "an",
        "ge"
      ],
      [
        "ं",
        "च"
      ],
      [
        "क्ष",
        "ण"
      ],
      [
        "h",
        "ar"
      ],
      [
        "मु",
        "झे"
      ],
      [
        "व",
        "ै"
      ],
      [
        "be",
        "fore"
      ],
      [
        "विका",
        "स"
      ],
      [
        "m",
        "is"
      ],
      [
        "क",
        "्यों"
      ],
      [
        "stit",
        "ut"
      ],
      [
        "m",
        "er"
      ],
      [
        "lo",
        "g"
      ],
      [
        "भ",
        "े"
      ],
      [
        "र",
        "सू"
      ],
      [
        "त",
        "ः"
      ],
      [
        "स",
        "ो"
      ],
      [
        "म",
        "ार्"
      ],
      [
        "फ",
        "ल"
      ],
      [
        "ag",
        "ain"
      ],
      [
        "m",
        "on"
      ],
      [
        "ग",
        "ो"
      ],
      [
        "स",
        "द"
      ],
      [
        "ध",
        "्य"
      ],
      [
        "क्र",
        "िया"
      ],
      [
        "ध",
        "ारा"
      ],
      [
        "म",
        "ंत्र"
      ],
      [
        "ro",
        "w"
      ],
      [
        "H",
        "is"
      ],
      [
        "as",
        "h"
      ],
      [
        "th",
        "r"
      ],
      [
        "हु",
        "ई"
      ],
      [
        "w",
        "here"
      ],
      [
        "c",
        "ause"
      ],
      [
        "ख",
        "ो"
      ],
      [
        "c",
        "y"
      ],
      [
        "li",
        "fe"
      ],
      [
        "नि",
        "श्"
      ],
      [
        "भा",
        "ष"
      ],
      [
        "M",
        "o"
      ],
      [
        "fe",
        "ren"
      ],
      [
        "u",
        "bl"
      ],
      [
        "व",
        "ृ"
      ],
      [
        "ज",
        "ू"
      ],
      [
        "ड",
        "र"
      ],
      [
        "त्",
        "म"
      ],
      [
        "in",
        "k"
      ],
      [
        "c",
        "all"
      ],
      [
        "or",
        "s"
      ],
      [
        "sel",
        "f"
      ],
      [
        "य",
        "ू"
      ],
      [
        "आ",
        "र"
      ],
      [
        "ं",
        "द"
      ],
      [
        "il",
        "y"
      ],
      [
        "स्थ",
        "िति"
      ],
      [
        "mo",
        "st"
      ],
      [
        "च्",
        "च"
      ],
      [
        "A",
        "n"
      ],
      [
        "कृ",
        "ति"
      ],
      [
        "दि",
        "खा"
      ],
      [
        "c",
        "ol"
      ],
      [
        "s",
        "i"
      ],
      [
        "we",
        "ll"
      ],
      [
        "f",
        "er"
      ],
      [
        "स",
        "ह"
      ],
      [
        "S",
        "e"
      ],
      [
        "रसू",
        "ल"
      ],
      [
        "per",
        "son"
      ],
      [
        "v",
        "es"
      ],
      [
        "s",
        "ion"
      ],
      [
        "व",
        "ल"
      ],
      [
        "h",
        "i"
      ],
      [
        "म",
        "ौ"
      ],
      [
        "मू",
        "ल"
      ],
      [
        "उस",
        "ने"
      ],
      [
        "at",
        "ing"
      ],
      [
        "p",
        "ol"
      ],
      [
        "E",
        "x"
      ],
      [
        "ver",
        "y"
      ],
      [
        "f",
        "ol"
      ],
      [
        "र",
        "ब"
      ],
      [
        "दो",
        "नों"
      ],
      [
        "स्",
        "तु"
      ],
      [
        "ें",
        "गे"
      ],
      [
        "D",
        "e"
      ],
      [
        "me",
        "m"
      ],
      [
        "आ",
        "ई"
      ],
      [
        "ले",
        "किन"
      ],
      [
        "wor",
        "ld"
      ],
      [
        "अप",
        "ना"
      ],
      [
        "Y",
        "ou"
      ],
      [
        "at",
        "t"
      ],
      [
        "Ind",
        "ian"
      ],
      [
        "द",
        "ृ"
      ],
      [
        "वि",
        "ष"
      ],
      [
        "res",
        "ident"
      ],
      [
        "ad",
        "d"
      ],
      [
        "प्र",
        "े"
      ],
      [
        "p",
        "ur"
      ],
      [
        "फ",
        "ा"
      ],
      [
        "I",
        "f"
      ],
      [
        "ब",
        "ै"
      ],
      [
        "जा",
        "ती"
      ],
      [
        "m",
        "ed"
      ],
      [
        "यु",
        "क्त"
      ],
      [
        "be",
        "ing"
      ],
      [
        "तुम्ह",
        "ें"
      ],
      [
        "o",
        "c"
      ],
      [
        "v",
        "al"
      ],
      [
        "F",
        "or"
      ],
      [
        "विश्",
        "व"
      ],
      [
        "जी",
        "वन"
      ],
      [
        "ख",
        "्या"
      ],
      [
        "ow",
        "n"
      ],
      [
        "प्र",
        "दान"
      ],
      [
        "ic",
        "t"
      ],
      [
        "वा",
        "द"
      ],
      [
        "प",
        "त्र"
      ],
      [
        "प",
        "ार"
      ],
      [
        "वि",
        "शेष"
      ],
      [
        "re",
        "l"
      ],
      [
        "ऐ",
        "सी"
      ],
      [
        "l",
        "ong"
      ],
      [
        "..",
        "."
      ],
      [
        "c",
        "ed"
      ],
      [
        "आ",
        "य"
      ],
      [
        "r",
        "u"
      ],
      [
        "thr",
        "ough"
      ],
      [
        "वा",
        "ली"
      ],
      [
        "at",
        "ive"
      ],
      [
        "str",
        "u"
      ],
      [
        "de",
        "ve"
      ],
      [
        "उप",
        "योग"
      ],
      [
        "लि",
        "ख"
      ],
      [
        "The",
        "re"
      ],
      [
        "ं",
        "क"
      ],
      [
        "मा",
        "ल"
      ],
      [
        "ण",
        "ी"
      ],
      [
        "प्र",
        "योग"
      ],
      [
        "w",
        "er"
      ],
      [
        "con",
        "s"
      ],
      [
        "m",
        "at"
      ],
      [
        "च",
        "ल"
      ],
      [
        "l",
        "ess"
      ],
      [
        "se",
        "ction"
      ],
      [
        ")",
        "."
      ],
      [
        "f",
        "l"
      ],
      [
        "क",
        "ै"
      ],
      [
        "re",
        "ad"
      ],
      [
        "he",
        "l"
      ],
      [
        "l",
        "and"
      ],
      [
        "ever",
        "y"
      ],
      [
        "हो",
        "ते"
      ],
      [
        "हा",
        "य"
      ],
      [
        "1",
        "0"
      ],
      [
        "deve",
        "lop"
      ],
      [
        "ज",
        "ु"
      ],
      [
        "क",
        "ं"
      ],
      [
        "ex",
        "t"
      ],
      [
        "क",
        "ता"
      ],
      [
        "v",
        "is"
      ],
      [
        "जै",
        "से"
      ],
      [
        "ब",
        "न"
      ],
      [
        "E",
        "n"
      ],
      [
        "n",
        "ing"
      ],
      [
        "श",
        "्री"
      ],
      [
        "do",
        "wn"
      ],
      [
        "ख",
        "्"
      ],
      [
        "d",
        "if"
      ],
      [
        "ne",
        "ed"
      ],
      [
        "ड",
        "े"
      ],
      [
        "n",
        "ame"
      ],
      [
        "r",
        "ight"
      ],
      [
        "at",
        "i"
      ],
      [
        "tr",
        "i"
      ],
      [
        "I",
        "s"
      ],
      [
        "f",
        "in"
      ],
      [
        "y",
        "e"
      ],
      [
        "st",
        "and"
      ],
      [
        "pro",
        "du"
      ],
      [
        "m",
        "ain"
      ],
      [
        "नि",
        "या"
      ],
      [
        "re",
        "st"
      ],
      [
        "बी",
        "च"
      ],
      [
        "N",
        "o"
      ],
      [
        "र",
        "ही"
      ],
      [
        "ं",
        "त"
      ],
      [
        "as",
        "k"
      ],
      [
        "ब",
        "ारे"
      ],
      [
        "1",
        "8"
      ],
      [
        "a",
        "j"
      ],
      [
        "is",
        "m"
      ],
      [
        "le",
        "ar"
      ],
      [
        "का",
        "श"
      ],
      [
        "u",
        "se"
      ],
      [
        "स्",
        "वा"
      ],
      [
        "ण",
        "्"
      ],
      [
        "w",
        "ar"
      ],
      [
        "su",
        "re"
      ],
      [
        "प",
        "ं"
      ],
      [
        "j",
        "ust"
      ],
      [
        "ag",
        "es"
      ],
      [
        "m",
        "ake"
      ],
      [
        "ent",
        "s"
      ],
      [
        "वा",
        "स"
      ],
      [
        "उस",
        "का"
      ],
      [
        "ur",
        "ing"
      ],
      [
        "स",
        "हाय"
      ],
      [
        "in",
        "v"
      ],
      [
        "we",
        "en"
      ],
      [
        "ch",
        "ar"
      ],
      [
        "coun",
        "try"
      ],
      [
        "ar",
        "ch"
      ],
      [
        "t",
        "en"
      ],
      [
        "tr",
        "u"
      ],
      [
        "ले",
        "ख"
      ],
      [
        "t",
        "ak"
      ],
      [
        "क",
        "ू"
      ],
      [
        "id",
        "ed"
      ],
      [
        "त",
        "ना"
      ],
      [
        "P",
        "resident"
      ],
      [
        "।",
        "\""
      ],
      [
        "t",
        "ing"
      ],
      [
        "G",
        "overnment"
      ],
      [
        "आ",
        "व"
      ],
      [
        "राष्ट",
        "्रीय"
      ],
      [
        "ic",
        "k"
      ],
      [
        "ष्",
        "ठ"
      ],
      [
        "p",
        "ut"
      ],
      [
        "do",
        "es"
      ],
      [
        "म",
        "ै"
      ],
      [
        "आ",
        "धार"
      ],
      [
        "फ़",
        "ा"
      ],
      [
        "र्",
        "म"
      ],
      [
        "का",
        "ल"
      ],
      [
        "bet",
        "ween"
      ],
      [
        "से",
        "वा"
      ],
      [
        "m",
        "en"
      ],
      [
        "b",
        "u"
      ],
      [
        "fol",
        "low"
      ],
      [
        "st",
        "em"
      ],
      [
        "n",
        "or"
      ],
      [
        "ubl",
        "ic"
      ],
      [
        "in",
        "te"
      ],
      [
        "स्था",
        "प"
      ],
      [
        "p",
        "p"
      ],
      [
        "मे",
        "रे"
      ],
      [
        "m",
        "any"
      ],
      [
        "ul",
        "ar"
      ],
      [
        "f",
        "ic"
      ],
      [
        "स",
        "के"
      ],
      [
        "ए",
        "स"
      ],
      [
        "भ",
        "र"
      ],
      [
        "beli",
        "eve"
      ],
      [
        "g",
        "an"
      ],
      [
        "M",
        "in"
      ],
      [
        "b",
        "ack"
      ],
      [
        "ev",
        "en"
      ],
      [
        "fir",
        "st"
      ],
      [
        "भि",
        "न्न"
      ],
      [
        "ur",
        "al"
      ],
      [
        "नी",
        "ति"
      ],
      [
        "ध",
        "ी"
      ],
      [
        "up",
        "on"
      ],
      [
        "m",
        "s"
      ],
      [
        "c",
        "ould"
      ],
      [
        "d",
        "id"
      ],
      [
        "h",
        "and"
      ],
      [
        "H",
        "im"
      ],
      [
        "अं",
        "त"
      ],
      [
        "pe",
        "ct"
      ],
      [
        "a",
        "x"
      ],
      [
        "श",
        "क"
      ],
      [
        "ha",
        "v"
      ],
      [
        "n",
        "um"
      ],
      [
        "A",
        "ct"
      ],
      [
        "ि",
        "य"
      ],
      [
        "oug",
        "ht"
      ],
      [
        "उन",
        "का"
      ],
      [
        "s",
        "ign"
      ],
      [
        "c",
        "our"
      ],
      [
        "वि",
        "चार"
      ],
      [
        "जाए",
        "गा"
      ],
      [
        "दे",
        "ने"
      ],
      [
        "ह",
        "में"
      ],
      [
        "1",
        "5"
      ],
      [
        "year",
        "s"
      ],
      [
        "व",
        "ही"
      ],
      [
        "ter",
        "s"
      ],
      [
        "के",
        "वल"
      ],
      [
        "c",
        "ord"
      ],
      [
        "म",
        "ित"
      ],
      [
        "l",
        "im"
      ],
      [
        "त",
        "म"
      ],
      [
        "ची",
        "ज़"
      ],
      [
        "श",
        "ो"
      ],
      [
        "मा",
        "म"
      ],
      [
        "giv",
        "en"
      ],
      [
        "le",
        "t"
      ],
      [
        "य",
        "र"
      ],
      [
        "c",
        "ame"
      ],
      [
        "ब",
        "ू"
      ],
      [
        "m",
        "u"
      ],
      [
        "te",
        "m"
      ],
      [
        "जिस",
        "में"
      ],
      [
        "स्",
        "प"
      ],
      [
        "con",
        "d"
      ],
      [
        "च",
        "य"
      ],
      [
        "पर",
        "ा"
      ],
      [
        "आव",
        "श्य"
      ],
      [
        "ता",
        "कि"
      ],
      [
        "हू",
        "ँ"
      ],
      [
        "मान",
        "्य"
      ],
      [
        "प्र",
        "त्य"
      ],
      [
        "ध",
        "ा"
      ],
      [
        "सू",
        "चना"
      ],
      [
        "pres",
        "ent"
      ],
      [
        "m",
        "it"
      ],
      [
        "il",
        "ity"
      ],
      [
        "d",
        "en"
      ],
      [
        "s",
        "ha"
      ],
      [
        "ं",
        "भ"
      ],
      [
        "per",
        "i"
      ],
      [
        "श",
        "्र"
      ],
      [
        "c",
        "ap"
      ],
      [
        "ear",
        "th"
      ],
      [
        "it",
        "ed"
      ],
      [
        "fe",
        "ct"
      ],
      [
        "प",
        "त्"
      ],
      [
        "al",
        "s"
      ],
      [
        "ल्",
        "प"
      ],
      [
        "again",
        "st"
      ],
      [
        "u",
        "c"
      ],
      [
        "निर्",
        "धार"
      ],
      [
        "कृ",
        "त"
      ],
      [
        "pl",
        "ay"
      ],
      [
        "B",
        "o"
      ],
      [
        "m",
        "ess"
      ],
      [
        "पै",
        "दा"
      ],
      [
        "वा",
        "लों"
      ],
      [
        "am",
        "ong"
      ],
      [
        "p",
        "ar"
      ],
      [
        "जा",
        "ना"
      ],
      [
        "t",
        "ake"
      ],
      [
        "ल",
        "ें"
      ],
      [
        "ख",
        "े"
      ],
      [
        "w",
        "rit"
      ],
      [
        "at",
        "ure"
      ],
      [
        "उ",
        "सी"
      ],
      [
        "ष्ट",
        "ि"
      ],
      [
        "क्",
        "स"
      ],
      [
        "re",
        "qu"
      ],
      [
        "हम",
        "ारी"
      ],
      [
        "1",
        "2"
      ],
      [
        "दूस",
        "रे"
      ],
      [
        "pl",
        "ace"
      ],
      [
        "s",
        "ent"
      ],
      [
        "इ",
        "से"
      ],
      [
        "on",
        "d"
      ],
      [
        "आ",
        "ज"
      ],
      [
        "ब",
        "ड़ा"
      ],
      [
        "स",
        "न"
      ],
      [
        "सब",
        "से"
      ],
      [
        "त्",
        "या"
      ],
      [
        "न्",
        "तु"
      ],
      [
        "is",
        "ed"
      ],
      [
        "सं",
        "ग"
      ],
      [
        "so",
        "ci"
      ],
      [
        "T",
        "o"
      ],
      [
        "म",
        "द"
      ],
      [
        "w",
        "ord"
      ],
      [
        "त",
        "ंत्र"
      ],
      [
        "उत्",
        "पा"
      ],
      [
        "मार्",
        "ग"
      ],
      [
        "फ",
        "्"
      ],
      [
        "form",
        "ation"
      ],
      [
        "भ",
        "व"
      ],
      [
        "अ",
        "न्"
      ],
      [
        "A",
        "r"
      ],
      [
        "v",
        "ed"
      ],
      [
        "व",
        "ान"
      ],
      [
        "in",
        "cl"
      ],
      [
        "प",
        "श्"
      ],
      [
        "g",
        "ive"
      ],
      [
        "gre",
        "at"
      ],
      [
        "ie",
        "w"
      ],
      [
        "वे",
        "श"
      ],
      [
        "घ",
        "ा"
      ],
      [
        "c",
        "ri"
      ],
      [
        "त",
        "ब"
      ],
      [
        "अ",
        "थ"
      ],
      [
        "ire",
        "ct"
      ],
      [
        "m",
        "ark"
      ],
      [
        "म",
        "ार"
      ],
      [
        "ल",
        "ब्"
      ],
      [
        "p",
        "a"
      ],
      [
        "c",
        "al"
      ],
      [
        "ज्ञ",
        "ा"
      ],
      [
        "c",
        "r"
      ],
      [
        "v",
        "ar"
      ],
      [
        "जा",
        "ते"
      ],
      [
        "in",
        "ter"
      ],
      [
        "लो",
        "क"
      ],
      [
        "hel",
        "p"
      ],
      [
        "इस",
        "में"
      ],
      [
        "ग",
        "ति"
      ],
      [
        "n",
        "er"
      ],
      [
        "स्",
        "वी"
      ],
      [
        "ज़",
        "ि"
      ],
      [
        "A",
        "d"
      ],
      [
        "घ",
        "र"
      ],
      [
        "ic",
        "es"
      ],
      [
        "क्यों",
        "कि"
      ],
      [
        "I",
        "N"
      ],
      [
        "अधि",
        "नियम"
      ],
      [
        "c",
        "ar"
      ],
      [
        "अधि",
        "कार"
      ],
      [
        "कं",
        "प"
      ],
      [
        "त्",
        "ता"
      ],
      [
        "ve",
        "l"
      ],
      [
        "O",
        "n"
      ],
      [
        "po",
        "wer"
      ],
      [
        "श",
        "क्ति"
      ],
      [
        "दे",
        "ता"
      ],
      [
        "सम",
        "ान"
      ],
      [
        "स्",
        "त्र"
      ],
      [
        "जि",
        "से"
      ],
      [
        "S",
        "u"
      ],
      [
        "l",
        "ar"
      ],
      [
        "व्य",
        "व"
      ],
      [
        "sy",
        "stem"
      ],
      [
        "p",
        "ass"
      ],
      [
        "Min",
        "is"
      ],
      [
        "ब",
        "स"
      ],
      [
        "न",
        "ो"
      ],
      [
        "ब",
        "ल्"
      ],
      [
        "as",
        "ed"
      ],
      [
        "य",
        "ार"
      ],
      [
        "gr",
        "am"
      ],
      [
        "al",
        "th"
      ],
      [
        "भाष",
        "ा"
      ],
      [
        "ion",
        "al"
      ],
      [
        "उप",
        "लब्"
      ],
      [
        "ह",
        "रा"
      ],
      [
        "छ",
        "ा"
      ],
      [
        "ग्र",
        "ा"
      ],
      [
        "फ",
        "ी"
      ],
      [
        "ल",
        "ू"
      ],
      [
        "l",
        "es"
      ],
      [
        "ant",
        "s"
      ],
      [
        "l",
        "ish"
      ],
      [
        "अथ",
        "वा"
      ],
      [
        "a",
        "de"
      ],
      [
        "इ",
        "ं"
      ],
      [
        "c",
        "or"
      ],
      [
        "अ",
        "र्"
      ],
      [
        "St",
        "ate"
      ],
      [
        "दू",
        "र"
      ],
      [
        "ch",
        "o"
      ],
      [
        "उन",
        "से"
      ],
      [
        "क्ष",
        "म"
      ],
      [
        "N",
        "e"
      ],
      [
        "A",
        "l"
      ],
      [
        "उ",
        "द्"
      ],
      [
        "h",
        "um"
      ],
      [
        "ch",
        "ild"
      ],
      [
        "ता",
        "ओं"
      ],
      [
        "v",
        "en"
      ],
      [
        "प",
        "न"
      ],
      [
        "in",
        "s"
      ],
      [
        "सं",
        "देश"
      ],
      [
        "ध",
        "्या"
      ],
      [
        "भ",
        "ु"
      ],
      [
        "वा",
        "ह"
      ],
      [
        "पु",
        "र"
      ],
      [
        "be",
        "cause"
      ],
      [
        "p",
        "lo"
      ],
      [
        "u",
        "res"
      ],
      [
        "उस",
        "से"
      ],
      [
        "im",
        "port"
      ],
      [
        "या",
        "लय"
      ],
      [
        "क",
        "भी"
      ],
      [
        "j",
        "o"
      ],
      [
        "ट",
        "न"
      ],
      [
        "m",
        "ust"
      ],
      [
        "s",
        "he"
      ],
      [
        "भू",
        "मि"
      ],
      [
        "ख",
        "ि"
      ],
      [
        "t",
        "al"
      ],
      [
        "o",
        "per"
      ],
      [
        "ब",
        "ैं"
      ],
      [
        "l",
        "it"
      ],
      [
        "f",
        "act"
      ],
      [
        "द",
        "ों"
      ],
      [
        "Wh",
        "en"
      ],
      [
        "दा",
        "य"
      ],
      [
        "coun",
        "t"
      ],
      [
        "it",
        "al"
      ],
      [
        "कु",
        "ल"
      ],
      [
        "ठ",
        "ी"
      ],
      [
        "i",
        "i"
      ],
      [
        "पर",
        "वर"
      ],
      [
        "त",
        "ै"
      ],
      [
        "फ़ा",
        "इल"
      ],
      [
        "दि",
        "गार"
      ],
      [
        "स",
        "ान"
      ],
      [
        "th",
        "or"
      ],
      [
        "pl",
        "ic"
      ],
      [
        "हू",
        "ं"
      ],
      [
        "ष",
        "ण"
      ],
      [
        "शि",
        "क्षा"
      ],
      [
        "म",
        "हा"
      ],
      [
        "परवर",
        "दिगार"
      ],
      [
        "qu",
        "al"
      ],
      [
        "lig",
        "ht"
      ],
      [
        "अं",
        "तर"
      ],
      [
        "सू",
        "ची"
      ],
      [
        "त्र",
        "ा"
      ],
      [
        "O",
        "ur"
      ],
      [
        "सक",
        "ती"
      ],
      [
        "r",
        "or"
      ],
      [
        "ार्",
        "थ"
      ],
      [
        "व",
        "ो"
      ],
      [
        "id",
        "es"
      ],
      [
        "स्",
        "ते"
      ],
      [
        "ou",
        "se"
      ],
      [
        "in",
        "ess"
      ],
      [
        "का",
        "न"
      ],
      [
        "g",
        "ener"
      ],
      [
        "म",
        "िक"
      ],
      [
        "स्",
        "तर"
      ],
      [
        "w",
        "om"
      ],
      [
        "pr",
        "om"
      ],
      [
        "च",
        "र"
      ],
      [
        "E",
        "S"
      ],
      [
        "w",
        "ater"
      ],
      [
        "h",
        "ow"
      ],
      [
        "द",
        "ौर"
      ],
      [
        "कर",
        "ा"
      ],
      [
        "क",
        "ट"
      ],
      [
        "य",
        "ं"
      ],
      [
        "र",
        "त"
      ],
      [
        "वर",
        "ण"
      ],
      [
        "ब",
        "न्"
      ],
      [
        "ल",
        "ं"
      ],
      [
        "i",
        "vers"
      ],
      [
        "पहु",
        "ँ"
      ],
      [
        "tri",
        "but"
      ],
      [
        "dif",
        "feren"
      ],
      [
        "p",
        "end"
      ],
      [
        "कर",
        "ती"
      ],
      [
        "श",
        "ब्"
      ],
      [
        "ब",
        "्र"
      ],
      [
        "es",
        "e"
      ],
      [
        "ब",
        "ड़ी"
      ],
      [
        "st",
        "ate"
      ],
      [
        "s",
        "s"
      ],
      [
        "su",
        "p"
      ],
      [
        "मह",
        "त्व"
      ],
      [
        "उपलब्",
        "ध"
      ],
      [
        "ord",
        "er"
      ],
      [
        "त",
        "ू"
      ],
      [
        "f",
        "ound"
      ],
      [
        "ever",
        "s"
      ],
      [
        "पु",
        "न"
      ],
      [
        "ब",
        "रा"
      ],
      [
        "इस",
        "लिए"
      ],
      [
        "le",
        "g"
      ],
      [
        "D",
        "ay"
      ],
      [
        "स्",
        "ति"
      ],
      [
        "19",
        "9"
      ],
      [
        "सहाय",
        "ता"
      ],
      [
        "हा",
        "ल"
      ],
      [
        "उत्",
        "तर"
      ],
      [
        "प्र",
        "ो"
      ],
      [
        "क",
        "ई"
      ],
      [
        "h",
        "old"
      ],
      [
        "अ",
        "लग"
      ],
      [
        "t",
        "re"
      ],
      [
        "लि",
        "ये"
      ],
      [
        "या",
        "द"
      ],
      [
        "सं",
        "ख्या"
      ],
      [
        "c",
        "us"
      ],
      [
        "c",
        "he"
      ],
      [
        "p",
        "s"
      ],
      [
        "म",
        "ं"
      ],
      [
        "1",
        "1"
      ],
      [
        "ला",
        "भ"
      ],
      [
        "b",
        "od"
      ],
      [
        "f",
        "ar"
      ],
      [
        "ग्र",
        "ह"
      ],
      [
        "ग",
        "ि"
      ],
      [
        "sel",
        "ves"
      ],
      [
        "ी",
        "य"
      ],
      [
        "मे",
        "री"
      ],
      [
        "आ",
        "या"
      ],
      [
        "ट",
        "्र"
      ],
      [
        "छो",
        "ड़"
      ],
      [
        "क",
        "ला"
      ],
      [
        "फ",
        "ि"
      ],
      [
        "f",
        "il"
      ],
      [
        "ता",
        "ब"
      ],
      [
        "res",
        "p"
      ],
      [
        "H",
        "ind"
      ],
      [
        "अ",
        "ति"
      ],
      [
        "wh",
        "ile"
      ],
      [
        "a",
        "way"
      ],
      [
        "ता",
        "न"
      ],
      [
        "हो",
        "ना"
      ],
      [
        "निर्",
        "माण"
      ],
      [
        "प",
        "ता"
      ],
      [
        "बल्",
        "कि"
      ],
      [
        "न्",
        "द्र"
      ],
      [
        "उन",
        "में"
      ],
      [
        "सं",
        "स्"
      ],
      [
        "le",
        "ad"
      ],
      [
        "w",
        "ant"
      ],
      [
        "at",
        "a"
      ],
      [
        "D",
        "o"
      ],
      [
        "ut",
        "ion"
      ],
      [
        "p",
        "ay"
      ],
      [
        "f",
        "t"
      ],
      [
        "जि",
        "न्ह"
      ],
      [
        "सु",
        "र"
      ],
      [
        "प",
        "क"
      ],
      [
        "अ",
        "र्थ"
      ],
      [
        "e",
        "ach"
      ],
      [
        "हो",
        "गी"
      ],
      [
        "उ",
        "ठा"
      ],
      [
        "if",
        "ied"
      ],
      [
        "परि",
        "वर्"
      ],
      [
        "num",
        "ber"
      ],
      [
        "इस",
        "से"
      ],
      [
        "स",
        "ल"
      ],
      [
        "ब",
        "ता"
      ],
      [
        "फ",
        "े"
      ],
      [
        "s",
        "ur"
      ],
      [
        "शा",
        "मिल"
      ],
      [
        "अध",
        "ीन"
      ],
      [
        "सद",
        "स्"
      ],
      [
        "c",
        "lo"
      ],
      [
        "क",
        "ॉ"
      ],
      [
        "सा",
        "मान्य"
      ],
      [
        "ि",
        "का"
      ],
      [
        "m",
        "al"
      ],
      [
        "वि",
        "भिन्न"
      ],
      [
        "स",
        "फल"
      ],
      [
        "य",
        "हाँ"
      ],
      [
        "f",
        "am"
      ],
      [
        "इस",
        "ी"
      ],
      [
        "r",
        "al"
      ],
      [
        "ang",
        "u"
      ],
      [
        "de",
        "c"
      ],
      [
        "et",
        "y"
      ],
      [
        "l",
        "ist"
      ],
      [
        "bo",
        "ok"
      ],
      [
        "कर्",
        "म"
      ],
      [
        "द्ध",
        "ि"
      ],
      [
        "भ",
        "ग"
      ],
      [
        "श",
        "ै"
      ],
      [
        "उ",
        "च्च"
      ],
      [
        "स्थ",
        "ित"
      ],
      [
        "he",
        "av"
      ],
      [
        "y",
        "s"
      ],
      [
        "आ",
        "गे"
      ],
      [
        ".",
        "\""
      ],
      [
        "प",
        "ड़"
      ],
      [
        "कह",
        "ते"
      ],
      [
        "v",
        "iew"
      ],
      [
        "ज",
        "हां"
      ],
      [
        "con",
        "om"
      ],
      [
        "कर",
        "के"
      ],
      [
        "ब",
        "ल"
      ],
      [
        "mis",
        "sion"
      ],
      [
        "o",
        "g"
      ],
      [
        "do",
        "w"
      ],
      [
        "ि",
        "की"
      ],
      [
        "दौर",
        "ान"
      ],
      [
        "C",
        "ent"
      ],
      [
        "ध",
        "र"
      ],
      [
        "he",
        "art"
      ],
      [
        "व",
        "स्तु"
      ],
      [
        "मंत्र",
        "ी"
      ],
      [
        "वि",
        "द्"
      ],
      [
        "लि",
        "त"
      ],
      [
        "d",
        "uring"
      ],
      [
        "or",
        "gan"
      ],
      [
        "M",
        "u"
      ],
      [
        "लि",
        "क"
      ],
      [
        "h",
        "igh"
      ],
      [
        "im",
        "e"
      ],
      [
        "अ",
        "ंग"
      ],
      [
        "ख",
        "ंड"
      ],
      [
        "beli",
        "evers"
      ],
      [
        "ction",
        "s"
      ],
      [
        "त्म",
        "क"
      ],
      [
        "mo",
        "ve"
      ],
      [
        "वि",
        "त"
      ],
      [
        "य",
        "ही"
      ],
      [
        "्",
        "व"
      ],
      [
        "म",
        "ृ"
      ],
      [
        "वा",
        "स्त"
      ],
      [
        "घ",
        "ट"
      ],
      [
        "R",
        "es"
      ],
      [
        "de",
        "v"
      ],
      [
        "स्प",
        "ष्ट"
      ],
      [
        "उन",
        "को"
      ],
      [
        "के",
        "ं"
      ],
      [
        "log",
        "y"
      ],
      [
        "c",
        "ase"
      ],
      [
        "au",
        "g"
      ],
      [
        "विष",
        "य"
      ],
      [
        "00",
        "0"
      ],
      [
        "s",
        "ame"
      ],
      [
        "d",
        "r"
      ],
      [
        "s",
        "m"
      ],
      [
        "spe",
        "c"
      ],
      [
        "ज",
        "ल"
      ],
      [
        "E",
        "N"
      ],
      [
        "अनु",
        "सार"
      ],
      [
        "l",
        "s"
      ],
      [
        "र्",
        "इ"
      ],
      [
        "ch",
        "ange"
      ],
      [
        "led",
        "ge"
      ],
      [
        "बै",
        "ठ"
      ],
      [
        "l",
        "aw"
      ],
      [
        "अव",
        "सर"
      ],
      [
        "मुख",
        "्य"
      ],
      [
        "ए",
        "म"
      ],
      [
        "l",
        "a"
      ],
      [
        "त्",
        "त"
      ],
      [
        "wh",
        "om"
      ],
      [
        "A",
        "N"
      ],
      [
        "हा",
        "थ"
      ],
      [
        "ं",
        "गा"
      ],
      [
        "B",
        "e"
      ],
      [
        "re",
        "ce"
      ],
      [
        "जिस",
        "के"
      ],
      [
        "पू",
        "रा"
      ],
      [
        "an",
        "a"
      ],
      [
        "ar",
        "s"
      ],
      [
        "े",
        "क"
      ],
      [
        "दु",
        "निया"
      ],
      [
        "is",
        "su"
      ],
      [
        "छ",
        "े"
      ],
      [
        "develop",
        "ment"
      ],
      [
        "ह",
        "त"
      ],
      [
        "मी",
        "न"
      ],
      [
        "स",
        "ित"
      ],
      [
        "call",
        "ed"
      ],
      [
        "pro",
        "cess"
      ],
      [
        "या",
        "ं"
      ],
      [
        "हों",
        "गे"
      ],
      [
        "साम",
        "ने"
      ],
      [
        "i",
        "k"
      ],
      [
        "तर",
        "फ"
      ],
      [
        "क",
        "ौ"
      ],
      [
        "इस",
        "का"
      ],
      [
        "Th",
        "en"
      ],
      [
        "म",
        "र"
      ],
      [
        "ने",
        "क"
      ],
      [
        "ic",
        "s"
      ],
      [
        "c",
        "as"
      ],
      [
        "f",
        "ac"
      ],
      [
        "i",
        "red"
      ],
      [
        "अच्छ",
        "ा"
      ],
      [
        "y",
        "a"
      ],
      [
        "ह",
        "ार"
      ],
      [
        "b",
        "us"
      ],
      [
        "ist",
        "s"
      ],
      [
        "bo",
        "th"
      ],
      [
        ":",
        "%"
      ],
      [
        "सं",
        "र"
      ],
      [
        "iv",
        "es"
      ],
      [
        "पर",
        "ी"
      ],
      [
        "बढ़",
        "ा"
      ],
      [
        "way",
        "s"
      ],
      [
        "cer",
        "tain"
      ],
      [
        "प्र",
        "क्रिया"
      ],
      [
        "1",
        "6"
      ],
      [
        "M",
        "y"
      ],
      [
        "te",
        "ch"
      ],
      [
        "P",
        "ar"
      ],
      [
        "op",
        "en"
      ],
      [
        "ध",
        "ु"
      ],
      [
        "lo",
        "ok"
      ],
      [
        "su",
        "l"
      ],
      [
        "pres",
        "s"
      ],
      [
        "सम",
        "ू"
      ],
      [
        "प",
        "ृ"
      ],
      [
        "ग",
        "ह"
      ],
      [
        "st",
        "ud"
      ],
      [
        "f",
        "ile"
      ],
      [
        "an",
        "other"
      ],
      [
        "p",
        "ublic"
      ],
      [
        "क्ष",
        "ित"
      ],
      [
        "b",
        "al"
      ],
      [
        "et",
        "c"
      ],
      [
        "प",
        "क्ष"
      ],
      [
        "m",
        "ind"
      ],
      [
        "उस",
        "में"
      ],
      [
        "जाए",
        "ँ"
      ],
      [
        "c",
        "ro"
      ],
      [
        "ं",
        "तु"
      ],
      [
        "क",
        "ल"
      ],
      [
        "आप",
        "को"
      ],
      [
        "3",
        "0"
      ],
      [
        "T",
        "r"
      ],
      [
        "th",
        "ings"
      ],
      [
        "या",
        "स"
      ],
      [
        "he",
        "ad"
      ],
      [
        "ट",
        "ो"
      ],
      [
        "ed",
        "uc"
      ],
      [
        "know",
        "n"
      ],
      [
        "m",
        "ak"
      ],
      [
        "संबंध",
        "ित"
      ],
      [
        "tru",
        "th"
      ],
      [
        "f",
        "u"
      ],
      [
        "प",
        "द"
      ],
      [
        "st",
        "art"
      ],
      [
        "स",
        "ौ"
      ],
      [
        "दे",
        "ते"
      ],
      [
        "ward",
        "s"
      ],
      [
        "b",
        "ro"
      ],
      [
        "comm",
        "un"
      ],
      [
        "करे",
        "गा"
      ],
      [
        "M",
        "us"
      ],
      [
        "तै",
        "यार"
      ],
      [
        "सा",
        "इ"
      ],
      [
        "k",
        "ind"
      ],
      [
        "निश्",
        "चित"
      ],
      [
        "न",
        "ई"
      ],
      [
        "i",
        "o"
      ],
      [
        "op",
        "t"
      ],
      [
        "र",
        "ंग"
      ],
      [
        "बा",
        "हर"
      ],
      [
        "फ",
        "ो"
      ],
      [
        "र",
        "खा"
      ],
      [
        "र्",
        "ष"
      ],
      [
        "ज",
        "ार"
      ],
      [
        "O",
        "f"
      ],
      [
        "re",
        "turn"
      ],
      [
        "are",
        "d"
      ],
      [
        "ज",
        "ह"
      ],
      [
        "ज",
        "ित"
      ],
      [
        "peri",
        "od"
      ],
      [
        "g",
        "g"
      ],
      [
        "I",
        "D"
      ],
      [
        "प",
        "ानी"
      ],
      [
        "know",
        "ledge"
      ],
      [
        "s",
        "to"
      ],
      [
        "comp",
        "le"
      ],
      [
        "ind",
        "ust"
      ],
      [
        "ला",
        "ने"
      ],
      [
        "iz",
        "e"
      ],
      [
        "e",
        "conom"
      ],
      [
        "c",
        "ut"
      ],
      [
        "oun",
        "t"
      ],
      [
        "प्रत्य",
        "ेक"
      ],
      [
        "ल",
        "गे"
      ],
      [
        "प्र",
        "ौ"
      ],
      [
        "ज",
        "ारी"
      ],
      [
        "h",
        "al"
      ],
      [
        "differen",
        "t"
      ],
      [
        "चाह",
        "ते"
      ],
      [
        "रा",
        "म"
      ],
      [
        "कि",
        "ताब"
      ],
      [
        "in",
        "deed"
      ],
      [
        "ब",
        "ड़े"
      ],
      [
        "part",
        "ic"
      ],
      [
        "विध",
        "ा"
      ],
      [
        "1",
        "4"
      ],
      [
        "N",
        "ational"
      ],
      [
        "A",
        "T"
      ],
      [
        "प",
        "ढ़"
      ],
      [
        "f",
        "ind"
      ],
      [
        "त",
        "ार"
      ],
      [
        "यो",
        "जन"
      ],
      [
        "se",
        "ct"
      ],
      [
        "with",
        "out"
      ],
      [
        "an",
        "n"
      ],
      [
        "ल",
        "ने"
      ],
      [
        "O",
        "N"
      ],
      [
        "Wh",
        "at"
      ],
      [
        "अ",
        "ग"
      ],
      [
        "र्",
        "ट"
      ],
      [
        "w",
        "in"
      ],
      [
        "p",
        "or"
      ],
      [
        "सम",
        "र्थ"
      ],
      [
        "5",
        "0"
      ],
      [
        "th",
        "ree"
      ],
      [
        "M",
        "ess"
      ],
      [
        "ज",
        "्या"
      ],
      [
        "b",
        "ers"
      ],
      [
        "su",
        "c"
      ],
      [
        "sh",
        "ow"
      ],
      [
        "म",
        "हि"
      ],
      [
        "ती",
        "न"
      ],
      [
        "le",
        "ase"
      ],
      [
        "चु",
        "न"
      ],
      [
        "m",
        "ar"
      ],
      [
        "तुम्ह",
        "ारी"
      ],
      [
        "रा",
        "त"
      ],
      [
        "sup",
        "port"
      ],
      [
        "ac",
        "count"
      ],
      [
        "v",
        "ing"
      ],
      [
        "b",
        "ed"
      ],
      [
        "अध",
        "्य"
      ],
      [
        "b",
        "ar"
      ],
      [
        "प्र",
        "काश"
      ],
      [
        "देश",
        "ों"
      ],
      [
        "O",
        "F"
      ],
      [
        "av",
        "ail"
      ],
      [
        "श",
        "ान"
      ],
      [
        "बना",
        "ने"
      ],
      [
        "ग",
        "ू"
      ],
      [
        "bod",
        "y"
      ],
      [
        "incl",
        "ud"
      ],
      [
        "निश्",
        "चय"
      ],
      [
        "सि",
        "द्ध"
      ],
      [
        "ध",
        "र्म"
      ],
      [
        "ल",
        "ु"
      ],
      [
        "ख",
        "ुदा"
      ],
      [
        "ू",
        "न"
      ],
      [
        "आ",
        "दि"
      ],
      [
        "b",
        "re"
      ],
      [
        "re",
        "lig"
      ],
      [
        "प्र",
        "ार"
      ],
      [
        "फ",
        "ै"
      ],
      [
        "res",
        "pect"
      ],
      [
        "l",
        "ine"
      ],
      [
        "पू",
        "री"
      ],
      [
        "au",
        "thor"
      ],
      [
        "p",
        "un"
      ],
      [
        "स्व",
        "यं"
      ],
      [
        "रु",
        "प"
      ],
      [
        "कार्य",
        "क्रम"
      ],
      [
        "सा",
        "ं"
      ],
      [
        "is",
        "ion"
      ],
      [
        "c",
        "u"
      ],
      [
        "ए",
        "न"
      ],
      [
        "शु",
        "रू"
      ],
      [
        "झ",
        "ु"
      ],
      [
        "inte",
        "rest"
      ],
      [
        "य",
        "म"
      ],
      [
        "is",
        "tr"
      ],
      [
        "s",
        "ing"
      ],
      [
        "me",
        "ans"
      ],
      [
        "A",
        "R"
      ],
      [
        "mu",
        "ch"
      ],
      [
        "'",
        "%"
      ],
      [
        "ex",
        "cept"
      ],
      [
        "l",
        "ast"
      ],
      [
        "pro",
        "gram"
      ],
      [
        "w",
        "r"
      ],
      [
        "श",
        "त"
      ],
      [
        "iv",
        "ed"
      ],
      [
        "स",
        "भा"
      ],
      [
        "cont",
        "in"
      ],
      [
        "ध्य",
        "म"
      ],
      [
        "तर",
        "ी"
      ],
      [
        "s",
        "ol"
      ],
      [
        "श",
        "्रे"
      ],
      [
        "ap",
        "pe"
      ],
      [
        "अ",
        "त्य"
      ],
      [
        "ग",
        "ल"
      ],
      [
        "ad",
        "v"
      ],
      [
        "d",
        "om"
      ],
      [
        "fe",
        "ar"
      ],
      [
        "प्रौ",
        "द्योग"
      ],
      [
        "आप",
        "के"
      ],
      [
        "r",
        "ic"
      ],
      [
        "स",
        "न्"
      ],
      [
        "दृ",
        "ष्टि"
      ],
      [
        "गु",
        "ण"
      ],
      [
        "g",
        "row"
      ],
      [
        "स्थाप",
        "ित"
      ],
      [
        "आ",
        "ं"
      ],
      [
        "in",
        "formation"
      ],
      [
        "निर्धार",
        "ित"
      ],
      [
        "P",
        "R"
      ],
      [
        "in",
        "ce"
      ],
      [
        "Sh",
        "ri"
      ],
      [
        "या",
        "न"
      ],
      [
        "क़",
        "ा"
      ],
      [
        "व्यव",
        "स्था"
      ],
      [
        "am",
        "ent"
      ],
      [
        "t",
        "ax"
      ],
      [
        "ज",
        "ें"
      ],
      [
        "k",
        "ing"
      ],
      [
        "l",
        "angu"
      ],
      [
        "gr",
        "ou"
      ],
      [
        "t",
        "le"
      ],
      [
        "अ",
        "ज़ा"
      ],
      [
        "es",
        "h"
      ],
      [
        "सं",
        "घ"
      ],
      [
        "प्र",
        "धान"
      ],
      [
        "M",
        "an"
      ],
      [
        "प्र",
        "यास"
      ],
      [
        "tak",
        "en"
      ],
      [
        "d",
        "irect"
      ],
      [
        "ग",
        "ण"
      ],
      [
        "ग",
        "ै"
      ],
      [
        "s",
        "k"
      ],
      [
        "प",
        "स"
      ],
      [
        "ie",
        "ld"
      ],
      [
        "e",
        "le"
      ],
      [
        "म",
        "गर"
      ],
      [
        "ऊ",
        "पर"
      ],
      [
        "4",
        "4"
      ],
      [
        "सु",
        "न"
      ],
      [
        "मद",
        "द"
      ],
      [
        "O",
        "r"
      ],
      [
        "उ",
        "न्"
      ],
      [
        "हा",
        "स"
      ],
      [
        "v",
        "ir"
      ],
      [
        "'",
        "'"
      ],
      [
        "h",
        "y"
      ],
      [
        "s",
        "ide"
      ],
      [
        "un",
        "to"
      ],
      [
        "re",
        "al"
      ],
      [
        "ह",
        "्"
      ],
      [
        "po",
        "st"
      ],
      [
        "दे",
        "ह"
      ],
      [
        "in",
        "cre"
      ],
      [
        "i",
        "ther"
      ],
      [
        "m",
        "od"
      ],
      [
        "ग",
        "ये"
      ],
      [
        "ण्",
        "ड"
      ],
      [
        "S",
        "ay"
      ],
      [
        "g",
        "overnment"
      ],
      [
        "परि",
        "योजना"
      ],
      [
        "ish",
        "ed"
      ],
      [
        "i",
        "x"
      ],
      [
        "hum",
        "an"
      ],
      [
        "ren",
        "t"
      ],
      [
        "si",
        "ble"
      ],
      [
        "ज",
        "रू"
      ],
      [
        "b",
        "en"
      ],
      [
        "a",
        "im"
      ],
      [
        "a",
        "ction"
      ],
      [
        "Th",
        "at"
      ],
      [
        "सि",
        "वा"
      ],
      [
        "दर्",
        "शन"
      ],
      [
        "in",
        "st"
      ],
      [
        "अज़ा",
        "ब"
      ],
      [
        "G",
        "o"
      ],
      [
        "pre",
        "v"
      ],
      [
        "1",
        "3"
      ],
      [
        "अ",
        "नेक"
      ],
      [
        "th",
        "ink"
      ],
      [
        "ठी",
        "क"
      ],
      [
        "ग",
        "िर"
      ],
      [
        "आ",
        "द"
      ],
      [
        "ल",
        "ौ"
      ],
      [
        "हे",
        "तु"
      ],
      [
        "अंत",
        "र्"
      ],
      [
        "कार",
        "्"
      ],
      [
        "विश्",
        "वास"
      ],
      [
        "un",
        "t"
      ],
      [
        "ग",
        "ें"
      ],
      [
        "mem",
        "ber"
      ],
      [
        "a",
        "i"
      ],
      [
        "ह",
        "री"
      ],
      [
        "भाव",
        "ना"
      ],
      [
        "A",
        "c"
      ],
      [
        "प्र",
        "णा"
      ],
      [
        "वि",
        "ज्ञान"
      ],
      [
        "चाह",
        "ता"
      ],
      [
        "s",
        "im"
      ],
      [
        "in",
        "stitut"
      ],
      [
        "बैं",
        "क"
      ],
      [
        "E",
        "R"
      ],
      [
        "wom",
        "en"
      ],
      [
        "हि",
        "ं"
      ],
      [
        "ष",
        "ि"
      ],
      [
        "बना",
        "या"
      ],
      [
        "तुम्ह",
        "ारा"
      ],
      [
        "se",
        "arch"
      ],
      [
        "2",
        "5"
      ],
      [
        "v",
        "ol"
      ],
      [
        "iz",
        "ed"
      ],
      [
        "उ",
        "द्योग"
      ],
      [
        "pr",
        "of"
      ],
      [
        "भ",
        "वन"
      ],
      [
        "य",
        "त"
      ],
      [
        "ो",
        "र"
      ],
      [
        "he",
        "ther"
      ],
      [
        "महत्व",
        "पूर्ण"
      ],
      [
        "M",
        "e"
      ],
      [
        "ग",
        "यी"
      ],
      [
        "ग",
        "्"
      ],
      [
        "c",
        "lear"
      ],
      [
        "sm",
        "all"
      ],
      [
        "po",
        "int"
      ],
      [
        "ha",
        "pp"
      ],
      [
        "c",
        "a"
      ],
      [
        "विध",
        "ान"
      ],
      [
        "िया",
        "ँ"
      ],
      [
        "प्र",
        "भाव"
      ],
      [
        "आ",
        "ए"
      ],
      [
        "p",
        "en"
      ],
      [
        "me",
        "et"
      ],
      [
        "सि",
        "ं"
      ],
      [
        "जो",
        "ड़"
      ],
      [
        "l",
        "am"
      ],
      [
        "शी",
        "ल"
      ],
      [
        "pro",
        "ject"
      ],
      [
        "Ne",
        "w"
      ],
      [
        "वा",
        "दी"
      ],
      [
        "प्र",
        "माण"
      ],
      [
        "pro",
        "per"
      ],
      [
        "n",
        "ed"
      ],
      [
        "मूल",
        "्य"
      ],
      [
        "h",
        "am"
      ],
      [
        "त्र",
        "ु"
      ],
      [
        "प्र",
        "बंध"
      ],
      [
        "m",
        "ight"
      ],
      [
        "फ़",
        "ो"
      ],
      [
        "ap",
        "p"
      ],
      [
        "N",
        "ame"
      ],
      [
        "cre",
        "ated"
      ],
      [
        "प्रौद्योग",
        "िकी"
      ],
      [
        "it",
        "u"
      ],
      [
        "R",
        "B"
      ],
      [
        "न्",
        "त"
      ],
      [
        "दे",
        "खा"
      ],
      [
        "al",
        "low"
      ],
      [
        "ab",
        "lish"
      ],
      [
        "प्रति",
        "शत"
      ],
      [
        "h",
        "an"
      ],
      [
        "comp",
        "any"
      ],
      [
        "ev",
        "il"
      ],
      [
        "ं",
        "जी"
      ],
      [
        "क्षेत्र",
        "ों"
      ],
      [
        "परि",
        "णा"
      ],
      [
        "मैं",
        "ने"
      ],
      [
        "ति",
        "यों"
      ],
      [
        "सं",
        "स्थान"
      ],
      [
        "ex",
        "am"
      ],
      [
        "s",
        "ou"
      ],
      [
        "ज",
        "मा"
      ],
      [
        "c",
        "ult"
      ],
      [
        "pe",
        "t"
      ],
      [
        "d",
        "iv"
      ],
      [
        "1",
        "7"
      ],
      [
        "श",
        "री"
      ],
      [
        "आ",
        "र्थ"
      ],
      [
        "ब",
        "ह"
      ],
      [
        "ch",
        "ed"
      ],
      [
        "य",
        "हां"
      ],
      [
        "19",
        "6"
      ],
      [
        "कि",
        "त"
      ],
      [
        "ला",
        "ए"
      ],
      [
        "जिस",
        "ने"
      ],
      [
        "ध्या",
        "न"
      ],
      [
        "can",
        "not"
      ],
      [
        "ल्",
        "डर"
      ],
      [
        "b",
        "it"
      ],
      [
        "घ",
        "ु"
      ],
      [
        "Th",
        "ese"
      ],
      [
        "ef",
        "fect"
      ],
      [
        "if",
        "y"
      ],
      [
        "सी",
        "मा"
      ],
      [
        "बे",
        "शक"
      ],
      [
        "नी",
        "चे"
      ],
      [
        "दे",
        "ना"
      ],
      [
        "वर्",
        "ग"
      ],
      [
        "ं",
        "ति"
      ],
      [
        "मौ",
        "जू"
      ],
      [
        "v",
        "i"
      ],
      [
        "d",
        "ist"
      ],
      [
        "import",
        "ant"
      ],
      [
        "फ",
        "र"
      ],
      [
        "सा",
        "हित"
      ],
      [
        "पा",
        "ठ"
      ],
      [
        "be",
        "come"
      ],
      [
        "pl",
        "an"
      ],
      [
        "पी",
        "छे"
      ],
      [
        "mess",
        "age"
      ],
      [
        "करें",
        "गे"
      ],
      [
        "बि",
        "ना"
      ],
      [
        "नी",
        "य"
      ],
      [
        "शब्",
        "द"
      ],
      [
        "as",
        "on"
      ],
      [
        "i",
        "ent"
      ],
      [
        "शा",
        "सन"
      ],
      [
        "br",
        "ing"
      ],
      [
        "ध",
        "ित"
      ],
      [
        "ज़",
        "ी"
      ],
      [
        "प्र",
        "मुख"
      ],
      [
        "beli",
        "ev"
      ],
      [
        "Wh",
        "o"
      ],
      [
        "Bo",
        "ok"
      ],
      [
        "उ",
        "ल्"
      ],
      [
        "lect",
        "ed"
      ],
      [
        "समा",
        "ज"
      ],
      [
        "ce",
        "ll"
      ],
      [
        "आर्थ",
        "िक"
      ],
      [
        "दि",
        "ष्ट"
      ],
      [
        "ज़",
        "मीन"
      ],
      [
        "en",
        "cy"
      ],
      [
        "ति",
        "हास"
      ],
      [
        "आवश्य",
        "कता"
      ],
      [
        "con",
        "ne"
      ],
      [
        "च्",
        "चे"
      ],
      [
        "bus",
        "iness"
      ],
      [
        "रा",
        "ह"
      ],
      [
        "his",
        "t"
      ],
      [
        "b",
        "es"
      ],
      [
        "जिस",
        "का"
      ],
      [
        "न",
        "ु"
      ],
      [
        "R",
        "am"
      ],
      [
        "end",
        "s"
      ],
      [
        "ज्या",
        "दा"
      ],
      [
        "de",
        "pend"
      ],
      [
        "id",
        "er"
      ],
      [
        "g",
        "n"
      ],
      [
        "परिणा",
        "म"
      ],
      [
        "A",
        "u"
      ],
      [
        "स्",
        "या"
      ],
      [
        "to",
        "day"
      ],
      [
        "n",
        "am"
      ],
      [
        "हि",
        "स्"
      ],
      [
        "ला",
        "या"
      ],
      [
        "कें",
        "द्र"
      ],
      [
        "s",
        "es"
      ],
      [
        "दि",
        "र"
      ],
      [
        "चा",
        "हे"
      ],
      [
        "ne",
        "ver"
      ],
      [
        "रख",
        "ने"
      ],
      [
        "go",
        "ing"
      ],
      [
        "sure",
        "ly"
      ],
      [
        "स",
        "त"
      ],
      [
        "इ",
        "न्"
      ],
      [
        "old",
        "er"
      ],
      [
        "en",
        "se"
      ],
      [
        "P",
        "l"
      ],
      [
        "ले",
        "कर"
      ],
      [
        "कि",
        "न्तु"
      ],
      [
        "est",
        "ablish"
      ],
      [
        "क",
        "वि"
      ],
      [
        "su",
        "m"
      ],
      [
        "चित",
        "्र"
      ],
      [
        "wr",
        "ong"
      ],
      [
        "to",
        "o"
      ],
      [
        "A",
        "t"
      ],
      [
        "धर",
        "ती"
      ],
      [
        "day",
        "s"
      ],
      [
        "read",
        "y"
      ],
      [
        "fr",
        "i"
      ],
      [
        "19",
        "8"
      ],
      [
        "्",
        "त"
      ],
      [
        "in",
        "come"
      ],
      [
        "ग",
        "्री"
      ],
      [
        "?",
        "\""
      ],
      [
        "ch",
        "ang"
      ],
      [
        "मा",
        "ध्यम"
      ],
      [
        "pun",
        "ish"
      ],
      [
        "च",
        "ौ"
      ],
      [
        "at",
        "or"
      ],
      [
        "जब",
        "कि"
      ],
      [
        "बे",
        "ह"
      ],
      [
        "आ",
        "ने"
      ],
      [
        "act",
        "iv"
      ],
      [
        "प",
        "ड़े"
      ],
      [
        "on",
        "es"
      ],
      [
        "वि",
        "देश"
      ],
      [
        "qu",
        "est"
      ],
      [
        "child",
        "ren"
      ],
      [
        "b",
        "est"
      ],
      [
        "द",
        "ें"
      ],
      [
        "द",
        "ारी"
      ],
      [
        "m",
        "and"
      ],
      [
        "I",
        "T"
      ],
      [
        "a",
        "ir"
      ],
      [
        "ो",
        "ह"
      ],
      [
        "ज",
        "्य"
      ],
      [
        "र्",
        "ड"
      ],
      [
        "b",
        "ank"
      ],
      [
        "g",
        "ress"
      ],
      [
        "वि",
        "स्त"
      ],
      [
        "र",
        "ोग"
      ],
      [
        "f",
        "un"
      ],
      [
        "घ",
        "ो"
      ],
      [
        "b",
        "s"
      ],
      [
        "d",
        "i"
      ],
      [
        "mon",
        "th"
      ],
      [
        "ash",
        "tr"
      ],
      [
        "Mus",
        "lim"
      ],
      [
        "ic",
        "y"
      ],
      [
        "अ",
        "तः"
      ],
      [
        "गु",
        "ना"
      ],
      [
        "कंप",
        "नी"
      ],
      [
        "ab",
        "ly"
      ],
      [
        "L",
        "o"
      ],
      [
        "शि",
        "ष्ट"
      ],
      [
        "आ",
        "ग"
      ],
      [
        "ap",
        "plic"
      ],
      [
        "अ",
        "मे"
      ],
      [
        "कृ",
        "षि"
      ],
      [
        "f",
        "our"
      ],
      [
        "te",
        "x"
      ],
      [
        "दर्",
        "श"
      ],
      [
        "Minis",
        "ter"
      ],
      [
        "क",
        "ठ"
      ],
      [
        "ic",
        "a"
      ],
      [
        "हि",
        "न्"
      ],
      [
        "अच्छ",
        "े"
      ],
      [
        "lar",
        "ge"
      ],
      [
        "इस",
        "की"
      ],
      [
        "दि",
        "ए"
      ],
      [
        "em",
        "plo"
      ],
      [
        "ल",
        "ड़"
      ],
      [
        "ac",
        "cept"
      ],
      [
        "पि",
        "छ"
      ],
      [
        "सु",
        "धार"
      ],
      [
        "सु",
        "विधा"
      ],
      [
        "विध",
        "ि"
      ],
[...]
