{
  "version": "1.0",
  "truncation": null,
  "padding": null,
  "added_tokens": [
    {
      "id": 0,
      "content": "[UNK]",
      "single_word": false,
      "lstrip": false,
      "rstrip": false,
      "normalized": false,
      "special": true
    },
    {
      "id": 1,
      "content": "[PAD]",
      "single_word": false,
      "lstrip": false,
      "rstrip": false,
      "normalized": false,
      "special": true
    },
    {
      "id": 2,
      "content": "[SOS]",
      "single_word": false,
      "lstrip": false,
      "rstrip": false,
      "normalized": false,
      "special": true
    },
    {
      "id": 3,
      "content": "[EOS]",
      "single_word": false,
      "lstrip": false,
      "rstrip": false,
      "normalized": false,
      "special": true
    }
  ],
  "normalizer": null,
  "pre_tokenizer": {
    "type": "Whitespace"
  },
  "post_processor": null,
  "decoder": {
    "type": "BPEDecoder",
    "suffix": "</w>"
  },
  "model": {
    "type": "BPE",
    "dropout": null,
    "unk_token": "[UNK]",
    "continuing_subword_prefix": null,
    "end_of_word_suffix": "</w>",
    "fuse_unk": false,
    "byte_fallback": false,
    "ignore_merges": false,
    "vocab": {
      "[UNK]": 0,
      "[PAD]": 1,
      "[SOS]": 2,
      "[EOS]": 3,
      "\u0014": 4,
      "\u001b": 5,
      "!": 6,
      "\"": 7,
      "#": 8,
      "$": 9,
      "%": 10,
      "&": 11,
      "'": 12,
      "(": 13,
      ")": 14,
      "*": 15,
      "+": 16,
      ",": 17,
      "-": 18,
      ".": 19,
      "/": 20,
      "0": 21,
      "1": 22,
      "2": 23,
      "3": 24,
      "4": 25,
      "5": 26,
      "6": 27,
      "7": 28,
      "8": 29,
      "9": 30,
      ":": 31,
      ";": 32,
      "<": 33,
      "=": 34,
      ">": 35,
      "?": 36,
      "@": 37,
      "A": 38,
      "B": 39,
      "C": 40,
      "D": 41,
      "E": 42,
      "F": 43,
      "G": 44,
      "H": 45,
      "I": 46,
      "J": 47,
      "K": 48,
      "L": 49,
      "M": 50,
      "N": 51,
      "O": 52,
      "P": 53,
      "Q": 54,
      "R": 55,
      "S": 56,
      "T": 57,
      "U": 58,
      "V": 59,
      "W": 60,
      "X": 61,
      "Y": 62,
      "Z": 63,
      "[": 64,
      "\\": 65,
      "]": 66,
      "^": 67,
      "_": 68,
      "`": 69,
      "a": 70,
      "b": 71,
      "c": 72,
      "d": 73,
      "e": 74,
      "f": 75,
      "g": 76,
      "h": 77,
      "i": 78,
      "j": 79,
      "k": 80,
      "l": 81,
      "m": 82,
      "n": 83,
      "o": 84,
      "p": 85,
      "q": 86,
      "r": 87,
      "s": 88,
      "t": 89,
      "u": 90,
      "v": 91,
      "w": 92,
      "x": 93,
      "y": 94,
      "z": 95,
      "{": 96,
      "|": 97,
      "}": 98,
      "~": 99,
      "": 100,
      "": 101,
      "": 102,
      "": 103,
      "": 104,
      "": 105,
      "": 106,
      "": 107,
      "": 108,
      "": 109,
      "": 110,
      "": 111,
      "": 112,
      "": 113,
      "": 114,
      "": 115,
      "": 116,
      "": 117,
      "": 118,
      "": 119,
      "": 120,
      "": 121,
      "": 122,
      "": 123,
      "": 124,
      "": 125,
      "": 126,
      "": 127,
      "": 128,
      "": 129,
      "¡": 130,
      "¢": 131,
      "£": 132,
      "¤": 133,
      "¥": 134,
      "¦": 135,
      "§": 136,
      "¨": 137,
      "©": 138,
      "ª": 139,
      "«": 140,
      "¬": 141,
      "­": 142,
      "®": 143,
      "¯": 144,
      "°": 145,
      "±": 146,
      "²": 147,
      "³": 148,
      "´": 149,
      "µ": 150,
      "¶": 151,
      "·": 152,
      "¸": 153,
      "¹": 154,
      "º": 155,
      "»": 156,
      "¼": 157,
      "½": 158,
      "¾": 159,
      "¿": 160,
      "À": 161,
      "Á": 162,
      "Â": 163,
      "Ã": 164,
      "Ä": 165,
      "Å": 166,
      "Æ": 167,
      "Ç": 168,
      "É": 169,
      "Ê": 170,
      "Í": 171,
      "Î": 172,
      "Ð": 173,
      "Ñ": 174,
      "Ó": 175,
      "Ô": 176,
      "Õ": 177,
      "Ö": 178,
      "×": 179,
      "Ø": 180,
      "Ú": 181,
      "Û": 182,
      "Ü": 183,
      "ß": 184,
      "à": 185,
      "á": 186,
      "â": 187,
      "ã": 188,
      "ä": 189,
      "å": 190,
      "æ": 191,
      "ç": 192,
      "è": 193,
      "é": 194,
      "ê": 195,
      "ë": 196,
      "ì": 197,
      "í": 198,
      "î": 199,
      "ï": 200,
      "ð": 201,
      "ñ": 202,
      "ò": 203,
      "ó": 204,
      "ô": 205,
      "õ": 206,
      "ö": 207,
      "÷": 208,
      "ø": 209,
      "ù": 210,
      "ú": 211,
      "ü": 212,
      "ý": 213,
      "þ": 214,
      "Ā": 215,
      "ā": 216,
      "Ă": 217,
      "ă": 218,
      "Ą": 219,
      "ą": 220,
      "Ć": 221,
      "ć": 222,
      "Č": 223,
      "č": 224,
      "ď": 225,
      "Đ": 226,
      "ē": 227,
      "ė": 228,
      "Ę": 229,
      "ę": 230,
      "Ě": 231,
      "ě": 232,
      "ğ": 233,
      "ģ": 234,
      "ī": 235,
      "ĭ": 236,
      "İ": 237,
      "ı": 238,
      "Ĺ": 239,
      "ĺ": 240,
      "ļ": 241,
      "Ľ": 242,
      "ľ": 243,
      "Ł": 244,
      "ł": 245,
      "ń": 246,
      "Ň": 247,
      "ň": 248,
      "Ō": 249,
      "ō": 250,
      "ŏ": 251,
      "ő": 252,
      "œ": 253,
      "ŕ": 254,
      "Ř": 255,
      "ř": 256,
      "Ś": 257,
      "ś": 258,
      "Ş": 259,
      "ş": 260,
      "Š": 261,
      "š": 262,
      "Ţ": 263,
      "ţ": 264,
      "Ť": 265,
      "ť": 266,
      "ū": 267,
      "ŭ": 268,
      "ů": 269,
      "ű": 270,
      "ų": 271,
      "ź": 272,
      "Ż": 273,
      "ż": 274,
      "Ž": 275,
      "ž": 276,
      "ơ": 277,
      "ư": 278,
      "ǁ": 279,
      "ǆ": 280,
      "ș": 281,
      "ț": 282,
      "ɓ": 283,
      "ə": 284,
      "ɪ": 285,
      "ʼ": 286,
      "ʿ": 287,
      "ˇ": 288,
      "ː": 289,
      "˘": 290,
      "˙": 291,
      "˚": 292,
      "˛": 293,
      "˜": 294,
      "˝": 295,
      "̀": 296,
      "́": 297,
      "̂": 298,
      "̃": 299,
      "̄": 300,
      "̆": 301,
      "̇": 302,
      "̈": 303,
      "̊": 304,
      "̌": 305,
      "̣": 306,
      "̧": 307,
      "̨": 308,
      "̪": 309,
      "ͧ": 310,
      ";": 311,
      "Β": 312,
      "Δ": 313,
      "Θ": 314,
      "Κ": 315,
      "Λ": 316,
      "Μ": 317,
      "Π": 318,
      "Ω": 319,
      "ί": 320,
      "α": 321,
      "β": 322,
      "γ": 323,
      "ε": 324,
      "ζ": 325,
      "η": 326,
      "θ": 327,
      "ι": 328,
      "κ": 329,
      "λ": 330,
      "μ": 331,
      "ν": 332,
      "ο": 333,
      "π": 334,
      "ρ": 335,
      "σ": 336,
      "τ": 337,
      "φ": 338,
      "ψ": 339,
      "ω": 340,
      "ό": 341,
      "ώ": 342,
      "Ѕ": 343,
      "І": 344,
      "А": 345,
      "Б": 346,
      "В": 347,
      "Г": 348,
      "Д": 349,
      "Е": 350,
      "Ж": 351,
      "З": 352,
      "И": 353,
      "К": 354,
      "Л": 355,
      "М": 356,
      "Н": 357,
      "О": 358,
      "П": 359,
      "Р": 360,
      "С": 361,
      "Т": 362,
      "У": 363,
      "Х": 364,
      "Ч": 365,
      "Ш": 366,
      "Ы": 367,
      "Я": 368,
      "а": 369,
      "б": 370,
      "в": 371,
      "г": 372,
      "д": 373,
      "е": 374,
      "ж": 375,
      "з": 376,
      "и": 377,
      "й": 378,
      "к": 379,
      "л": 380,
      "м": 381,
      "н": 382,
      "о": 383,
      "п": 384,
      "р": 385,
      "с": 386,
      "т": 387,
      "у": 388,
      "ф": 389,
      "х": 390,
      "ц": 391,
      "ч": 392,
      "ш": 393,
      "щ": 394,
      "ъ": 395,
      "ы": 396,
      "ь": 397,
      "э": 398,
      "ю": 399,
      "я": 400,
      "є": 401,
      "і": 402,
      "ғ": 403,
      "Қ": 404,
      "қ": 405,
      "ң": 406,
      "Ү": 407,
      "ү": 408,
      "ұ": 409,
      "ә": 410,
      "Ө": 411,
      "ө": 412,
      "֠": 413,
      "֦": 414,
      "ֹ": 415,
      "׃": 416,
      "،": 417,
      "آ": 418,
      "أ": 419,
      "إ": 420,
      "ا": 421,
      "ة": 422,
      "ت": 423,
      "ج": 424,
      "ح": 425,
      "د": 426,
      "ر": 427,
      "س": 428,
      "ق": 429,
      "ك": 430,
      "ل": 431,
      "م": 432,
      "ن": 433,
      "و": 434,
      "ي": 435,
      "ٓ": 436,
      "ٕ": 437,
      "ی": 438,
      "ँ": 439,
      "ं": 440,
      "ः": 441,
      "अ": 442,
      "आ": 443,
      "इ": 444,
      "ई": 445,
      "उ": 446,
      "ऊ": 447,
      "ऋ": 448,
      "ऌ": 449,
      "ऍ": 450,
      "ऎ": 451,
      "ए": 452,
      "ऐ": 453,
      "ऑ": 454,
      "ऒ": 455,
      "ओ": 456,
      "औ": 457,
      "क": 458,
      "ख": 459,
      "ग": 460,
      "घ": 461,
      "ङ": 462,
      "च": 463,
      "छ": 464,
      "ज": 465,
      "झ": 466,
      "ञ": 467,
      "ट": 468,
      "ठ": 469,
      "ड": 470,
      "ढ": 471,
      "ण": 472,
      "त": 473,
      "थ": 474,
      "द": 475,
      "ध": 476,
      "न": 477,
      "ऩ": 478,
      "प": 479,
      "फ": 480,
      "ब": 481,
      "भ": 482,
      "म": 483,
      "य": 484,
      "र": 485,
      "ऱ": 486,
      "ल": 487,
      "ळ": 488,
      "ऴ": 489,
      "व": 490,
      "श": 491,
      "ष": 492,
      "स": 493,
      "ह": 494,
      "़": 495,
      "ऽ": 496,
      "ा": 497,
      "ि": 498,
      "ी": 499,
      "ु": 500,
      "ू": 501,
      "ृ": 502,
      "ॄ": 503,
      "ॅ": 504,
      "ॆ": 505,
      "े": 506,
      "ै": 507,
      "ॉ": 508,
      "ॊ": 509,
      "ो": 510,
      "ौ": 511,
      "्": 512,
      "ॐ": 513,
      "॑": 514,
      "॒": 515,
      "॓": 516,
      "॔": 517,
      "क़": 518,
      "ख़": 519,
      "ग़": 520,
      "ज़": 521,
      "ड़": 522,
      "ढ़": 523,
      "फ़": 524,
      "य़": 525,
      "ॠ": 526,
      "ॡ": 527,
      "ॣ": 528,
      "।": 529,
      "॥": 530,
      "०": 531,
      "१": 532,
      "२": 533,
      "३": 534,
      "४": 535,
      "५": 536,
      "६": 537,
      "७": 538,
      "८": 539,
      "९": 540,
      "॰": 541,
      "ক": 542,
      "চ": 543,
      "ঠ": 544,
      "থ": 545,
      "দ": 546,
      "ন": 547,
      "ব": 548,
      "ভ": 549,
      "র": 550,
      "ষ": 551,
      "স": 552,
      "া": 553,
      "ী": 554,
      "ু": 555,
      "্": 556,
      "ਦ": 557,
      "ਲ": 558,
      "ਿ": 559,
      "ੀ": 560,
      "ੱ": 561,
      "પ": 562,
      "બ": 563,
      "ા": 564,
      "ુ": 565,
      "ḍ": 566,
      "ḥ": 567,
      "ḷ": 568,
      "ṁ": 569,
      "ṃ": 570,
      "ṅ": 571,
      "ṇ": 572,
      "Ṛ": 573,
      "ṛ": 574,
      "ṣ": 575,
      "ṭ": 576,
      "ẻ": 577,
      "ờ": 578,
      "ủ": 579,
      "​": 580,
      "‌": 581,
      "‍": 582,
      "‎": 583,
      "‏": 584,
      "‐": 585,
      "‑": 586,
      "–": 587,
      "—": 588,
      "―": 589,
      "‘": 590,
      "’": 591,
      "‚": 592,
      "“": 593,
      "”": 594,
      "„": 595,
      "†": 596,
      "‡": 597,
      "•": 598,
      "…": 599,
      "‰": 600,
      "′": 601,
      "⁰": 602,
      "⁴": 603,
      "⁵": 604,
      "⁶": 605,
      "⁷": 606,
      "⁻": 607,
      "₀": 608,
      "₁": 609,
      "₂": 610,
      "€": 611,
      "₹": 612,
      "™": 613,
      "⅓": 614,
      "⅔": 615,
      "⅕": 616,
      "⅖": 617,
      "⅗": 618,
      "⅘": 619,
      "⅙": 620,
      "←": 621,
      "→": 622,
      "⇒": 623,
      "∂": 624,
      "−": 625,
      "∕": 626,
      "√": 627,
      "∞": 628,
      "∣": 629,
      "∨": 630,
      "∶": 631,
      "≠": 632,
      "≤": 633,
      "≥": 634,
      "⋯": 635,
      "⌈": 636,
      "⌉": 637,
      "⌊": 638,
      "⌋": 639,
      "⌘": 640,
      "⏎": 641,
      "─": 642,
      "═": 643,
      "■": 644,
      "☺": 645,
      "☻": 646,
      "♪": 647,
      "♫": 648,
      "➣": 649,
      "、": 650,
      "。": 651,
      "あ": 652,
      "い": 653,
      "う": 654,
      "え": 655,
      "か": 656,
      "き": 657,
      "く": 658,
      "け": 659,
      "こ": 660,
      "さ": 661,
      "し": 662,
      "す": 663,
      "せ": 664,
      "そ": 665,
      "た": 666,
      "ち": 667,
      "っ": 668,
      "つ": 669,
      "て": 670,
      "と": 671,
      "な": 672,
      "に": 673,
      "の": 674,
      "は": 675,
      "ひ": 676,
      "へ": 677,
      "ま": 678,
      "み": 679,
      "め": 680,
      "も": 681,
      "よ": 682,
      "ら": 683,
      "り": 684,
      "る": 685,
      "れ": 686,
      "を": 687,
      "ん": 688,
      "゙": 689,
      "゚": 690,
      "ァ": 691,
      "ア": 692,
      "ィ": 693,
      "イ": 694,
      "ウ": 695,
      "エ": 696,
      "ォ": 697,
      "オ": 698,
      "カ": 699,
      "ク": 700,
      "コ": 701,
      "サ": 702,
      "シ": 703,
      "ス": 704,
      "タ": 705,
      "ッ": 706,
      "テ": 707,
      "ト": 708,
      "ニ": 709,
      "ネ": 710,
      "ハ": 711,
      "ヒ": 712,
      "フ": 713,
      "ヘ": 714,
      "ホ": 715,
      "マ": 716,
      "ム": 717,
      "メ": 718,
      "モ": 719,
      "ョ": 720,
      "ラ": 721,
      "リ": 722,
      "ル": 723,
      "レ": 724,
      "ロ": 725,
      "ワ": 726,
      "ン": 727,
      "ー": 728,
      "一": 729,
      "上": 730,
      "下": 731,
      "不": 732,
      "両": 733,
      "並": 734,
      "中": 735,
      "了": 736,
      "他": 737,
      "付": 738,
      "作": 739,
      "使": 740,
      "保": 741,
      "信": 742,
      "傭": 743,
      "優": 744,
      "元": 745,
      "先": 746,
      "入": 747,
      "全": 748,
      "共": 749,
      "内": 750,
      "再": 751,
      "出": 752,
      "分": 753,
      "切": 754,
      "利": 755,
      "削": 756,
      "前": 757,
      "力": 758,
      "加": 759,
      "動": 760,
      "化": 761,
      "匿": 762,
      "参": 763,
      "可": 764,
      "同": 765,
      "名": 766,
      "否": 767,
      "含": 768,
      "員": 769,
      "國": 770,
      "堀": 771,
      "報": 772,
      "境": 773,
      "変": 774,
      "外": 775,
      "大": 776,
      "失": 777,
      "妖": 778,
      "始": 779,
      "字": 780,
      "存": 781,
      "定": 782,
      "容": 783,
      "対": 784,
      "小": 785,
      "広": 786,
      "度": 787,
      "庸": 788,
      "当": 789,
      "待": 790,
      "後": 791,
      "従": 792,
      "必": 793,
      "悠": 794,
      "情": 795,
      "態": 796,
      "憂": 797,
      "成": 798,
      "戻": 799,
      "所": 800,
      "手": 801,
      "打": 802,
      "承": 803,
      "択": 804,
      "抹": 805,
      "拒": 806,
      "接": 807,
      "揺": 808,
      "擁": 809,
      "敗": 810,
      "数": 811,
      "断": 812,
      "新": 813,
      "方": 814,
      "既": 815,
      "明": 816,
      "時": 817,
      "曜": 818,
      "更": 819,
      "替": 820,
      "最": 821,
      "有": 822,
      "未": 823,
      "本": 824,
      "様": 825,
      "正": 826,
      "毎": 827,
      "求": 828,
      "洋": 829,
      "消": 830,
      "満": 831,
      "溶": 832,
      "漢": 833,
      "点": 834,
      "熔": 835,
      "版": 836,
      "状": 837,
      "環": 838,
      "用": 839,
      "由": 840,
      "病": 841,
      "登": 842,
      "直": 843,
      "知": 844,
      "短": 845,
      "確": 846,
      "示": 847,
      "秒": 848,
      "秦": 849,
      "細": 850,
      "終": 851,
      "続": 852,
      "編": 853,
      "置": 854,
      "羊": 855,
      "耀": 856,
      "者": 857,
      "能": 858,
      "脱": 859,
      "自": 860,
      "致": 861,
      "般": 862,
      "色": 863,
      "葉": 864,
      "行": 865,
      "表": 866,
      "複": 867,
      "要": 868,
      "見": 869,
      "規": 870,
      "覧": 871,
      "設": 872,
      "詳": 873,
      "認": 874,
      "謡": 875,
      "设": 876,
      "象": 877,
      "起": 878,
      "越": 879,
      "追": 880,
      "送": 881,
      "通": 882,
      "連": 883,
      "遥": 884,
      "選": 885,
      "重": 886,
      "録": 887,
      "開": 888,
      "関": 889,
      "除": 890,
      "集": 891,
      "離": 892,
      "順": 893,
      "預": 894,
      "째": 895,
      "": 896,
      "": 897,
      "": 898,
      "": 899,
      "": 900,
      "": 901,
      "ﬁ": 902,
      "ﬂ": 903,
      "﻿": 904,
      "：": 905,
      "？": 906,
      "￼": 907,
      "�": 908,
      "ं</w>": 909,
      "h</w>": 910,
      "a</w>": 911,
      "म</w>": 912,
      "ँ</w>": 913,
      "i</w>": 914,
      "ा</w>": 915,
      "त</w>": 916,
      "ो</w>": 917,
      "s</w>": 918,
      "n</w>": 919,
      "e</w>": 920,
      "8</w>": 921,
      "ल</w>": 922,
      "ी</w>": 923,
      "र</w>": 924,
      "क</w>": 925,
      "य</w>": 926,
      "६</w>": 927,
      "y</w>": 928,
      "े</w>": 929,
      "d</w>": 930,
      "ग</w>": 931,
      "़</w>": 932,
      "ह</w>": 933,
      "ण</w>": 934,
      "I</w>": 935,
      "g</w>": 936,
      "4</w>": 937,
      "च</w>": 938,
      "ड</w>": 939,
      "स</w>": 940,
      "ट</w>": 941,
      "P</w>": 942,
      "न</w>": 943,
      "0</w>": 944,
      "्</w>": 945,
      "ु</w>": 946,
      "थ</w>": 947,
      "ि</w>": 948,
      "व</w>": 949,
      "m</w>": 950,
      "A</w>": 951,
      "t</w>": 952,
      "r</w>": 953,
      "j</w>": 954,
      "w</w>": 955,
      "5</w>": 956,
      "M</w>": 957,
      "ू</w>": 958,
      "W</w>": 959,
      "D</w>": 960,
      "E</w>": 961,
      "ः</w>": 962,
      "ज</w>": 963,
      "ऋ</w>": 964,
      "7</w>": 965,
      "आ</w>": 966,
      "l</w>": 967,
      "9</w>": 968,
      "c</w>": 969,
      "ई</w>": 970,
      "o</w>": 971,
      "भ</w>": 972,
      "श</w>": 973,
      "प</w>": 974,
      "S</w>": 975,
      "L</w>": 976,
      "u</w>": 977,
      "1</w>": 978,
      "R</w>": 979,
      "%</w>": 980,
      "ञ</w>": 981,
      "Y</w>": 982,
      "6</w>": 983,
      "ए</w>": 984,
      ".</w>": 985,
      "फ</w>": 986,
      "ब</w>": 987,
      "ध</w>": 988,
      "b</w>": 989,
      "ष</w>": 990,
      "द</w>": 991,
      "C</w>": 992,
      "उ</w>": 993,
      "p</w>": 994,
      "2</w>": 995,
      "ओ</w>": 996,
      "q</w>": 997,
      "â</w>": 998,
      "H</w>": 999,
      "ख</w>": 1000,
      "k</w>": 1001,
      "ю</w>": 1002,
      "२</w>": 1003,
      "३</w>": 1004,
      "z</w>": 1005,
      "X</w>": 1006,
      "3</w>": 1007,
      "U</w>": 1008,
      "x</w>": 1009,
      "T</w>": 1010,
      "'</w>": 1011,
      "K</w>": 1012,
      "N</w>": 1013,
      "J</w>": 1014,
      "̂</w>": 1015,
      "ठ</w>": 1016,
      "७</w>": 1017,
      "ä</w>": 1018,
      "८</w>": 1019,
      "f</w>": 1020,
      "и</w>": 1021,
      "?</w>": 1022,
      "O</w>": 1023,
      "०</w>": 1024,
      "v</w>": 1025,
      "G</w>": 1026,
      "/</w>": 1027,
      "V</w>": 1028,
      "अ</w>": 1029,
      "é</w>": 1030,
      ",</w>": 1031,
      "४</w>": 1032,
      "ة</w>": 1033,
      "Ś</w>": 1034,
      "ृ</w>": 1035,
      "ै</w>": 1036,
      "(</w>": 1037,
      "घ</w>": 1038,
      "इ</w>": 1039,
      "९</w>": 1040,
      "º</w>": 1041,
      "ţ</w>": 1042,
      "ढ</w>": 1043,
      "⅘</w>": 1044,
      "—</w>": 1045,
      "५</w>": 1046,
      "у</w>": 1047,
      "ł</w>": 1048,
      ")</w>": 1049,
      "छ</w>": 1050,
      "ॅ</w>": 1051,
      "°</w>": 1052,
      "т</w>": 1053,
      "\"</w>": 1054,
      "え</w>": 1055,
      "ऍ</w>": 1056,
      "झ</w>": 1057,
      "з</w>": 1058,
      "औ</w>": 1059,
      "⁴</w>": 1060,
      "ङ</w>": 1061,
      "B</w>": 1062,
      "F</w>": 1063,
      "Ł</w>": 1064,
      "ऊ</w>": 1065,
      "̆</w>": 1066,
      "फ़</w>": 1067,
      "́</w>": 1068,
      "ड़</w>": 1069,
      "१</w>": 1070,
      "Ö</w>": 1071,
      "ç</w>": 1072,
      "ŏ</w>": 1073,
      "ज़</w>": 1074,
      "ॉ</w>": 1075,
      "н</w>": 1076,
      "字</w>": 1077,
      "：</w>": 1078,
      "Q</w>": 1079,
      "ë</w>": 1080,
      "м</w>": 1081,
      "*</w>": 1082,
      "い</w>": 1083,
      "б</w>": 1084,
      ":</w>": 1085,
      "ॆ</w>": 1086,
      "š</w>": 1087,
      "ü</w>": 1088,
      "م</w>": 1089,
      "я</w>": 1090,
      "ळ</w>": 1091,
      "ḥ</w>": 1092,
      "Ň</w>": 1093,
      "ौ</w>": 1094,
      ";</w>": 1095,
      "’</w>": 1096,
      "゙</w>": 1097,
      "′</w>": 1098,
      "ऐ</w>": 1099,
      "।</w>": 1100,
      "ú</w>": 1101,
      "Z</w>": 1102,
      "-</w>": 1103,
      "̌</w>": 1104,
      "É</w>": 1105,
      "[</w>": 1106,
      "॔</w>": 1107,
      "&</w>": 1108,
      "·</w>": 1109,
      "є</w>": 1110,
      "~</w>": 1111,
      "</w>": 1112,
      "ê</w>": 1113,
      "ト</w>": 1114,
      "ū</w>": 1115,
      "©</w>": 1116,
      "<</w>": 1117,
      "і</w>": 1118,
      "–</w>": 1119,
      "更</w>": 1120,
      "></w>": 1121,
      "г</w>": 1122,
      "}</w>": 1123,
      "ढ़</w>": 1124,
      "@</w>": 1125,
      "</w>": 1126,
      "е</w>": 1127,
      "ě</w>": 1128,
      "]</w>": 1129,
      "¼</w>": 1130,
      "•</w>": 1131,
      "{</w>": 1132,
      "‰</w>": 1133,
      "‘</w>": 1134,
      "集</w>": 1135,
      "п</w>": 1136,
      "̨</w>": 1137,
      "ĺ</w>": 1138,
      "”</w>": 1139,
      "+</w>": 1140,
      "​</w>": 1141,
      "о</w>": 1142,
      "²</w>": 1143,
      "</w>": 1144,
      "а</w>": 1145,
      "﻿</w>": 1146,
      "¦</w>": 1147,
      "с</w>": 1148,
      "ş</w>": 1149,
      "⌘</w>": 1150,
      "‡</w>": 1151,
      "ы</w>": 1152,
      "ā</w>": 1153,
      "示</w>": 1154,
      "‍</w>": 1155,
      "р</w>": 1156,
      "⌋</w>": 1157,
      "|</w>": 1158,
      "к</w>": 1159,
      "た</w>": 1160,
      "₂</w>": 1161,
      "</w>": 1162,
      "!</w>": 1163,
      "ʼ</w>": 1164,
      "“</w>": 1165,
      "ь</w>": 1166,
      "æ</w>": 1167,
      "\\</w>": 1168,
      "す</w>": 1169,
      "#</w>": 1170,
      "ò</w>": 1171,
      "ॊ</w>": 1172,
      "ň</w>": 1173,
      "л</w>": 1174,
      "∂</w>": 1175,
      "å</w>": 1176,
      "</w>": 1177,
      "π</w>": 1178,
      "à</w>": 1179,
      "て</w>": 1180,
      "能</w>": 1181,
      "➣</w>": 1182,
      "</w>": 1183,
      "￼</w>": 1184,
      "₹</w>": 1185,
      "ž</w>": 1186,
      "С</w>": 1187,
      "˚</w>": 1188,
      "ą</w>": 1189,
      "Â</w>": 1190,
      "る</w>": 1191,
      "ン</w>": 1192,
      "¡</w>": 1193,
      "ο</w>": 1194,
      "と</w>": 1195,
      "ऽ</w>": 1196,
      "क़</w>": 1197,
      "</w>": 1198,
      "½</w>": 1199,
      "=</w>": 1200,
      "в</w>": 1201,
      "З</w>": 1202,
      "秦</w>": 1203,
      "í</w>": 1204,
      "ō</w>": 1205,
      "»</w>": 1206,
      "♪</w>": 1207,
      "Ã</w>": 1208,
      "ı</w>": 1209,
      "Ç</w>": 1210,
      "ऑ</w>": 1211,
      "ॡ</w>": 1212,
      "か</w>": 1213,
      "゚</w>": 1214,
      "？</w>": 1215,
      "ẻ</w>": 1216,
      "á</w>": 1217,
      "`</w>": 1218,
      "д</w>": 1219,
      "☻</w>": 1220,
      "名</w>": 1221,
      "ğ</w>": 1222,
      "Ę</w>": 1223,
      "ス</w>": 1224,
      "̇</w>": 1225,
      "ル</w>": 1226,
      "¯</w>": 1227,
      "째</w>": 1228,
      "Ć</w>": 1229,
      "⁶</w>": 1230,
      "қ</w>": 1231,
      "♫</w>": 1232,
      "ľ</w>": 1233,
      "み</w>": 1234,
      "‏</w>": 1235,
      "⅖</w>": 1236,
      "け</w>": 1237,
      "ŕ</w>": 1238,
      "存</w>": 1239,
      "に</w>": 1240,
      "く</w>": 1241,
      "∨</w>": 1242,
      "Π</w>": 1243,
      "ó</w>": 1244,
      "Ľ</w>": 1245,
      "´</w>": 1246,
      "ă</w>": 1247,
      "Ā</w>": 1248,
      "¤</w>": 1249,
      "«</w>": 1250,
      "˘</w>": 1251,
      "̊</w>": 1252,
      "⌈</w>": 1253,
      "作</w>": 1254,
      "ख़</w>": 1255,
      "∕</w>": 1256,
      "य़</w>": 1257,
      "悠</w>": 1258,
      "¾</w>": 1259,
      "⇒</w>": 1260,
      "⁷</w>": 1261,
      "¢</w>": 1262,
      "±</w>": 1263,
      "č</w>": 1264,
      "ī</w>": 1265,
      "ऱ</w>": 1266,
      "動</w>": 1267,
      "ŭ</w>": 1268,
      "</w>": 1269,
      "̈</w>": 1270,
      "ң</w>": 1271,
      "§</w>": 1272,
      "</w>": 1273,
      "ऴ</w>": 1274,
      "ć</w>": 1275,
      "¶</w>": 1276,
      "€</w>": 1277,
      "₁</w>": 1278,
      "⅗</w>": 1279,
      "ә</w>": 1280,
      "॒</w>": 1281,
      "ч</w>": 1282,
      "ー</w>": 1283,
      "択</w>": 1284,
      "</w>": 1285,
      ";</w>": 1286,
      "­</w>": 1287,
      "ऒ</w>": 1288,
      "¬</w>": 1289,
      "̧</w>": 1290,
      "☺</w>": 1291,
      "³</w>": 1292,
      "加</w>": 1293,
      "</w>": 1294,
      "ん</w>": 1295,
      "…</w>": 1296,
      "ő</w>": 1297,
      "∣</w>": 1298,
      "β</w>": 1299,
      "ż</w>": 1300,
      "ら</w>": 1301,
      "μ</w>": 1302,
      "ऎ</w>": 1303,
      "̀</w>": 1304,
      "̄</w>": 1305,
      "Β</w>": 1306,
      "õ</w>": 1307,
      "$</w>": 1308,
      "µ</w>": 1309,
      "</w>": 1310,
      "র</w>": 1311,
      "ė</w>": 1312,
      "ψ</w>": 1313,
      "˙</w>": 1314,
      "è</w>": 1315,
      "ý</w>": 1316,
      "х</w>": 1317,
      "‚</w>": 1318,
      "√</w>": 1319,
      "Ž</w>": 1320,
      "Î</w>": 1321,
      "ö</w>": 1322,
      "</w>": 1323,
      "щ</w>": 1324,
      "Θ</w>": 1325,
      "Ч</w>": 1326,
      "</w>": 1327,
      "も</w>": 1328,
      "Т</w>": 1329,
      "ï</w>": 1330,
      "ů</w>": 1331,
      "Д</w>": 1332,
      "</w>": 1333,
      "⌊</w>": 1334,
      "Ě</w>": 1335,
      "続</w>": 1336,
      "、</w>": 1337,
      "Ү</w>": 1338,
      "¹</w>": 1339,
      "</w>": 1340,
      "֦</w>": 1341,
      "¨</w>": 1342,
      "£</w>": 1343,
      "へ</w>": 1344,
      "ñ</w>": 1345,
      "ુ</w>": 1346,
      "</w>": 1347,
      "ã</w>": 1348,
      "ア</w>": 1349,
      "�</w>": 1350,
      "Ó</w>": 1351,
      "α</w>": 1352,
      "−</w>": 1353,
      "†</w>": 1354,
      "ń</w>": 1355,
      "®</w>": 1356,
      "¥</w>": 1357,
      "ǆ</w>": 1358,
      "\u001b</w>": 1359,
      "報</w>": 1360,
      "</w>": 1361,
      "な</w>": 1362,
      "ی</w>": 1363,
      "ē</w>": 1364,
      "⁵</w>": 1365,
      "成</w>": 1366,
      "方</w>": 1367,
      "國</w>": 1368,
      "</w>": 1369,
      "॑</w>": 1370,
      "態</w>": 1371,
      "敗</w>": 1372,
      "定</w>": 1373,
      "</w>": 1374,
      "し</w>": 1375,
      "う</w>": 1376,
      "ṣ</w>": 1377,
      "„</w>": 1378,
      "ę</w>": 1379,
      "‌</w>": 1380,
      "≤</w>": 1381,
      "ج</w>": 1382,
      "堀</w>": 1383,
      "ষ</w>": 1384,
      "ļ</w>": 1385,
      "ل</w>": 1386,
      "―</w>": 1387,
      "‑</w>": 1388,
      "</w>": 1389,
      "ủ</w>": 1390,
      "Ř</w>": 1391,
      "ø</w>": 1392,
      "\u0014</w>": 1393,
      "⅙</w>": 1394,
      "⅓</w>": 1395,
      "Ă</w>": 1396,
      "ن</w>": 1397,
      "∶</w>": 1398,
      "Å</w>": 1399,
      "τ</w>": 1400,
      "ώ</w>": 1401,
      "</w>": 1402,
      "</w>": 1403,
      "ж</w>": 1404,
      "</w>": 1405,
      "॥</w>": 1406,
      "ц</w>": 1407,
      "</w>": 1408,
      "॰</w>": 1409,
      "ĭ</w>": 1410,
      "ḷ</w>": 1411,
      "÷</w>": 1412,
      "明</w>": 1413,
      "Ô</w>": 1414,
      "θ</w>": 1415,
      "ग़</w>": 1416,
      "ː</w>": 1417,
      "Ω</w>": 1418,
      "×</w>": 1419,
      "׃</w>": 1420,
      "¸</w>": 1421,
      "ß</w>": 1422,
      "預</w>": 1423,
      "⌉</w>": 1424,
      "™</w>": 1425,
      "</w>": 1426,
      "ク</w>": 1427,
      "Λ</w>": 1428,
      "ř</w>": 1429,
      "ॠ</w>": 1430,
      "₀</w>": 1431,
      "</w>": 1432,
      "η</w>": 1433,
      "■</w>": 1434,
      "⅔</w>": 1435,
      "Ä</w>": 1436,
      "─</w>": 1437,
      "‐</w>": 1438,
      "可</w>": 1439,
      "</w>": 1440,
      "Ê</w>": 1441,
      "</w>": 1442,
      "Ü</w>": 1443,
      "⁰</w>": 1444,
      "ų</w>": 1445,
      "‎</w>": 1446,
      "Č</w>": 1447,
      "ṇ</w>": 1448,
      "˛</w>": 1449,
      "˝</w>": 1450,
      "φ</w>": 1451,
      "者</w>": 1452,
      "Ş</w>": 1453,
      "ੀ</w>": 1454,
      "つ</w>": 1455,
      "^</w>": 1456,
      "∞</w>": 1457,
      "。</w>": 1458,
      "й</w>": 1459,
      "॓</w>": 1460,
      "ち</w>": 1461,
      "ֹ</w>": 1462,
      "般</w>": 1463,
      "ź</w>": 1464,
      "他</w>": 1465,
      "ṃ</w>": 1466,
      "認</w>": 1467,
      "˜</w>": 1468,
      "ì</w>": 1469,
      "γ</w>": 1470,
      "数</w>": 1471,
      "þ</w>": 1472,
      "⋯</w>": 1473,
      "κ</w>": 1474,
      "←</w>": 1475,
      "ت</w>": 1476,
      "ν</w>": 1477,
      "</w>": 1478,
      "ɓ</w>": 1479,
      "≠</w>": 1480,
      "থ</w>": 1481,
      "</w>": 1482,
      "═</w>": 1483,
      "_</w>": 1484,
      "Δ</w>": 1485,
      "ª</w>": 1486,
      "度</w>": 1487,
      "</w>": 1488,
      "Š</w>": 1489,
      "ô</w>": 1490,
      "前</w>": 1491,
      "ム</w>": 1492,
      "ˇ</w>": 1493,
      "ু</w>": 1494,
      "设</w>": 1495,
      "ॐ</w>": 1496,
      "</w>": 1497,
      "¿</w>": 1498,
      "İ</w>": 1499,
      "س</w>": 1500,
      "</w>": 1501,
      "→</w>": 1502,
      "œ</w>": 1503,
      "≥</w>": 1504,
      "</w>": 1505,
      "ऌ</w>": 1506,
      "⏎</w>": 1507,
      "消</w>": 1508,
      "否</w>": 1509,
      "新</w>": 1510,
      "ω</w>": 1511,
      "،</w>": 1512,
      "⅕</w>": 1513,
      "λ</w>": 1514,
      "В</w>": 1515,
      "th": 1516,
      "an": 1517,
      "in": 1518,
      "the</w>": 1519,
      "के</w>": 1520,
      "्र": 1521,
      "er": 1522,
      "ें</w>": 1523,
      "ti": 1524,
      "en": 1525,
      "of</w>": 1526,
      "re": 1527,
      "है</w>": 1528,
      "ar": 1529,
      "र्": 1530,
      "ed</w>": 1531,
      "ने</w>": 1532,
      "में</w>": 1533,
      "and</w>": 1534,
      "on": 1535,
      "ों</w>": 1536,
      "on</w>": 1537,
      "ou": 1538,
      "की</w>": 1539,
      "और</w>": 1540,
      "or": 1541,
      "से</w>": 1542,
      "ार": 1543,
      "to</w>": 1544,
      "या</w>": 1545,
      "er</w>": 1546,
      "is</w>": 1547,
      "स्": 1548,
      "ing</w>": 1549,
      "प्र": 1550,
      "in</w>": 1551,
      "al": 1552,
      "it": 1553,
      "क्": 1554,
      "es</w>": 1555,
      "at": 1556,
      "ता</w>": 1557,
      "का</w>": 1558,
      "st": 1559,
      "कर": 1560,
      "ro": 1561,
      "or</w>": 1562,
      "को</w>": 1563,
      "ha": 1564,
      "वि": 1565,
      "न्": 1566,
      "का": 1567,
      "मा": 1568,
      "वा": 1569,
      "त्": 1570,
      "नि": 1571,
      "il": 1572,
      "लि": 1573,
      "the": 1574,
      "el": 1575,
      "tion</w>": 1576,
      "ic": 1577,
      "is": 1578,
      "al</w>": 1579,
      "कि": 1580,
      "ec": 1581,
      "ना</w>": 1582,
      "ac": 1583,
      "या": 1584,
      "es": 1585,
      "om": 1586,
      "at</w>": 1587,
      "जा": 1588,
      "सं": 1589,
      "wh": 1590,
      "रा": 1591,
      "सा": 1592,
      "कि</w>": 1593,
      "Th": 1594,
      "ent</w>": 1595,
      "ैं</w>": 1596,
      "ve</w>": 1597,
      "as": 1598,
      "an</w>": 1599,
      "ur": 1600,
      "en</w>": 1601,
      "ते</w>": 1602,
      "no": 1603,
      "as</w>": 1604,
      "di": 1605,
      "द्": 1606,
      "ला": 1607,
      "पर</w>": 1608,
      "हैं</w>": 1609,
      "दे": 1610,
      "हो": 1611,
      "la": 1612,
      "ित</w>": 1613,
      "लिए</w>": 1614,
      "si": 1615,
      "for</w>": 1616,
      "le</w>": 1617,
      "ri": 1618,
      "तु": 1619,
      "ीं</w>": 1620,
      "बा": 1621,
      "भी</w>": 1622,
      "ra": 1623,
      "कर</w>": 1624,
      "ly</w>": 1625,
      "li": 1626,
      "un": 1627,
      "दि": 1628,
      "ति</w>": 1629,
      "ना": 1630,
      "एक</w>": 1631,
      "ही</w>": 1632,
      "ou</w>": 1633,
      "that</w>": 1634,
      "ev": 1635,
      "हा": 1636,
      "em": 1637,
      "se</w>": 1638,
      "हीं</w>": 1639,
      "क्ष": 1640,
      "पा": 1641,
      "ma": 1642,
      "ल्": 1643,
      "अप": 1644,
      "जि": 1645,
      "था</w>": 1646,
      "तो</w>": 1647,
      "am": 1648,
      "ड़": 1649,
      "lo": 1650,
      "pro": 1651,
      "नहीं</w>": 1652,
      "ति": 1653,
      "ष्": 1654,
      "su": 1655,
      "हु": 1656,
      "सम": 1657,
      "et": 1658,
      "you</w>": 1659,
      "ol": 1660,
      "ab": 1661,
      "it</w>": 1662,
      "जो</w>": 1663,
      "ता": 1664,
      "be</w>": 1665,
      "सी</w>": 1666,
      "यो": 1667,
      "The</w>": 1668,
      "are</w>": 1669,
      "op": 1670,
      "रि": 1671,
      "ती</w>": 1672,
      "sh": 1673,
      "्य": 1674,
      "con": 1675,
      "not</w>": 1676,
      "चा": 1677,
      "हो</w>": 1678,
      "ce</w>": 1679,
      "उन": 1680,
      "ले</w>": 1681,
      "लो": 1682,
      "ea": 1683,
      "ent": 1684,
      "ation</w>": 1685,
      "नी</w>": 1686,
      "ag": 1687,
      "ith</w>": 1688,
      "उस": 1689,
      "com": 1690,
      "ch": 1691,
      "ers</w>": 1692,
      "म्": 1693,
      "यों</w>": 1694,
      "मु": 1695,
      "दा": 1696,
      "श्": 1697,
      "tion": 1698,
      "मि": 1699,
      "with</w>": 1700,
      "ere</w>": 1701,
      "भा": 1702,
      "किया</w>": 1703,
      "be": 1704,
      "ज़": 1705,
      "for": 1706,
      "all</w>": 1707,
      "In": 1708,
      "ex": 1709,
      "रह": 1710,
      "यह</w>": 1711,
      "po": 1712,
      "st</w>": 1713,
      "id": 1714,
      "कु": 1715,
      "ay</w>": 1716,
      "gh": 1717,
      "धि": 1718,
      "by</w>": 1719,
      "our</w>": 1720,
      "दा</w>": 1721,
      "oun": 1722,
      "ver": 1723,
      "को": 1724,
      "इस</w>": 1725,
      "पू": 1726,
      "ill</w>": 1727,
      "ला</w>": 1728,
      "res": 1729,
      "त्र": 1730,
      "ले": 1731,
      "स्थ": 1732,
      "ment</w>": 1733,
      "rom</w>": 1734,
      "वह</w>": 1735,
      "ad": 1736,
      "ir": 1737,
      "ate</w>": 1738,
      "ंग": 1739,
      "ारा</w>": 1740,
      "have</w>": 1741,
      "हि": 1742,
      "from</w>": 1743,
      "they</w>": 1744,
      "pl": 1745,
      "कार</w>": 1746,
      "रू": 1747,
      "was</w>": 1748,
      "करने</w>": 1749,
      "ये</w>": 1750,
      "de": 1751,
      "ीय</w>": 1752,
      "tr": 1753,
      "ul": 1754,
      "ity</w>": 1755,
      "th</w>": 1756,
      "ली</w>": 1757,
      "ther</w>": 1758,
      "will</w>": 1759,
      "ir</w>": 1760,
      "ारी</w>": 1761,
      "नु": 1762,
      "गा</w>": 1763,
      "ld</w>": 1764,
      "सि": 1765,
      "ts</w>": 1766,
      "हम": 1767,
      "ज्": 1768,
      "सक": 1769,
      "bu": 1770,
      "them</w>": 1771,
      "oo": 1772,
      "hi": 1773,
      "se": 1774,
      "this</w>": 1775,
      "तर": 1776,
      "इस": 1777,
      "ta": 1778,
      "Al": 1779,
      "ख़": 1780,
      "ds</w>": 1781,
      "वर्": 1782,
      "ci": 1783,
      "मे": 1784,
      "ारे</w>": 1785,
      "du": 1786,
      "ear": 1787,
      "अपने</w>": 1788,
      "qu": 1789,
      "ich</w>": 1790,
      "per": 1791,
      "शा": 1792,
      "has</w>": 1793,
      "सु": 1794,
      "one</w>": 1795,
      "री</w>": 1796,
      "wor": 1797,
      "त्र</w>": 1798,
      "ap": 1799,
      "अधि": 1800,
      "ष्ट": 1801,
      "which</w>": 1802,
      "ted</w>": 1803,
      "उन्": 1804,
      "उप": 1805,
      "ff": 1806,
      "sp": 1807,
      "mo": 1808,
      "who</w>": 1809,
      "धा": 1810,
      "सू": 1811,
      "भार": 1812,
      "gi": 1813,
      "do": 1814,
      "me</w>": 1815,
      "क़": 1816,
      "ने": 1817,
      "their</w>": 1818,
      "An": 1819,
      "sa": 1820,
      "ould</w>": 1821,
      "च्": 1822,
      "शि": 1823,
      "क्र": 1824,
      "ter</w>": 1825,
      "et</w>": 1826,
      "प्": 1827,
      "नों</w>": 1828,
      "वे</w>": 1829,
      "अनु": 1830,
      "तुम</w>": 1831,
      "his</w>": 1832,
      "कह": 1833,
      "im": 1834,
      "Indi": 1835,
      "ter": 1836,
      "tions</w>": 1837,
      "us": 1838,
      "ch</w>": 1839,
      "ess</w>": 1840,
      "गा": 1841,
      "so</w>": 1842,
      "पु": 1843,
      "ke</w>": 1844,
      "ure</w>": 1845,
      "he</w>": 1846,
      "गया</w>": 1847,
      "He</w>": 1848,
      "any</w>": 1849,
      "ओं</w>": 1850,
      "फ़": 1851,
      "निर्": 1852,
      "सर": 1853,
      "कुछ</w>": 1854,
      "par": 1855,
      "ght</w>": 1856,
      "ge</w>": 1857,
      "दी</w>": 1858,
      "तथा</w>": 1859,
      "20": 1860,
      "परि": 1861,
      "वे": 1862,
      "out</w>": 1863,
      "हें</w>": 1864,
      "id</w>": 1865,
      "किसी</w>": 1866,
      "तुम्": 1867,
      "der</w>": 1868,
      "de</w>": 1869,
      "फि": 1870,
      "pe": 1871,
      "str": 1872,
      "सा</w>": 1873,
      "जा</w>": 1874,
      "के": 1875,
      "ing": 1876,
      "प्रा": 1877,
      "le": 1878,
      "19": 1879,
      "पर": 1880,
      "कार्": 1881,
      "पूर्": 1882,
      "व्य": 1883,
      "गों</w>": 1884,
      "ne": 1885,
      "lah</w>": 1886,
      "रूप</w>": 1887,
      "हम</w>": 1888,
      "Allah</w>": 1889,
      "द्व": 1890,
      "साथ</w>": 1891,
      "खा": 1892,
      "रो": 1893,
      "ीन</w>": 1894,
      "Go": 1895,
      "rec": 1896,
      "ess": 1897,
      "um": 1898,
      "कोई</w>": 1899,
      "स्था": 1900,
      "And</w>": 1901,
      "कृ": 1902,
      "to": 1903,
      "मान</w>": 1904,
      "por": 1905,
      "We</w>": 1906,
      "तक</w>": 1907,
      "उनके</w>": 1908,
      "बं": 1909,
      "ated</w>": 1910,
      "dis": 1911,
      "ग्र": 1912,
      "कार": 1913,
      "थे</w>": 1914,
      "जिस": 1915,
      "द्वारा</w>": 1916,
      "ुदा</w>": 1917,
      "ose</w>": 1918,
      "hat</w>": 1919,
      "au": 1920,
      "अं": 1921,
      "ance</w>": 1922,
      "वा</w>": 1923,
      "लोगों</w>": 1924,
      "ame</w>": 1925,
      "able</w>": 1926,
      "your</w>": 1927,
      "करते</w>": 1928,
      "its</w>": 1929,
      "दू": 1930,
      "देश</w>": 1931,
      "जब</w>": 1932,
      "्य</w>": 1933,
      "us</w>": 1934,
      "eli": 1935,
      "fi": 1936,
      "लोग</w>": 1937,
      "ant</w>": 1938,
      "दिया</w>": 1939,
      "ब्": 1940,
      "राष्ट": 1941,
      "ous</w>": 1942,
      "gu": 1943,
      "me": 1944,
      "India</w>": 1945,
      "our": 1946,
      "ep": 1947,
      "भारत</w>": 1948,
      "ding</w>": 1949,
      "पह": 1950,
      "ence</w>": 1951,
      "जी": 1952,
      "tu": 1953,
      "से": 1954,
      "स्व": 1955,
      "सी": 1956,
      "रख": 1957,
      "गु": 1958,
      "स्त": 1959,
      "age</w>": 1960,
      "योग</w>": 1961,
      "अल्": 1962,
      "िक</w>": 1963,
      "wn</w>": 1964,
      "यु": 1965,
      "रा</w>": 1966,
      "red</w>": 1967,
      "लाह</w>": 1968,
      "ear</w>": 1969,
      "्या": 1970,
      "est</w>": 1971,
      "ंग</w>": 1972,
      "but</w>": 1973,
      "फिर</w>": 1974,
      "तुम्ह": 1975,
      "cl": 1976,
      "क्या</w>": 1977,
      "other</w>": 1978,
      "गी</w>": 1979,
      "क्त</w>": 1980,
      "बे": 1981,
      "sec": 1982,
      "ar</w>": 1983,
      "राष्ट्र": 1984,
      "रे</w>": 1985,
      "उत्": 1986,
      "pu": 1987,
      "भि": 1988,
      "vi": 1989,
      "बि": 1990,
      "ents</w>": 1991,
      "we</w>": 1992,
      "अल्लाह</w>": 1993,
      "जाता</w>": 1994,
      "ख़ुदा</w>": 1995,
      "उसके</w>": 1996,
      "उस</w>": 1997,
      "ंने</w>": 1998,
      "been</w>": 1999,
      "प्रति": 2000,
      "चि": 2001,
      "sel": 2002,
      "अव": 2003,
      "kno": 2004,
      "मं": 2005,
      "अपनी</w>": 2006,
      "coun": 2007,
      "करें</w>": 2008,
      "ंगे</w>": 2009,
      "ome</w>": 2010,
      "थी</w>": 2011,
      "ary</w>": 2012,
      "do</w>": 2013,
      "ople</w>": 2014,
      "bo": 2015,
      "नी": 2016,
      "so": 2017,
      "were</w>": 2018,
      "बना": 2019,
      "ay": 2020,
      "कहा</w>": 2021,
      "करना</w>": 2022,
      "अन्": 2023,
      "ect</w>": 2024,
      "डि": 2025,
      "had</w>": 2026,
      "ho": 2027,
      "cre": 2028,
      "श्र": 2029,
      "जी</w>": 2030,
      "rou": 2031,
      "निय": 2032,
      "लों</w>": 2033,
      "gh</w>": 2034,
      "duc": 2035,
      "ज्ञ": 2036,
      "him</w>": 2037,
      "ong</w>": 2038,
      "बहु": 2039,
      "दु": 2040,
      "मू": 2041,
      "those</w>": 2042,
      "ore</w>": 2043,
      "ver</w>": 2044,
      "can</w>": 2045,
      "गर</w>": 2046,
      "ज़</w>": 2047,
      "der": 2048,
      "बी": 2049,
      "war": 2050,
      "दि</w>": 2051,
      "क्षे": 2052,
      "ty</w>": 2053,
      "co": 2054,
      "It</w>": 2055,
      "मैं</w>": 2056,
      "said</w>": 2057,
      "people</w>": 2058,
      "min": 2059,
      "रहे</w>": 2060,
      "ढ़": 2061,
      "tic": 2062,
      "pre": 2063,
      "ally</w>": 2064,
      "मान": 2065,
      "beli": 2066,
      "वाले</w>": 2067,
      "fu": 2068,
      "go": 2069,
      "tive</w>": 2070,
      "when</w>": 2071,
      "हुए</w>": 2072,
      "and": 2073,
      "tional</w>": 2074,
      "ey</w>": 2075,
      "shall</w>": 2076,
      "योज": 2077,
      "pres": 2078,
      "est": 2079,
      "गे</w>": 2080,
      "क्ति</w>": 2081,
      "चु": 2082,
      "ord</w>": 2083,
      "ever</w>": 2084,
      "king</w>": 2085,
      "दो": 2086,
      "उन्हें</w>": 2087,
      "प्त</w>": 2088,
      "करता</w>": 2089,
      "च्छ": 2090,
      "उन</w>": 2091,
      "end": 2092,
      "ni": 2093,
      "रु": 2094,
      "ish": 2095,
      "pr": 2096,
      "ace</w>": 2097,
      "जाए": 2098,
      "होता</w>": 2099,
      "we": 2100,
      "धार": 2101,
      "ties</w>": 2102,
      "ser": 2103,
      "दर्": 2104,
      "ves</w>": 2105,
      "ings</w>": 2106,
      "fa": 2107,
      "बड़": 2108,
      "देख": 2109,
      "ru": 2110,
      "comm": 2111,
      "रहा</w>": 2112,
      "मा</w>": 2113,
      "होंने</w>": 2114,
      "sion</w>": 2115,
      "ist": 2116,
      "if</w>": 2117,
      "ting</w>": 2118,
      "also</w>": 2119,
      "ड़</w>": 2120,
      "उसे</w>": 2121,
      "तर</w>": 2122,
      "हर</w>": 2123,
      "कों</w>": 2124,
      "what</w>": 2125,
      "वर": 2126,
      "ase</w>": 2127,
      "आप</w>": 2128,
      "सकता</w>": 2129,
      "God</w>": 2130,
      "mu": 2131,
      "Wh": 2132,
      "आप": 2133,
      "पै": 2134,
      "ice</w>": 2135,
      "शन</w>": 2136,
      "पी": 2137,
      "sti": 2138,
      "दो</w>": 2139,
      "har": 2140,
      "गि": 2141,
      "क्षा</w>": 2142,
      "र्थ": 2143,
      "ज्ञा": 2144,
      "In</w>": 2145,
      "cont": 2146,
      "prov": 2147,
      "डा": 2148,
      "201": 2149,
      "बु": 2150,
      "tur": 2151,
      "जै": 2152,
      "there</w>": 2153,
      "ine</w>": 2154,
      "तु</w>": 2155,
      "धि</w>": 2156,
      "टी</w>": 2157,
      "समय</w>": 2158,
      "मो": 2159,
      "बहुत</w>": 2160,
      "द्र": 2161,
      "ks</w>": 2162,
      "बाद</w>": 2163,
      "रे": 2164,
      "कर्": 2165,
      "led</w>": 2166,
      "This</w>": 2167,
      "ile</w>": 2168,
      "ig": 2169,
      "ष्ट</w>": 2170,
      "Lord</w>": 2171,
      "day</w>": 2172,
      "इन</w>": 2173,
      "tw": 2174,
      "ud": 2175,
      "te": 2176,
      "may</w>": 2177,
      "ood</w>": 2178,
      "शु": 2179,
      "ber</w>": 2180,
      "no</w>": 2181,
      "il</w>": 2182,
      "मह": 2183,
      "री": 2184,
      "सूच": 2185,
      "ell</w>": 2186,
      "भू": 2187,
      "दान</w>": 2188,
      "oc": 2189,
      "तों</w>": 2190,
      "टा": 2191,
      "up": 2192,
      "ang": 2193,
      "टि": 2194,
      "ast</w>": 2195,
      "eng": 2196,
      "हू": 2197,
      "तीय</w>": 2198,
      "त्य": 2199,
      "बै": 2200,
      "ons</w>": 2201,
      "पति</w>": 2202,
      "vern": 2203,
      "शे": 2204,
      "वन</w>": 2205,
      "ement</w>": 2206,
      "ory</w>": 2207,
      "ass": 2208,
      "way</w>": 2209,
      "बंध": 2210,
      "ut</w>": 2211,
      "ans": 2212,
      "तरह</w>": 2213,
      "मी</w>": 2214,
      "00</w>": 2215,
      "विश्": 2216,
      "fore</w>": 2217,
      "tra": 2218,
      "कारी</w>": 2219,
      "pa": 2220,
      "राज": 2221,
      "पास</w>": 2222,
      "ख्": 2223,
      "समा": 2224,
      "only</w>": 2225,
      "gra": 2226,
      "उन्होंने</w>": 2227,
      "अधिक</w>": 2228,
      "चाह": 2229,
      "fter</w>": 2230,
      "बात</w>": 2231,
      "हुआ</w>": 2232,
      "time</w>": 2233,
      "ic</w>": 2234,
      "fin": 2235,
      "ful</w>": 2236,
      "पहले</w>": 2237,
      "सम्": 2238,
      "would</w>": 2239,
      "पे": 2240,
      "bec": 2241,
      "such</w>": 2242,
      "जान": 2243,
      "यदि</w>": 2244,
      "up</w>": 2245,
      "दे</w>": 2246,
      "द्ध</w>": 2247,
      "हमने</w>": 2248,
      "लय</w>": 2249,
      "then</w>": 2250,
      "gr": 2251,
      "ies</w>": 2252,
      "gre": 2253,
      "दिन</w>": 2254,
      "St": 2255,
      "come</w>": 2256,
      "dev": 2257,
      "उनकी</w>": 2258,
      "तुम्हारे</w>": 2259,
      "चाहि": 2260,
      "पूर्ण</w>": 2261,
      "te</w>": 2262,
      "man": 2263,
      "ound</w>": 2264,
      "low": 2265,
      "mis": 2266,
      "el</w>": 2267,
      "चार</w>": 2268,
      "ations</w>": 2269,
      "होगा</w>": 2270,
      "ble</w>": 2271,
      "ad</w>": 2272,
      "des": 2273,
      "am</w>": 2274,
      "पर्": 2275,
      "सह": 2276,
      "होने</w>": 2277,
      "हां</w>": 2278,
      "यू": 2279,
      "Con": 2280,
      "करण</w>": 2281,
      "pos": 2282,
      "छो": 2283,
      "गए</w>": 2284,
      "बर</w>": 2285,
      "sid": 2286,
      "fol": 2287,
      "गत</w>": 2288,
      "av": 2289,
      "ियों</w>": 2290,
      "क्रि": 2291,
      "ची": 2292,
      "Pro": 2293,
      "ite</w>": 2294,
      "हमारे</w>": 2295,
      "made</w>": 2296,
      "ंड": 2297,
      "स्ता": 2298,
      "comp": 2299,
      "thing</w>": 2300,
      "wi": 2301,
      "उद्": 2302,
      "स्ट": 2303,
      "अध": 2304,
      "Ch": 2305,
      "ed": 2306,
      "ture</w>": 2307,
      "सभी</w>": 2308,
      "गई</w>": 2309,
      "देश": 2310,
      "fe</w>": 2311,
      "ऐसे</w>": 2312,
      "ओर</w>": 2313,
      "बो": 2314,
      "end</w>": 2315,
      "bl": 2316,
      "acc": 2317,
      "cri": 2318,
      "राष्ट्रपति</w>": 2319,
      "..": 2320,
      "more</w>": 2321,
      "वाला</w>": 2322,
      "ath</w>": 2323,
      "inter": 2324,
      "br": 2325,
      "हाँ</w>": 2326,
      "enc": 2327,
      "fir": 2328,
      "बद": 2329,
      "Com": 2330,
      "about</w>": 2331,
      "अभि": 2332,
      "ज्य</w>": 2333,
      "enti": 2334,
      "under</w>": 2335,
      "ther": 2336,
      "res</w>": 2337,
      "झे</w>": 2338,
      "काम</w>": 2339,
      "ei": 2340,
      "पि": 2341,
      "ever": 2342,
      "चे</w>": 2343,
      "मी": 2344,
      "Ac": 2345,
      "न्न</w>": 2346,
      "ving</w>": 2347,
      "bet": 2348,
      "तुम": 2349,
      "ph": 2350,
      "should</w>": 2351,
      "like</w>": 2352,
      "than</w>": 2353,
      "ती": 2354,
      "सकते</w>": 2355,
      "into</w>": 2356,
      "mar": 2357,
      "अच्छ": 2358,
      "ely</w>": 2359,
      "fac": 2360,
      "my</w>": 2361,
      "एव": 2362,
      "ved</w>": 2363,
      "shi": 2364,
      "प्रकार</w>": 2365,
      "एं</w>": 2366,
      "ise</w>": 2367,
      "इसके</w>": 2368,
      "ंड</w>": 2369,
      "लन</w>": 2370,
      "जो": 2371,
      "अन्य</w>": 2372,
      "ational</w>": 2373,
      "प्राप्त</w>": 2374,
      "ain": 2375,
      "चाहिए</w>": 2376,
      "कार्य</w>": 2377,
      "ew</w>": 2378,
      "They</w>": 2379,
      "उसकी</w>": 2380,
      "cer": 2381,
      "cal": 2382,
      "क्षेत्र</w>": 2383,
      "यी</w>": 2384,
      "शी": 2385,
      "But</w>": 2386,
      "धान</w>": 2387,
      "isi": 2388,
      "ical</w>": 2389,
      "iz": 2390,
      "ग़": 2391,
      "ree</w>": 2392,
      "किए</w>": 2393,
      "ेगा</w>": 2394,
      "स्थि": 2395,
      "सर्": 2396,
      "जन": 2397,
      "ans</w>": 2398,
      "साम": 2399,
      "wr": 2400,
      "रों</w>": 2401,
      "ist</w>": 2402,
      "dec": 2403,
      "tru": 2404,
      "कम</w>": 2405,
      "दन</w>": 2406,
      "खु": 2407,
      "होती</w>": 2408,
      "लग": 2409,
      "सब": 2410,
      "att": 2411,
      "णा": 2412,
      "anc": 2413,
      "जाने</w>": 2414,
      "तियों</w>": 2415,
      "some</w>": 2416,
      "ते": 2417,
      "mon": 2418,
      "ड़े</w>": 2419,
      "),</w>": 2420,
      "vernment</w>": 2421,
      "Mo": 2422,
      "two</w>": 2423,
      "ater</w>": 2424,
      "Pre": 2425,
      "भे": 2426,
      "इन": 2427,
      "ach": 2428,
      "stitu": 2429,
      "क्ष</w>": 2430,
      "ऐसा</w>": 2431,
      "ener": 2432,
      "एँ</w>": 2433,
      "used</w>": 2434,
      "new</w>": 2435,
      "sy": 2436,
      "ज़ा": 2437,
      "200": 2438,
      "निक</w>": 2439,
      "श्च": 2440,
      "ffic": 2441,
      "नाम</w>": 2442,
      "ms</w>": 2443,
      "सर</w>": 2444,
      "sub": 2445,
      "ning</w>": 2446,
      "विका": 2447,
      "these</w>": 2448,
      "की": 2449,
      "over</w>": 2450,
      "एवं</w>": 2451,
      "मत</w>": 2452,
      "ail": 2453,
      "pp": 2454,
      "अगर</w>": 2455,
      "Su": 2456,
      "पहु": 2457,
      "ाइ": 2458,
      "ates</w>": 2459,
      "पो": 2460,
      "वै": 2461,
      "lea": 2462,
      "भारतीय</w>": 2463,
      "stru": 2464,
      "भाग</w>": 2465,
      "hea": 2466,
      "यन</w>": 2467,
      "मुझे</w>": 2468,
      "ेंगे</w>": 2469,
      "व्या": 2470,
      "मै": 2471,
      "elop": 2472,
      "ड़ा</w>": 2473,
      "कार्य": 2474,
      "मार्": 2475,
      "न्या": 2476,
      "ob": 2477,
      "als</w>": 2478,
      "ट्": 2479,
      "ned</w>": 2480,
      "before</w>": 2481,
      "तं": 2482,
      "रसू": 2483,
      "करो</w>": 2484,
      "कता</w>": 2485,
      "hel": 2486,
      "ari": 2487,
      "soci": 2488,
      "ause</w>": 2489,
      "tri": 2490,
      "टा</w>": 2491,
      "राज्य</w>": 2492,
      "pla": 2493,
      "ach</w>": 2494,
      "टर</w>": 2495,
      "tain": 2496,
      "लिया</w>": 2497,
      "Ma": 2498,
      "resp": 2499,
      "चा</w>": 2500,
      "old</w>": 2501,
      "ws</w>": 2502,
      "वर्ष</w>": 2503,
      "सरकार</w>": 2504,
      "after</w>": 2505,
      "अब</w>": 2506,
      "pers": 2507,
      "spec": 2508,
      "try</w>": 2509,
      "His</w>": 2510,
      "त्व</w>": 2511,
      "ide</w>": 2512,
      "ven</w>": 2513,
      "fic": 2514,
      "वी</w>": 2515,
      "हर": 2516,
      "विकास</w>": 2517,
      "गो": 2518,
      "मंत्र": 2519,
      "tic</w>": 2520,
      "trans": 2521,
      "वृ": 2522,
      "कारण</w>": 2523,
      "किन</w>": 2524,
      "work</w>": 2525,
      "लिख": 2526,
      "ली": 2527,
      "emp": 2528,
      "बार</w>": 2529,
      "तः</w>": 2530,
      "very</w>": 2531,
      "सब</w>": 2532,
      "eve</w>": 2533,
      "em</w>": 2534,
      "व्यक्ति</w>": 2535,
      "life</w>": 2536,
      "इं": 2537,
      "धारा</w>": 2538,
      "who": 2539,
      "दूसर": 2540,
      "सो": 2541,
      "बढ़": 2542,
      "भाष": 2543,
      "ारों</w>": 2544,
      "कं": 2545,
      "गार</w>": 2546,
      "ness</w>": 2547,
      "टे": 2548,
      "ind": 2549,
      "विद्": 2550,
      "हुई</w>": 2551,
      "रसूल</w>": 2552,
      "ook</w>": 2553,
      "use</w>": 2554,
      "ears</w>": 2555,
      "ily</w>": 2556,
      "self</w>": 2557,
      "ial</w>": 2558,
      "मौ": 2559,
      "ack</w>": 2560,
      "दृ": 2561,
      "ell": 2562,
      "ens</w>": 2563,
      "re</w>": 2564,
      "ays</w>": 2565,
      "शा</w>": 2566,
      "उसने</w>": 2567,
      "दार</w>": 2568,
      "fer": 2569,
      "ating</w>": 2570,
      "निश्च": 2571,
      "man</w>": 2572,
      "ish</w>": 2573,
      "दोनों</w>": 2574,
      "Ex": 2575,
      "्रे": 2576,
      "with": 2577,
      "लेकिन</w>": 2578,
      "कै": 2579,
      "यां</w>": 2580,
      "um</w>": 2581,
      "स्थान</w>": 2582,
      "यता</w>": 2583,
      "ors</w>": 2584,
      "ak": 2585,
      "धन</w>": 2586,
      "So</w>": 2587,
      "ड़ी</w>": 2588,
      "नियम</w>": 2589,
      "पं": 2590,
      "say</w>": 2591,
      "्रा": 2592,
      "most</w>": 2593,
      "ind</w>": 2594,
      "believ": 2595,
      "प्रे": 2596,
      "im</w>": 2597,
      "बन्": 2598,
      "क्षण</w>": 2599,
      "तन</w>": 2600,
      "being</w>": 2601,
      "तुम्हें</w>": 2602,
      "En": 2603,
      "If</w>": 2604,
      "Indian</w>": 2605,
      "त्व": 2606,
      "खो": 2607,
      "ses</w>": 2608,
      "mem": 2609,
      "sident</w>": 2610,
      "wer</w>": 2611,
      "pri": 2612,
      "स्वा": 2613,
      "जाती</w>": 2614,
      "sig": 2615,
      "प्रदान</w>": 2616,
      "विशे": 2617,
      "col": 2618,
      "ow</w>": 2619,
      "रत</w>": 2620,
      "ected</w>": 2621,
      "सार</w>": 2622,
      "val": 2623,
      "जू": 2624,
      "सामा": 2625,
      "ंकि</w>": 2626,
      "ऐसी</w>": 2627,
      "महा": 2628,
      "her</w>": 2629,
      "You</w>": 2630,
      "ying</w>": 2631,
      "throu": 2632,
      "वाली</w>": 2633,
      "दिखा": 2634,
      "जिन": 2635,
      "द्र</w>": 2636,
      "ut": 2637,
      "युक्त</w>": 2638,
      "serv": 2639,
      "धार</w>": 2640,
      "मिल</w>": 2641,
      "ection</w>": 2642,
      "व्यव": 2643,
      "जन</w>": 2644,
      "होते</w>": 2645,
      "ffer": 2646,
      "योग": 2647,
      "दों</w>": 2648,
      "तिक</w>": 2649,
      "वल</w>": 2650,
      "ked</w>": 2651,
      "log": 2652,
      "सहा": 2653,
      "जु": 2654,
      "fe": 2655,
      "जैसे</w>": 2656,
      "mer": 2657,
      "ur</w>": 2658,
      "प्रभा": 2659,
      "्र</w>": 2660,
      "जिस</w>": 2661,
      "जीवन</w>": 2662,
      "...</w>": 2663,
      "int": 2664,
      "Sh": 2665,
      "ship</w>": 2666,
      "ard</w>": 2667,
      "port": 2668,
      "मुख": 2669,
      "exc": 2670,
      "ण्": 2671,
      "सद": 2672,
      "ress</w>": 2673,
      "रब</w>": 2674,
      "ast": 2675,
      "संबंध": 2676,
      "proc": 2677,
      "lation</w>": 2678,
      "ग्रा": 2679,
      "बारे</w>": 2680,
      "तना</w>": 2681,
      "रही</w>": 2682,
      ").</w>": 2683,
      "आव": 2684,
      "बीच</w>": 2685,
      "char": 2686,
      "eg": 2687,
      "Un": 2688,
      "लता</w>": 2689,
      "world</w>": 2690,
      "even</w>": 2691,
      "port</w>": 2692,
      "समझ": 2693,
      "ज्ञान</w>": 2694,
      "good</w>": 2695,
      "see</w>": 2696,
      "श्य": 2697,
      "inv": 2698,
      "low</w>": 2699,
      "उसका</w>": 2700,
      "sin": 2701,
      "mation</w>": 2702,
      "दी": 2703,
      "through</w>": 2704,
      "deed</w>": 2705,
      "ill": 2706,
      "form": 2707,
      "make</w>": 2708,
      "ween</w>": 2709,
      "रान</w>": 2710,
      "योजना</w>": 2711,
      "स्था</w>": 2712,
      "ंक</w>": 2713,
      "वर</w>": 2714,
      "संग": 2715,
      "मक</w>": 2716,
      "well</w>": 2717,
      "टे</w>": 2718,
      "ful": 2719,
      "how</w>": 2720,
      "between</w>": 2721,
      "।\"</w>": 2722,
      "हों</w>": 2723,
      "स्त</w>": 2724,
      "ech": 2725,
      "section</w>": 2726,
      "mat": 2727,
      "struc": 2728,
      "दर</w>": 2729,
      "loc": 2730,
      "President</w>": 2731,
      "name</w>": 2732,
      "ject</w>": 2733,
      "develop": 2734,
      "कल्": 2735,
      "दौ": 2736,
      "peri": 2737,
      "ept</w>": 2738,
      "fl": 2739,
      "स्थाप": 2740,
      "pur": 2741,
      "मेरे</w>": 2742,
      "बी</w>": 2743,
      "ong": 2744,
      "ज़ि": 2745,
      "ided</w>": 2746,
      "thou": 2747,
      "अल": 2748,
      "country</w>": 2749,
      "ities</w>": 2750,
      "अर्": 2751,
      "loo": 2752,
      "tor</w>": 2753,
      "many</w>": 2754,
      "राष्ट्रीय</w>": 2755,
      "मों</w>": 2756,
      "बू": 2757,
      "equ": 2758,
      "are": 2759,
      "ईमान</w>": 2760,
      "her": 2761,
      "यालय</w>": 2762,
      "fo": 2763,
      "cap": 2764,
      "Min": 2765,
      "ju": 2766,
      "down</w>": 2767,
      "स्थिति</w>": 2768,
      "याँ</w>": 2769,
      "न्य</w>": 2770,
      "know</w>": 2771,
      "बंध</w>": 2772,
      "upon</w>": 2773,
      "first</w>": 2774,
      "कू": 2775,
      "believe</w>": 2776,
      "ft</w>": 2777,
      "प्रयोग</w>": 2778,
      "वाद</w>": 2779,
      "per</w>": 2780,
      "uring</w>": 2781,
      "त्रों</w>": 2782,
      "ue</w>": 2783,
      "उनका</w>": 2784,
      "does</w>": 2785,
      "क्रिया</w>": 2786,
      "tiv": 2787,
      "हमें</w>": 2788,
      "years</w>": 2789,
      "Par": 2790,
      "ps</w>": 2791,
      "जाएगा</w>": 2792,
      "Government</w>": 2793,
      "केवल</w>": 2794,
      "वी": 2795,
      "वही</w>": 2796,
      "ange</w>": 2797,
      "ism</w>": 2798,
      "could</w>": 2799,
      "hear": 2800,
      "लें</w>": 2801,
      "उठ": 2802,
      "ंत</w>": 2803,
      "lic</w>": 2804,
      "there": 2805,
      "lar</w>": 2806,
      "ash": 2807,
      "ded</w>": 2808,
      "num": 2809,
      "शक</w>": 2810,
      "act</w>": 2811,
      "get</w>": 2812,
      "जिसमें</w>": 2813,
      "jo": 2814,
      "cur": 2815,
      "भिन्न</w>": 2816,
      "ga": 2817,
      "car": 2818,
      "stri": 2819,
      "स्प": 2820,
      "where</w>": 2821,
      "पत्": 2822,
      "आर": 2823,
      "ताकि</w>": 2824,
      "clu": 2825,
      "डर</w>": 2826,
      "sch": 2827,
      "शो": 2828,
      "ns</w>": 2829,
      "तर्": 2830,
      "cor": 2831,
      "हे": 2832,
      "own</w>": 2833,
      "आवश्य": 2834,
      "There</w>": 2835,
      "जे": 2836,
      "eal": 2837,
      "ainst</w>": 2838,
      "हूँ</w>": 2839,
      "tim": 2840,
      "set</w>": 2841,
      "नो": 2842,
      "under": 2843,
      "ef": 2844,
      "अपना</w>": 2845,
      "produc": 2846,
      "right</w>": 2847,
      "चे": 2848,
      "ether</w>": 2849,
      "ाइल</w>": 2850,
      "ited</w>": 2851,
      "did</w>": 2852,
      "exp": 2853,
      "against</w>": 2854,
      "निर्धार": 2855,
      "क्यो": 2856,
      "tt": 2857,
      "विष": 2858,
      "take</w>": 2859,
      "year</w>": 2860,
      "ry</w>": 2861,
      "लने</w>": 2862,
      "सफ": 2863,
      "वालों</w>": 2864,
      "माण</w>": 2865,
      "ध्य": 2866,
      "mess": 2867,
      "जाना</w>": 2868,
      "ताओं</w>": 2869,
      "all": 2870,
      "yp": 2871,
      "कृत</w>": 2872,
      "हमारी</w>": 2873,
      "pol": 2874,
      "ature</w>": 2875,
      "वार</w>": 2876,
      "दूसरे</w>": 2877,
      "requ": 2878,
      "प्रो": 2879,
      "उसी</w>": 2880,
      "श्य</w>": 2881,
      "यार</w>": 2882,
      "प्रत्य": 2883,
      "सबसे</w>": 2884,
      "All</w>": 2885,
      "उपयोग</w>": 2886,
      "ye</w>": 2887,
      "ets</w>": 2888,
      "इसे</w>": 2889,
      "वास</w>": 2890,
      "lan": 2891,
      "क़</w>": 2892,
      "्रि": 2893,
      "formation</w>": 2894,
      "लो</w>": 2895,
      "प्रति</w>": 2896,
      "mi": 2897,
      "फ्": 2898,
      "earth</w>": 2899,
      "cent": 2900,
      "देने</w>": 2901,
      "खि": 2902,
      "उत्पा": 2903,
      "hi</w>": 2904,
      "ome": 2905,
      "div": 2906,
      "अथ": 2907,
      "मन</w>": 2908,
      "rely</w>": 2909,
      "dy</w>": 2910,
      "tis": 2911,
      "बड़ा</w>": 2912,
      "लब्": 2913,
      "पत्र</w>": 2914,
      "जाए</w>": 2915,
      "पैदा</w>": 2916,
      "डे": 2917,
      "ward</w>": 2918,
      "ow": 2919,
      "Is": 2920,
      "त्य</w>": 2921,
      "place</w>": 2922,
      "ility</w>": 2923,
      "dre": 2924,
      "जाते</w>": 2925,
      "form</w>": 2926,
      "लगा": 2927,
      "फ़</w>": 2928,
      "give</w>": 2929,
      "श्री</w>": 2930,
      "सूचना</w>": 2931,
      "Act</w>": 2932,
      "int</w>": 2933,
      "इसमें</w>": 2934,
      "सन</w>": 2935,
      "मे</w>": 2936,
      "खा</w>": 2937,
      "less</w>": 2938,
      "बल्": 2939,
      "क्योंकि</w>": 2940,
      "पश्": 2941,
      "10</w>": 2942,
      "lar": 2943,
      "क्रम</w>": 2944,
      "bas": 2945,
      "rev": 2946,
      "देता</w>": 2947,
      "तम</w>": 2948,
      "syst": 2949,
      "निक": 2950,
      "ढ़</w>": 2951,
      "जिसे</w>": 2952,
      "आज</w>": 2953,
      "जिन्": 2954,
      "mil": 2955,
      "न्तु</w>": 2956,
      "स्तु": 2957,
      "माम": 2958,
      "blic</w>": 2959,
      "है": 2960,
      "sed</w>": 2961,
      "fil": 2962,
      "Ra": 2963,
      "कंप": 2964,
      "fun": 2965,
      "ised</w>": 2966,
      "अधिनियम</w>": 2967,
      "उपलब्": 2968,
      "given</w>": 2969,
      "land</w>": 2970,
      "part</w>": 2971,
      "पूर्व</w>": 2972,
      "eas": 2973,
      "ric": 2974,
      "टी": 2975,
      "आं": 2976,
      "ep</w>": 2977,
      "tre": 2978,
      "धी</w>": 2979,
      "बना</w>": 2980,
      "gan": 2981,
      "chil": 2982,
      "No": 2983,
      "Ad": 2984,
      "डी</w>": 2985,
      "det": 2986,
      "पी</w>": 2987,
      "स्वी": 2988,
      "घा": 2989,
      "अथवा</w>": 2990,
      "ya</w>": 2991,
      "उनसे</w>": 2992,
      "among</w>": 2993,
      "Mu": 2994,
      "cul": 2995,
      "ages</w>": 2996,
      "read": 2997,
      "था": 2998,
      "र्म</w>": 2999,
      "ants</w>": 3000,
      "know": 3001,
      "Di": 3002,
      "ken</w>": 3003,
      "sur": 3004,
      "because</w>": 3005,
      "sup": 3006,
      "उससे</w>": 3007,
      "sent</w>": 3008,
      "ee</w>": 3009,
      "ished</w>": 3010,
      "तब</w>": 3011,
      "त्या": 3012,
      "app": 3013,
      "differ": 3014,
      "तै": 3015,
      "कभी</w>": 3016,
      "माल</w>": 3017,
      "Him</w>": 3018,
      "hum": 3019,
      "ll</w>": 3020,
      "ision</w>": 3021,
      "sha": 3022,
      "oper": 3023,
      "fied</w>": 3024,
      "ext</w>": 3025,
      "ments</w>": 3026,
      "cu": 3027,
      "indu": 3028,
      "direc": 3029,
      "18": 3030,
      "State</w>": 3031,
      "परवर": 3032,
      "plic": 3033,
      "दिगार</w>": 3034,
      "फा": 3035,
      "now</w>": 3036,
      "मूल्": 3037,
      "cla": 3038,
      "can": 3039,
      "row": 3040,
      "परवरदिगार</w>": 3041,
      "ri</w>": 3042,
      "reli": 3043,
      "करा": 3044,
      "निया</w>": 3045,
      "कें": 3046,
      "cha": 3047,
      "gener": 3048,
      "नीय</w>": 3049,
      "धा</w>": 3050,
      "must</w>": 3051,
      "of": 3052,
      "olu": 3053,
      "accoun": 3054,
      "tain</w>": 3055,
      "तौ": 3056,
      "शी</w>": 3057,
      "निका": 3058,
      "abl": 3059,
      "bi": 3060,
      "कॉ": 3061,
      "When</w>": 3062,
      "dge</w>": 3063,
      "eds</w>": 3064,
      "thers</w>": 3065,
      "बस</w>": 3066,
      "wom": 3067,
      "star": 3068,
      "turn</w>": 3069,
      "सकती</w>": 3070,
      "every</w>": 3071,
      "च्च": 3072,
      "men</w>": 3073,
      "lit": 3074,
      "बर": 3075,
      "ality</w>": 3076,
      "ख्या</w>": 3077,
      "mp": 3078,
      "पहुँ": 3079,
      "पन</w>": 3080,
      "ual</w>": 3081,
      "Our</w>": 3082,
      "खे": 3083,
      "शब्": 3084,
      "Re": 3085,
      "बड़ी</w>": 3086,
      "ra</w>": 3087,
      "part": 3088,
      "consi": 3089,
      "ran": 3090,
      "करती</w>": 3091,
      "षण</w>": 3092,
      "संदेश</w>": 3093,
      "यक</w>": 3094,
      "णी</w>": 3095,
      "ंच</w>": 3096,
      "कृति</w>": 3097,
      "ha</w>": 3098,
      "इसलिए</w>": 3099,
      "यर</w>": 3100,
      "ese</w>": 3101,
      "ट्र": 3102,
      "टन</w>": 3103,
      "ink</w>": 3104,
      "चीज़</w>": 3105,
      "हूं</w>": 3106,
      "सहायता</w>": 3107,
      "चित</w>": 3108,
      "199": 3109,
      "कई</w>": 3110,
      "rel": 3111,
      "compl": 3112,
      "वेश</w>": 3113,
      "शिक्षा</w>": 3114,
      "od</w>": 3115,
      "इन्": 3116,
      "नू": 3117,
      "लिये</w>": 3118,
      "vari": 3119,
      "त्ता</w>": 3120,
      "ems</w>": 3121,
      "मित</w>": 3122,
      "ire</w>": 3123,
      "ke": 3124,
      "अलग</w>": 3125,
      "आय": 3126,
      ".\"</w>": 3127,
      "selves</w>": 3128,
      "just</w>": 3129,
      "order</w>": 3130,
      "मिक</w>": 3131,
      "On": 3132,
      "great</w>": 3133,
      "हार</w>": 3134,
      "while</w>": 3135,
      "De": 3136,
      "To</w>": 3137,
      "होना</w>": 3138,
      "econ": 3139,
      "्यू": 3140,
      "बल्कि</w>": 3141,
      "pat": 3142,
      "सूची</w>": 3143,
      "संस्": 3144,
      "मेरी</w>": 3145,
      "तें</w>": 3146,
      "र्इ</w>": 3147,
      "उनमें</w>": 3148,
      "कुल</w>": 3149,
      "लत</w>": 3150,
      "हित</w>": 3151,
      "ain</w>": 3152,
      "some": 3153,
      "away</w>": 3154,
      "follow": 3155,
      "ner</w>": 3156,
      "पुन": 3157,
      "need</w>": 3158,
      "योगि": 3159,
      "र्य</w>": 3160,
      "भी": 3161,
      "gl": 3162,
      "पता</w>": 3163,
      "ide": 3164,
      "निर्माण</w>": 3165,
      "बैठ": 3166,
      "water</w>": 3167,
      "cour": 3168,
      "बरा": 3169,
      "bel": 3170,
      "प्रका": 3171,
      "ata</w>": 3172,
      "इससे</w>": 3173,
      "sts</w>": 3174,
      "ध्या": 3175,
      "भु": 3176,
      "वरण</w>": 3177,
      "mit": 3178,
      "शामिल</w>": 3179,
      "सदस्": 3180,
      "For</w>": 3181,
      "याद</w>": 3182,
      "यत</w>": 3183,
      "होगी</w>": 3184,
      "here</w>": 3185,
      "back</w>": 3186,
      "Day</w>": 3187,
      "यहाँ</w>": 3188,
      "auth": 3189,
      "ंभ</w>": 3190,
      "dem": 3191,
      "ten</w>": 3192,
      "fam": 3193,
      "शै": 3194,
      "number</w>": 3195,
      "डी": 3196,
      "ety</w>": 3197,
      "परिवर्": 3198,
      "tical</w>": 3199,
      "विशेष</w>": 3200,
      "stry</w>": 3201,
      "national</w>": 3202,
      "आगे</w>": 3203,
      "कहते</w>": 3204,
      "sm": 3205,
      "go</w>": 3206,
      "vers": 3207,
      "fore": 3208,
      "करके</w>": 3209,
      "कह</w>": 3210,
      "IN": 3211,
      "ects</w>": 3212,
      "file</w>": 3213,
      "रच": 3214,
      "posi": 3215,
      "ban": 3216,
      "जहां</w>": 3217,
      "ative</w>": 3218,
      "sen": 3219,
      "दौरान</w>": 3220,
      "ord": 3221,
      "power</w>": 3222,
      "ोल्": 3223,
      "त्रा</w>": 3224,
      "Cent": 3225,
      "ini": 3226,
      "भाव": 3227,
      "लं": 3228,
      "dra": 3229,
      "during</w>": 3230,
      "person</w>": 3231,
      "ital</w>": 3232,
      "As": 3233,
      "तान</w>": 3234,
      "पार": 3235,
      "जिन</w>": 3236,
      "gar": 3237,
      "रक्षा</w>": 3238,
      "ंट</w>": 3239,
      "believers</w>": 3240,
      "मृ": 3241,
      "000</w>": 3242,
      "लित</w>": 3243,
      "फे": 3244,
      "वास्त": 3245,
      "regi": 3246,
      "20</w>": 3247,
      "फ़ाइल</w>": 3248,
      "each</w>": 3249,
      "og": 3250,
      "उनको</w>": 3251,
      "मंत्री</w>": 3252,
      "els</w>": 3253,
      "writ": 3254,
      "logy</w>": 3255,
      "यही</w>": 3256,
      "pi": 3257,
      "स्थित</w>": 3258,
      "कौ": 3259,
      "case</w>": 3260,
      "same</w>": 3261,
      "side</w>": 3262,
      "विभिन्न</w>": 3263,
      "विचार</w>": 3264,
      "भव</w>": 3265,
      "system</w>": 3266,
      "ass</w>": 3267,
      "आई": 3268,
      "ष्ठ": 3269,
      "अग": 3270,
      "अधीन</w>": 3271,
      "पड़": 3272,
      "off": 3273,
      "ेक</w>": 3274,
      "import": 3275,
      "As</w>": 3276,
      "ices</w>": 3277,
      "जे</w>": 3278,
      "cas": 3279,
      "पूर्व": 3280,
      "ष्टि</w>": 3281,
      "adv": 3282,
      "लिक</w>": 3283,
      "त्मक</w>": 3284,
      "वित</w>": 3285,
      "समान</w>": 3286,
      "Ar": 3287,
      "जिसके</w>": 3288,
      "ana</w>": 3289,
      "recei": 3290,
      "यम</w>": 3291,
      "लू": 3292,
      "संख्या</w>": 3293,
      "ौद्": 3294,
      "अनुसार</w>": 3295,
      "दर": 3296,
      "पूरा</w>": 3297,
      "change</w>": 3298,
      "सन्": 3299,
      "ारा": 3300,
      "त्वपूर्ण</w>": 3301,
      "ouse</w>": 3302,
      "out": 3303,
      "den": 3304,
      "होंगे</w>": 3305,
      "सामने</w>": 3306,
      "इसका</w>": 3307,
      "ous": 3308,
      "den</w>": 3309,
      "सेवा</w>": 3310,
      "समु": 3311,
      "फ़ि": 3312,
      "तरफ</w>": 3313,
      "मार्ग</w>": 3314,
      "Then</w>": 3315,
      "sul": 3316,
      "respon": 3317,
      "cc": 3318,
      "मद": 3319,
      "गी": 3320,
      "ys</w>": 3321,
      "ways</w>": 3322,
      "ledge</w>": 3323,
      "हत</w>": 3324,
      "both</w>": 3325,
      "नेक</w>": 3326,
      "अति": 3327,
      "clo": 3328,
      "dep": 3329,
      "No</w>": 3330,
      "Res": 3331,
      "ef</w>": 3332,
      "ven": 3333,
      ":%</w>": 3334,
      "speci": 3335,
      "हन</w>": 3336,
      "किता": 3337,
      "रू</w>": 3338,
      "भा</w>": 3339,
      "stan": 3340,
      "संबंध</w>": 3341,
      "गां": 3342,
      "समू": 3343,
      "organ": 3344,
      "यान</w>": 3345,
      "called</w>": 3346,
      "sci": 3347,
      "घट": 3348,
      "wards</w>": 3349,
      "विश्व": 3350,
      "वान</w>": 3351,
      "another</w>": 3352,
      "मुख</w>": 3353,
      "करे</w>": 3354,
      "Bha": 3355,
      "उसमें</w>": 3356,
      "etc</w>": 3357,
      "छा": 3358,
      "साइ": 3359,
      "अच्छा</w>": 3360,
      "देशों</w>": 3361,
      "development</w>": 3362,
      "Uni": 3363,
      "bro": 3364,
      "things</w>": 3365,
      "आपको</w>": 3366,
      "आधार</w>": 3367,
      "भाषा</w>": 3368,
      "नई</w>": 3369,
      "ency</w>": 3370,
      "घर</w>": 3371,
      "known</w>": 3372,
      "ंत्र": 3373,
      "क्स</w>": 3374,
      "संबंधित</w>": 3375,
      "इसी</w>": 3376,
      "दुनिया</w>": 3377,
      "educ": 3378,
      "देते</w>": 3379,
      "EN": 3380,
      "win": 3381,
      "help</w>": 3382,
      "long</w>": 3383,
      "पृ": 3384,
      "ten": 3385,
      "क्षित</w>": 3386,
      "मीन</w>": 3387,
      "wa": 3388,
      "करेगा</w>": 3389,
      "लै": 3390,
      "yed</w>": 3391,
      "ign</w>": 3392,
      "न्त</w>": 3393,
      "ort</w>": 3394,
      "tech": 3395,
      "बाहर</w>": 3396,
      "वर्ष": 3397,
      "sible</w>": 3398,
      "whom</w>": 3399,
      "णों</w>": 3400,
      "अन": 3401,
      "यो</w>": 3402,
      "सिं": 3403,
      "put</w>": 3404,
      "णा</w>": 3405,
      "उपलब्ध</w>": 3406,
      "तैयार</w>": 3407,
      "ined</w>": 3408,
      "बड़े</w>": 3409,
      "econom": 3410,
      "आय</w>": 3411,
      "vil": 3412,
      "buil": 3413,
      "ask</w>": 3414,
      "च्च</w>": 3415,
      "चाहते</w>": 3416,
      "nor</w>": 3417,
      "वाह</w>": 3418,
      "indeed</w>": 3419,
      "action</w>": 3420,
      "प्रत्येक</w>": 3421,
      "विक</w>": 3422,
      "निश्चित</w>": 3423,
      "चार": 3424,
      "line</w>": 3425,
      "50</w>": 3426,
      "पानी</w>": 3427,
      "without</w>": 3428,
      "12</w>": 3429,
      "विषय</w>": 3430,
      "dic": 3431,
      "लेख": 3432,
      "सौ": 3433,
      "द्धि</w>": 3434,
      "ंग्रे": 3435,
      "धु": 3436,
      "कल</w>": 3437,
      "inclu": 3438,
      "three</w>": 3439,
      "sou": 3440,
      "came</w>": 3441,
      "ack": 3442,
      "commun": 3443,
      "times</w>": 3444,
      "महि": 3445,
      "dren</w>": 3446,
      "nal</w>": 3447,
      "What</w>": 3448,
      "जारी</w>": 3449,
      "त्त</w>": 3450,
      "bers</w>": 3451,
      "बन</w>": 3452,
      "succ": 3453,
      "body</w>": 3454,
      "ins</w>": 3455,
      "tly</w>": 3456,
      "knowledge</w>": 3457,
      "जग": 3458,
      "aff": 3459,
      "ीक</w>": 3460,
      "ple</w>": 3461,
      "तुम्हारी</w>": 3462,
      "National</w>": 3463,
      "फै": 3464,
      "Mar": 3465,
      "ority</w>": 3466,
      "she</w>": 3467,
      "भर</w>": 3468,
      "प्रया": 3469,
      "पीछ": 3470,
      "ently</w>": 3471,
      "स्तर</w>": 3472,
      "अध्य": 3473,
      "शक्ति</w>": 3474,
      "अवसर</w>": 3475,
      "issu": 3476,
      "काल</w>": 3477,
      "स्वय": 3478,
      "नाओं</w>": 3479,
      "लड़": 3480,
      "ia</w>": 3481,
      "क्ति": 3482,
      "nec": 3483,
      "प्रार": 3484,
      "सां": 3485,
      "religi": 3486,
      "ral</w>": 3487,
      "ides</w>": 3488,
      "हरा": 3489,
      "निश्चय</w>": 3490,
      "cial</w>": 3491,
      "बनाने</w>": 3492,
      "ma</w>": 3493,
      "vir": 3494,
      "ges</w>": 3495,
      "पूरी</w>": 3496,
      "sk": 3497,
      "Mess": 3498,
      "crip": 3499,
      "Mus": 3500,
      "भो": 3501,
      "ration</w>": 3502,
      "RE": 3503,
      "pun": 3504,
      "lease</w>": 3505,
      "state</w>": 3506,
      "different</w>": 3507,
      "दूर</w>": 3508,
      "झु": 3509,
      "केन्": 3510,
      "progra": 3511,
      "tle</w>": 3512,
      "ष्ठ</w>": 3513,
      "हरी</w>": 3514,
      "pra": 3515,
      "inf": 3516,
      "means</w>": 3517,
      "Au": 3518,
      "pass": 3519,
      "ired</w>": 3520,
      "uni": 3521,
      "found</w>": 3522,
      "'%</w>": 3523,
      "ह्": 3524,
      "much</w>": 3525,
      "ज्या": 3526,
      "प्रौद्": 3527,
      "bre": 3528,
      "contin": 3529,
      "cr": 3530,
      "पा</w>": 3531,
      "श्रे": 3532,
      "ister</w>": 3533,
      "धी": 3534,
      "सान</w>": 3535,
      "inc": 3536,
      "आपके</w>": 3537,
      "बता": 3538,
      "prob": 3539,
      "want</w>": 3540,
      "eth</w>": 3541,
      "ss</w>": 3542,
      "information</w>": 3543,
      "righ": 3544,
      "रखा</w>": 3545,
      "लगे</w>": 3546,
      "nam": 3547,
      "ount</w>": 3548,
      "स्थापित</w>": 3549,
      "ror</w>": 3550,
      "tice</w>": 3551,
      "र्ड</w>": 3552,
      "गै": 3553,
      "रती</w>": 3554,
      "langu": 3555,
      "अत्य": 3556,
      "Do</w>": 3557,
      "ंतु</w>": 3558,
      "अज़ा": 3559,
      "लना</w>": 3560,
      "incre": 3561,
      "OF</w>": 3562,
      "तीन</w>": 3563,
      "प्रौद्योगि": 3564,
      "taken</w>": 3565,
      "तिहा": 3566,
      "रण</w>": 3567,
      "typ": 3568,
      "Shri</w>": 3569,
      "लाभ</w>": 3570,
      "बा</w>": 3571,
      "हिं": 3572,
      "खंड</w>": 3573,
      "जब": 3574,
      "ष्य</w>": 3575,
      "प्रक्रिया</w>": 3576,
      "लते</w>": 3577,
      "vis": 3578,
      "अंतर": 3579,
      "नीति</w>": 3580,
      "ders</w>": 3581,
      "ध्यम</w>": 3582,
      "सामान्य</w>": 3583,
      "खुदा</w>": 3584,
      "eff": 3585,
      "ज़ा</w>": 3586,
      "लॉ": 3587,
      "विश्व</w>": 3588,
      "लौ": 3589,
      "परी": 3590,
      "ऊपर</w>": 3591,
      "ere": 3592,
      "आई</w>": 3593,
      "grou": 3594,
      "मगर</w>": 3595,
      "On</w>": 3596,
      "Sa": 3597,
      "ben": 3598,
      "लोक": 3599,
      "फो": 3600,
      "वि</w>": 3601,
      "Man": 3602,
      "गये</w>": 3603,
      "लु": 3604,
      "ond</w>": 3605,
      "र्ट</w>": 3606,
      "Hind": 3607,
      "unto</w>": 3608,
      "फी</w>": 3609,
      "करने": 3610,
      "heav": 3611,
      "नता</w>": 3612,
      "जरू": 3613,
      "Po": 3614,
      "account</w>": 3615,
      "शत</w>": 3616,
      "पार</w>": 3617,
      "men": 3618,
      "उठा": 3619,
      "लती</w>": 3620,
      "ham": 3621,
      "अज़ाब</w>": 3622,
      "That</w>": 3623,
      "स्वयं</w>": 3624,
      "onal</w>": 3625,
      "अंतर्": 3626,
      "रात</w>": 3627,
      "ठीक</w>": 3628,
      "earch</w>": 3629,
      "अनेक</w>": 3630,
      "स्त्र": 3631,
      "period</w>": 3632,
      "र्थ</w>": 3633,
      "ग्": 3634,
      "sist": 3635,
      "मुख्य</w>": 3636,
      "ishment</w>": 3637,
      "any": 3638,
      "प्रणा": 3639,
      "My</w>": 3640,
      "sure</w>": 3641,
      "चाहता</w>": 3642,
      "institu": 3643,
      "sive</w>": 3644,
      "hal": 3645,
      "inst": 3646,
      "बल</w>": 3647,
      "तुम्हारा</w>": 3648,
      "बनाया</w>": 3649,
      "sub</w>": 3650,
      "पि</w>": 3651,
      "nor": 3652,
      "''</w>": 3653,
      "ber": 3654,
      "हेतु</w>": 3655,
      "शुरू</w>": 3656,
      "Del": 3657,
      "women</w>": 3658,
      "भवन</w>": 3659,
      "वाय": 3660,
      "happ": 3661,
      "महत्वपूर्ण</w>": 3662,
      "तंत्र</w>": 3663,
      "घो": 3664,
      "gg": 3665,
      "वज": 3666,
      "lev": 3667,
      "आत्": 3668,
      "दर्शन</w>": 3669,
      "टो": 3670,
      "ural</w>": 3671,
      "बढ़ा": 3672,
      "षि</w>": 3673,
      "let</w>": 3674,
      "ख़ि": 3675,
      "30</w>": 3676,
      "over": 3677,
      "15</w>": 3678,
      "ental</w>": 3679,
      "truth</w>": 3680,
      "thy</w>": 3681,
      "अर्थ": 3682,
      "एस</w>": 3683,
      "देह</w>": 3684,
      "SI": 3685,
      "पढ़": 3686,
      "सर्व": 3687,
      "व्यवस्था</w>": 3688,
      "मि</w>": 3689,
      "high": 3690,
      "क़ा": 3691,
      "leg": 3692,
      "ca": 3693,
      "वादी</w>": 3694,
      "dom</w>": 3695,
      "tor": 3696,
      "avail": 3697,
      "परिणा": 3698,
      "created</w>": 3699,
      "मैंने</w>": 3700,
      "देखा</w>": 3701,
      "क्षेत्रों</w>": 3702,
      "विज्ञान</w>": 3703,
      "AT": 3704,
      "धिक</w>": 3705,
      "आर्थ": 3706,
      "रह</w>": 3707,
      "ult</w>": 3708,
      "सके</w>": 3709,
      "जिसने</w>": 3710,
      "ंस</w>": 3711,
      "Say</w>": 3712,
      "cannot</w>": 3713,
      "शरी": 3714,
      "प्रतिशत</w>": 3715,
      "fri": 3716,
      "आदि</w>": 3717,
      "For": 3718,
      "These</w>": 3719,
      "चुन": 3720,
      "व्य</w>": 3721,
      "बेशक</w>": 3722,
      "ima": 3723,
      "राज्य": 3724,
      "Bo": 3725,
      "exam": 3726,
      "मौजू": 3727,
      "dist": 3728,
      "Name</w>": 3729,
      "going</w>": 3730,
      "क्षि": 3731,
      "यहां</w>": 3732,
      "dition</w>": 3733,
      "ining</w>": 3734,
      "देना</w>": 3735,
      "view</w>": 3736,
      "196": 3737,
      "ember</w>": 3738,
      "mission</w>": 3739,
      "tal</w>": 3740,
      "नीचे</w>": 3741,
      "company</w>": 3742,
      "message</w>": 3743,
      "11</w>": 3744,
      "44</w>": 3745,
      "ete</w>": 3746,
      "करेंगे</w>": 3747,
      "lim": 3748,
      "पीछे</w>": 3749,
      "cent</w>": 3750,
      "बिना</w>": 3751,
      "except</w>": 3752,
      "ारि": 3753,
      "हिस्": 3754,
      "stud": 3755,
      "find</w>": 3756,
      "date</w>": 3757,
      "become</w>": 3758,
      "tific": 3759,
      "cro": 3760,
      "उल्": 3761,
      "ove</w>": 3762,
      "बैंक</w>": 3763,
      "Li": 3764,
      "days</w>": 3765,
      "ths</w>": 3766,
      "important</w>": 3767,
      "किताब</w>": 3768,
      "gress</w>": 3769,
      "आर्थिक</w>": 3770,
      "ंच": 3771,
      "लगा</w>": 3772,
      "ann": 3773,
      "ज़मीन</w>": 3774,
      "सुवि": 3775,
      "प्रौद्योगिकी</w>": 3776,
      "them": 3777,
      "loy": 3778,
      "ces</w>": 3779,
      "Pra": 3780,
      "ध्यान</w>": 3781,
      "busin": 3782,
      "word</w>": 3783,
      "एस": 3784,
      "यात</w>": 3785,
      "medi": 3786,
      "stric": 3787,
      "जिसका</w>": 3788,
      "तक": 3789,
      "dow</w>": 3790,
      "story</w>": 3791,
      "एक": 3792,
      "ented</w>": 3793,
      "ters</w>": 3794,
      "ze</w>": 3795,
      "ध्": 3796,
      "add": 3797,
      "हाथ</w>": 3798,
      "ii</w>": 3799,
      "les</w>": 3800,
      "chang": 3801,
      "गण": 3802,
      "public</w>": 3803,
      "सित</w>": 3804,
      "हिन्": 3805,
      "present</w>": 3806,
      "dit</w>": 3807,
      "च्चे</w>": 3808,
      "लाया</w>": 3809,
      "विश्वास</w>": 3810,
      "AN": 3811,
      "today</w>": 3812,
      "उच्च</w>": 3813,
      "दिष्ट</w>": 3814,
      "अधिकार</w>": 3815,
      "मदद</w>": 3816,
      "surely</w>": 3817,
      "Sp": 3818,
      "ta</w>": 3819,
      "रिक</w>": 3820,
      "establ": 3821,
      "plan": 3822,
      "चौ": 3823,
      "लक्ष": 3824,
      "लेकर</w>": 3825,
      "curr": 3826,
      "गयी</w>": 3827,
      "स्ते</w>": 3828,
      "किन्तु</w>": 3829,
      "ail</w>": 3830,
      "माण": 3831,
      "नि</w>": 3832,
      "त्</w>": 3833,
      "धरती</w>": 3834,
      "income</w>": 3835,
      "clear</w>": 3836,
      "स्पष्ट</w>": 3837,
      "ready</w>": 3838,
      "eting</w>": 3839,
      "जबकि</w>": 3840,
      "शासन</w>": 3841,
      "198": 3842,
      "ali": 3843,
      "never</w>": 3844,
      "ead</w>": 3845,
      "children</w>": 3846,
      "offic": 3847,
      "?\"</w>": 3848,
      "नित</w>": 3849,
      "ोल्डर</w>": 3850,
      "ands</w>": 3851,
      "बेह": 3852,
      "fear</w>": 3853,
      "अमे": 3854,
      "ered</w>": 3855,
      "चल</w>": 3856,
      "sing</w>": 3857,
      "kind</w>": 3858,
      "best</w>": 3859,
      "पिछ": 3860,
      "जार</w>": 3861,
      "आद": 3862,
      "ठि": 3863,
      "though</w>": 3864,
      "kes</w>": 3865,
      "प्रमुख</w>": 3866,
      "Musli": 3867,
      "तौर</w>": 3868,
      "शित</w>": 3869,
      "applic": 3870,
      "अतः</w>": 3871,
      "तो": 3872,
      "art</w>": 3873,
      "mor": 3874,
      "कारों</w>": 3875,
      "जन्": 3876,
      "read</w>": 3877,
      "वों</w>": 3878,
      "दिए</w>": 3879,
      "इसकी</w>": 3880,
      "कंपनी</w>": 3881,
      "मता</w>": 3882,
      "माध्यम</w>": 3883,
      "Dev": 3884,
      "गति</w>": 3885,
      "tax</w>": 3886,
      "विशेष": 3887,
      "government</w>": 3888,
      "RB</w>": 3889,
      "लाने</w>": 3890,
      "see": 3891,
      "अच्छे</w>": 3892,
      "तनी</w>": 3893,
      "ale</w>": 3894,
      "कृषि</w>": 3895,
      "बन": 3896,
      "ences</w>": 3897,
      "Minister</w>": 3898,
      "दारी</w>": 3899,
      "within</w>": 3900,
      "nology</w>": 3901,
      "ग्रह</w>": 3902,
      "दें</w>": 3903,
      "Pri": 3904,
      "सभा</w>": 3905,
      "होकर</w>": 3906,
      "ही": 3907,
      "hy": 3908,
      "ool</w>": 3909,
      "ket</w>": 3910,
      "धान": 3911,
      "विंड": 3912,
      "jud": 3913,
      "various</w>": 3914,
      "themselves</w>": 3915,
      "bor": 3916,
      "नियंत्र": 3917,
      "द्रीय</w>": 3918,
      "लाए</w>": 3919,
      "light</w>": 3920,
      "अमेरि": 3921,
      "क्यों</w>": 3922,
      "लाग": 3923,
      "done</w>": 3924,
      "जिक</w>": 3925,
      "र्ष": 3926,
      "समर्थ": 3927,
      "निर्दिष्ट</w>": 3928,
      "ged</w>": 3929,
      "चाहे</w>": 3930,
      "fy</w>": 3931,
      "business</w>": 3932,
      "fur": 3933,
      "Per": 3934,
      "मूल</w>": 3935,
      "last</w>": 3936,
      "मेरा</w>": 3937,
      "bed</w>": 3938,
      "main</w>": 3939,
      "ends</w>": 3940,
      "row</w>": 3941,
      "wit": 3942,
      "icy</w>": 3943,
      "पन्न</w>": 3944,
      "stor": 3945,
      "olution</w>": 3946,
      "evil</w>": 3947,
      "htt": 3948,
      "इनकार</w>": 3949,
      "New</w>": 3950,
      "ular</w>": 3951,
      "मर्": 3952,
      "थो": 3953,
      "भग</w>": 3954,
      "लेख</w>": 3955,
      "others</w>": 3956,
      "तुमसे</w>": 3957,
      "os": 3958,
      "ज्यादा</w>": 3959,
      "ably</w>": 3960,
      "play</w>": 3961,
      "rit": 3962,
      "पश्चा": 3963,
      "विधान</w>": 3964,
      "मार": 3965,
      "रिक्त</w>": 3966,
      "भूमि</w>": 3967,
      "hol": 3968,
      "धर्म</w>": 3969,
      "due</w>": 3970,
      "उत्तर</w>": 3971,
      "del": 3972,
      "धे</w>": 3973,
      "amount</w>": 3974,
      "सारे</w>": 3975,
      "शि</w>": 3976,
      "क़ौ": 3977,
      "better</w>": 3978,
      "रखते</w>": 3979,
      "निम्": 3980,
      "ren": 3981,
      "कहीं</w>": 3982,
      "पर्या": 3983,
      "मूल्य</w>": 3984,
      "ines</w>": 3985,
      "बे</w>": 3986,
      "स्ति": 3987,
      "bur": 3988,
      "सरी</w>": 3989,
      "आका": 3990,
      "समस्": 3991,
      "consider": 3992,
      "human</w>": 3993,
      "प्रणाली</w>": 3994,
      "ination</w>": 3995,
      "प्रि": 3996,
      "ल्ली</w>": 3997,
      "ements</w>": 3998,
      "लगभग</w>": 3999,
      "tural</w>": 4000,
      "ron": 4001,
      "ris": 4002,
      "आने</w>": 4003,
      "दू</w>": 4004,
      "pay": 4005,
      "तार</w>": 4006,
      "जानकारी</w>": 4007,
      "जनता</w>": 4008,
      "रचना</w>": 4009,
      "कार्यक्रम</w>": 4010,
      "ँगे</w>": 4011,
      "set": 4012,
      "contro": 4013,
      "निशा": 4014,
      "ery</w>": 4015,
      "क़ी": 4016,
      "plac": 4017,
      "Ab": 4018,
      "तरी": 4019,
      "अर्थ</w>": 4020,
      "concer": 4021,
      "too</w>": 4022,
      "शं": 4023,
      "small</w>": 4024,
      "संगठ": 4025,
      "197": 4026,
      "द्ध": 4027,
      "ight</w>": 4028,
      "अवधि</w>": 4029,
      "25</w>": 4030,
      "ईमान": 4031,
      "काफी</w>": 4032,
      "left</w>": 4033,
      "beg": 4034,
      "ease</w>": 4035,
      "ंश</w>": 4036,
      "rela": 4037,
      "poli": 4038,
      "सै": 4039,
      "पित</w>": 4040,
      "परा": 4041,
      "अच्छी</w>": 4042,
      "अभी</w>": 4043,
      "face</w>": 4044,
      "rought</w>": 4045,
      "कर्ता</w>": 4046,
      "ाई</w>": 4047,
      "समूह</w>": 4048,
      "position</w>": 4049,
      "लागू</w>": 4050,
      "ribu": 4051,
      "त्रु": 4052,
      "list</w>": 4053,
      "विश्वविद्": 4054,
      "ures</w>": 4055,
      "जानता</w>": 4056,
      "सों</w>": 4057,
      "जल</w>": 4058,
      "लू</w>": 4059,
      "परिवर्तन</w>": 4060,
      "ective</w>": 4061,
      "वहां</w>": 4062,
      "prof": 4063,
      "पर्क</w>": 4064,
      "रंग</w>": 4065,
      "heal": 4066,
      "प्रबंध": 4067,
      "available</w>": 4068,
      "ंद</w>": 4069,
      "कट</w>": 4070,
      "कोशि": 4071,
      "प्रती": 4072,
      "गर्": 4073,
      "education</w>": 4074,
      "194": 4075,
      "देख</w>": 4076,
      "सामाजिक</w>": 4077,
      "Ser": 4078,
      "पुरा": 4079,
      "grow": 4080,
      "cip": 4081,
      "जैसा</w>": 4082,
      "तू</w>": 4083,
      "शब्द</w>": 4084,
      "एन": 4085,
      "ones</w>": 4086,
      "त्रि": 4087,
      "सल": 4088,
      "http</w>": 4089,
      "sions</w>": 4090,
      "राम</w>": 4091,
      "Lo": 4092,
      "mul": 4093,
      "वर्त": 4094,
      "मामले</w>": 4095,
      "जाय": 4096,
      "arm": 4097,
      "lu": 4098,
      "ारी": 4099,
      "sc": 4100,
      "ख्या": 4101,
      "sit": 4102,
      "ferred</w>": 4103,
      "पस</w>": 4104,
      "ion</w>": 4105,
      "कम": 4106,
      "क़ि": 4107,
      "stat": 4108,
      "राशि</w>": 4109,
      "निस्": 4110,
      "सेवा": 4111,
      "ध्य</w>": 4112,
      "जों</w>": 4113,
      "ended</w>": 4114,
      "process</w>": 4115,
      "hand</w>": 4116,
      "शील</w>": 4117,
      "):</w>": 4118,
      "न्द</w>": 4119,
      "प्रस्तु": 4120,
      "van</w>": 4121,
      "One</w>": 4122,
      "कला": 4123,
      "फ़ोल्डर</w>": 4124,
      "lear": 4125,
      "मज": 4126,
      "igh": 4127,
      "rit</w>": 4128,
      "ator</w>": 4129,
      "pen": 4130,
      "large</w>": 4131,
      "Sch": 4132,
      "नाथ</w>": 4133,
      "देशी</w>": 4134,
      "versity</w>": 4135,
      "exist": 4136,
      "towards</w>": 4137,
      "pop": 4138,
      "eme</w>": 4139,
      "member</w>": 4140,
      "आधार": 4141,
      "बराबर</w>": 4142,
      "आदेश</w>": 4143,
      "ious</w>": 4144,
      "सिवा</w>": 4145,
      "jee</w>": 4146,
      "काम": 4147,
      "साल</w>": 4148,
      "AR": 4149,
      "कानू": 4150,
      "resul": 4151,
      "prot": 4152,
      "ट्टी</w>": 4153,
      "संस्था": 4154,
      "क़ु": 4155,
      "आया</w>": 4156,
      "poin": 4157,
      "समाज</w>": 4158,
      "mm": 4159,
      "र्फ</w>": 4160,
      "Book</w>": 4161,
      "इस्": 4162,
      "करो": 4163,
      "नियों</w>": 4164,
      "जाएगी</w>": 4165,
      "appro": 4166,
      "tal": 4167,
      "bring</w>": 4168,
      "Wor": 4169,
      "तने</w>": 4170,
      "जोड़": 4171,
      "law</w>": 4172,
      "समि": 4173,
      "sto": 4174,
      "ल्म</w>": 4175,
      "उसको</w>": 4176,
      "उद्योग</w>": 4177,
      ":/": 4178,
      "ability</w>": 4179,
      "आवश्यक</w>": 4180,
      "लिखित</w>": 4181,
      "vo": 4182,
      "षित</w>": 4183,
      "विधि</w>": 4184,
      "न्य": 4185,
      "निर्ण": 4186,
      "Central</w>": 4187,
      "डल</w>": 4188,
      "हाल</w>": 4189,
      "Gu": 4190,
      "ys": 4191,
      "195": 4192,
      "enger</w>": 4193,
      "टों</w>": 4194,
      "संदेह</w>": 4195,
      "high</w>": 4196,
      "af": 4197,
      "boo": 4198,
      "साहि": 4199,
      "reas": 4200,
      "Pr": 4201,
      "सिक</w>": 4202,
      "func": 4203,
      "Dis": 4204,
      "योजन</w>": 4205,
      "प्रभाव</w>": 4206,
      "दाय": 4207,
      "language</w>": 4208,
      "An</w>": 4209,
      "Raj": 4210,
      "son</w>": 4211,
      "स्वीकार</w>": 4212,
      "value</w>": 4213,
      "stand</w>": 4214,
      "लाल</w>": 4215,
      "क्षमता</w>": 4216,
      "जगह</w>": 4217,
      "जानते</w>": 4218,
      "window</w>": 4219,
      "ंक": 4220,
      "ब्र": 4221,
      "heavens</w>": 4222,
      "deli": 4223,
      "Indeed</w>": 4224,
      "ession</w>": 4225,
      "ques": 4226,
      "ंगी</w>": 4227,
      "उदा": 4228,
      "प्रयास</w>": 4229,
      "कोर्इ</w>": 4230,
      "सुरक्षा</w>": 4231,
      "नए</w>": 4232,
      "पूछ": 4233,
      "Cha": 4234,
      "क्षा": 4235,
      "डियो</w>": 4236,
      "कल्प</w>": 4237,
      "क़ौम</w>": 4238,
      "ंजी</w>": 4239,
      "रहने</w>": 4240,
      "Inter": 4241,
      "दिर</w>": 4242,
      "जिससे</w>": 4243,
      "tog": 4244,
      "तू": 4245,
      "again</w>": 4246,
      "nation</w>": 4247,
      "://</w>": 4248,
      "रस्": 4249,
      "मार</w>": 4250,
      "गं": 4251,
      "thou</w>": 4252,
      "नल</w>": 4253,
      "brought</w>": 4254,
      "ंगा</w>": 4255,
      "पार्": 4256,
      "elec": 4257,
      "Rs</w>": 4258,
      "tes</w>": 4259,
      "seen</w>": 4260,
      "pose</w>": 4261,
      "und": 4262,
      "remo": 4263,
      "tries</w>": 4264,
      "Isla": 4265,
      "Ver": 4266,
      "pe</w>": 4267,
      "punishment</w>": 4268,
      "ars</w>": 4269,
      "ेगी</w>": 4270,
      "स्ट</w>": 4271,
      "¤¾</w>": 4272,
      "ances</w>": 4273,
      "fiel": 4274,
      "द्य": 4275,
      "धित</w>": 4276,
      "dest": 4277,
      "धियों</w>": 4278,
      "ick</w>": 4279,
      "kher": 4280,
      "बच्च": 4281,
      "family</w>": 4282,
      "full</w>": 4283,
      "आवश्यकता</w>": 4284,
      "social</w>": 4285,
      "शों</w>": 4286,
      "नया</w>": 4287,
      "तुमने</w>": 4288,
      "divid": 4289,
      "ening</w>": 4290,
      "नन</w>": 4291,
      "एम": 4292,
      "पुर</w>": 4293,
      "तिम</w>": 4294,
      "nat": 4295,
      "15": 4296,
      "निष्": 4297,
      "him": 4298,
      "together</w>": 4299,
      "पक</w>": 4300,
      "outh</w>": 4301,
      "अनुसं": 4302,
      "allow": 4303,
      "रहते</w>": 4304,
      "गें</w>": 4305,
      "न्</w>": 4306,
      "kherjee</w>": 4307,
      "यं": 4308,
      "वक्त</w>": 4309,
      "Ban": 4310,
      "गे": 4311,
      "Who</w>": 4312,
      "डा</w>": 4313,
      "something</w>": 4314,
      "ey": 4315,
      "standing</w>": 4316,
      "employ": 4317,
      "prin": 4318,
      "अतिरिक्त</w>": 4319,
      "early</w>": 4320,
      "clause</w>": 4321,
      "proper": 4322,
      "think</w>": 4323,
      "ढा": 4324,
      "compu": 4325,
      "ized</w>": 4326,
      "आए</w>": 4327,
      "फर": 4328,
      "उम्": 4329,
      "लेने</w>": 4330,
      "जवा": 4331,
      "मूसा</w>": 4332,
      "14</w>": 4333,
      "धारण</w>": 4334,
      "call</w>": 4335,
      "associ": 4336,
      "ऋण</w>": 4337,
      "उत्पादन</w>": 4338,
      "सही</w>": 4339,
      "conn": 4340,
      "अंतर्गत</w>": 4341,
      "open</w>": 4342,
      "book</w>": 4343,
      "कहने</w>": 4344,
      "ills</w>": 4345,
      "isions</w>": 4346,
      "Vi": 4347,
      "cause</w>": 4348,
      "चुके</w>": 4349,
      "विभाग</w>": 4350,
      "उपा": 4351,
      "war</w>": 4352,
      "छु": 4353,
      "pow": 4354,
      "service</w>": 4355,
      "ज़ी</w>": 4356,
      "words</w>": 4357,
      "कृतिक</w>": 4358,
      "छोड़</w>": 4359,
      "turned</w>": 4360,
      "maj": 4361,
      "til</w>": 4362,
      "वर्ग</w>": 4363,
      "लाई</w>": 4364,
      "Ta": 4365,
      "¥</w>": 4366,
      "true</w>": 4367,
      "Am": 4368,
      "गति": 4369,
      "ख़ा": 4370,
      "वाई</w>": 4371,
      "रखने</w>": 4372,
      "fully</w>": 4373,
      "क्तियों</w>": 4374,
      "ंगा": 4375,
      "बह": 4376,
      "four</w>": 4377,
      "Rash": 4378,
      "fic</w>": 4379,
      "urity</w>": 4380,
      "ential</w>": 4381,
      "भाव</w>": 4382,
      "Bhavan</w>": 4383,
      "पश्चि": 4384,
      "यातना</w>": 4385,
      "nov": 4386,
      "mind</w>": 4387,
      "wea": 4388,
      "विशि": 4389,
      "Sel": 4390,
      "वास्तव</w>": 4391,
      "free</w>": 4392,
      "ls</w>": 4393,
      "nic</w>": 4394,
      "tors</w>": 4395,
      "stra": 4396,
      "respect</w>": 4397,
      "मनु": 4398,
      "he": 4399,
      "roo": 4400,
      "लकर</w>": 4401,
      "यामत</w>": 4402,
      "द्धा": 4403,
      "sol": 4404,
      "नाग": 4405,
      "tee</w>": 4406,
      "jects</w>": 4407,
      "हुक्": 4408,
      "राह</w>": 4409,
      "छि": 4410,
      "yer</w>": 4411,
      "ened</w>": 4412,
      "16</w>": 4413,
      "उद्दे": 4414,
      "वित्": 4415,
      "pati</w>": 4416,
      "TH": 4417,
      "villa": 4418,
      "na": 4419,
      "यात्रा</w>": 4420,
      "फल</w>": 4421,
      "every": 4422,
      "na</w>": 4423,
      "द्य</w>": 4424,
      "भावना</w>": 4425,
      "हाला": 4426,
      "मर": 4427,
      "off</w>": 4428,
      "दम</w>": 4429,
      "support</w>": 4430,
      "वर्तमान</w>": 4431,
      "यल</w>": 4432,
      "Amer": 4433,
      "नही</w>": 4434,
      "बद्ध</w>": 4435,
      "han</w>": 4436,
      "माना</w>": 4437,
      "publ": 4438,
      "टक</w>": 4439,
      "अनुसंधान</w>": 4440,
      "फू": 4441,
      "सिर्फ</w>": 4442,
      "Americ": 4443,
      "point</w>": 4444,
      "mad</w>": 4445,
      "ti</w>": 4446,
      "matter</w>": 4447,
      "वर्षों</w>": 4448,
      "जिन्हें</w>": 4449,
      "कूल</w>": 4450,
      "ource</w>": 4451,
      "gen": 4452,
      "सुन": 4453,
      "manag": 4454,
      "dly</w>": 4455,
      "Gener": 4456,
      "पड़े</w>": 4457,
      "नत</w>": 4458,
      "पक्ष": 4459,
      "वृत्": 4460,
      "आकार</w>": 4461,
      "कला</w>": 4462,
      "ateg": 4463,
      "चुका</w>": 4464,
      "provided</w>": 4465,
      "head</w>": 4466,
      "data</w>": 4467,
      "प्रधान": 4468,
      "चन</w>": 4469,
      "area</w>": 4470,
      "सफल</w>": 4471,
      "site</w>": 4472,
      "छोड़": 4473,
      "ala</w>": 4474,
      "स्तु</w>": 4475,
      "nature</w>": 4476,
      "ड्": 4477,
      "economic</w>": 4478,
      "उपधारा</w>": 4479,
      "already</w>": 4480,
      "gave</w>": 4481,
      "bir": 4482,
      "कौन</w>": 4483,
      "tives</w>": 4484,
      "संपर्क</w>": 4485,
      "gm</w>": 4486,
      "जान</w>": 4487,
      "dou": 4488,
      "प्ति</w>": 4489,
      "charac": 4490,
      "might</w>": 4491,
      "लोक</w>": 4492,
      "Your</w>": 4493,
      "जमा</w>": 4494,
      "प्रदेश</w>": 4495,
      "्रो": 4496,
      "Rashtra": 4497,
      "depend": 4498,
      "So": 4499,
      "कम्": 4500,
      "parti": 4501,
      "Sub": 4502,
      "structure</w>": 4503,
      "आख़ि": 4504,
      "अधिकारी</w>": 4505,
      "इतिहा": 4506,
      "हमारा</w>": 4507,
      "based</w>": 4508,
      "ji</w>": 4509,
      "sion": 4510,
      "परियोजना</w>": 4511,
      "दक्षि": 4512,
      "far</w>": 4513,
      "दाय</w>": 4514,
      "स्वास्थ": 4515,
      "ext": 4516,
      "दूसरी</w>": 4517,
      "जह": 4518,
      "death</w>": 4519,
      "acy</w>": 4520,
      "दुर्": 4521,
      "हे</w>": 4522,
      "टल</w>": 4523,
      "Gand": 4524,
      "Op": 4525,
      "rep": 4526,
      "डिया</w>": 4527,
      "मुद्र": 4528,
      "ization</w>": 4529,
      "यक़ी": 4530,
      "ster</w>": 4531,
      "promis": 4532,
      "partic": 4533,
      "चै": 4534,
      "whole</w>": 4535,
      "group</w>": 4536,
      "क्षम</w>": 4537,
      "पहचा": 4538,
      "half</w>": 4539,
      "signs</w>": 4540,
      "Delhi</w>": 4541,
      "chi": 4542,
      "ling</w>": 4543,
      "vious</w>": 4544,
      "कल्प": 4545,
      "युद्ध</w>": 4546,
      "Bri": 4547,
      "तुमको</w>": 4548,
      "liter": 4549,
      "Those</w>": 4550,
      "ht": 4551,
      "ours</w>": 4552,
      "सहयोग</w>": 4553,
      "तरा": 4554,
      "ublic</w>": 4555,
      "ury</w>": 4556,
      "Co": 4557,
      "To": 4558,
      "भूमि": 4559,
      "लाम</w>": 4560,
      "नाएं</w>": 4561,
      "विक": 4562,
      "prac": 4563,
      "भाई</w>": 4564,
      "type</w>": 4565,
      "व्यापार</w>": 4566,
      "liam": 4567,
      "वहाँ</w>": 4568,
      "वस्तु</w>": 4569,
      "उद्देश्य</w>": 4570,
      "non</w>": 4571,
      "hab": 4572,
      "Rashtrapati</w>": 4573,
      "dom": 4574,
      "took</w>": 4575,
      "ग्राम</w>": 4576,
      "irs</w>": 4577,
      "services</w>": 4578,
      "क्रम": 4579,
      "क्रिया": 4580,
      "interest</w>": 4581,
      "प्रशि": 4582,
      "निर": 4583,
      "र्च</w>": 4584,
      "gri": 4585,
      "entation</w>": 4586,
      "निर्णय</w>": 4587,
      "DI": 4588,
      "countries</w>": 4589,
      "स्तान</w>": 4590,
      "अस": 4591,
      "conc": 4592,
      "निवा": 4593,
      "following</w>": 4594,
      "थीं</w>": 4595,
      "निर्धारित</w>": 4596,
      "return</w>": 4597,
      "tory</w>": 4598,
      "हुक्म</w>": 4599,
      "night</w>": 4600,
      "रिश्": 4601,
      "झुठ": 4602,
      "aw": 4603,
      "above</w>": 4604,
      "bal</w>": 4605,
      "hold</w>": 4606,
      "level</w>": 4607,
      "making</w>": 4608,
      "समझ</w>": 4609,
      "दगी</w>": 4610,
      "गम</w>": 4611,
      "Sing": 4612,
      "सदस्य</w>": 4613,
      "including</w>": 4614,
      "UR": 4615,
      "न्यायालय</w>": 4616,
      "रोध</w>": 4617,
      "हमे": 4618,
      "giving</w>": 4619,
      "inal</w>": 4620,
      "ER": 4621,
      "दिल्ली</w>": 4622,
      "कट": 4623,
      "अंग्रे": 4624,
      "नव": 4625,
      "परन्तु</w>": 4626,
      "ोर</w>": 4627,
      "हरण</w>": 4628,
      "ference</w>": 4629,
      "मानव</w>": 4630,
      "ENT</w>": 4631,
      "himself</w>": 4632,
      "little</w>": 4633,
      "दृष्टि</w>": 4634,
      "कर्म": 4635,
      "जित</w>": 4636,
      "रु</w>": 4637,
      "food</w>": 4638,
      "using</w>": 4639,
      "areas</w>": 4640,
      "¤</w>": 4641,
      "पाद": 4642,
      "जें</w>": 4643,
      "provide</w>": 4644,
      "सम्बन्": 4645,
      "few</w>": 4646,
      "streng": 4647,
      "प्रधानमंत्री</w>": 4648,
      "अला": 4649,
      "अपे": 4650,
      "मुसल": 4651,
      "रुप": 4652,
      "पालन</w>": 4653,
      "स्वास्थ्य</w>": 4654,
      "ith": 4655,
      "एक्": 4656,
      "ched</w>": 4657,
      "नै": 4658,
      "सीमा</w>": 4659,
      "rate</w>": 4660,
      "post": 4661,
      "शरीर</w>": 4662,
      "लाइन</w>": 4663,
      "किस</w>": 4664,
      "थम</w>": 4665,
      "lies</w>": 4666,
      "¤°</w>": 4667,
      "जिनके</w>": 4668,
      "भर": 4669,
      "ancial</w>": 4670,
      "kgm</w>": 4671,
      "देखते</w>": 4672,
      "हमेशा</w>": 4673,
      "Jo": 4674,
      "प्रश्": 4675,
      "having</w>": 4676,
      "what": 4677,
      "छोटे</w>": 4678,
      "coll": 4679,
      "benef": 4680,
      "Sec": 4681,
      "बेहतर</w>": 4682,
      "पोर्ट</w>": 4683,
      "सुधार</w>": 4684,
      "इतिहास</w>": 4685,
      "goo": 4686,
      "सार्": 4687,
      "ग्री</w>": 4688,
      "fre": 4689,
      "झा": 4690,
      "देगा</w>": 4691,
      "प्रस्तुत</w>": 4692,
      "लक</w>": 4693,
      "बाद": 4694,
      "बच्चों</w>": 4695,
      "मंत्रा": 4696,
      "tation</w>": 4697,
      "विश्वविद्यालय</w>": 4698,
      "पक": 4699,
      "संसा": 4700,
      "possible</w>": 4701,
      "केंद्र</w>": 4702,
      "ker</w>": 4703,
      "वास्ते</w>": 4704,
      "संर": 4705,
      "ब्रि": 4706,
      "बनाए</w>": 4707,
      "Rec": 4708,
      "दिल</w>": 4709,
      "त्रता</w>": 4710,
      "lion</w>": 4711,
      "love</w>": 4712,
      "initi": 4713,
      "हक़</w>": 4714,
      "until</w>": 4715,
      "डर": 4716,
      "अमेरिका</w>": 4717,
      "घु": 4718,
      "निर्धारण</w>": 4719,
      "hearts</w>": 4720,
      "members</w>": 4721,
      "necess": 4722,
      "still</w>": 4723,
      "policy</w>": 4724,
      "योजित</w>": 4725,
      "guid": 4726,
      "विकसित</w>": 4727,
      "around</w>": 4728,
      "look</w>": 4729,
      "क़्": 4730,
      "ately</w>": 4731,
      "णन</w>": 4732,
      "individ": 4733,
      "वस्तु": 4734,
      "invest": 4735,
      "ples</w>": 4736,
      "ah</w>": 4737,
      "operation</w>": 4738,
      "fel": 4739,
      "rul": 4740,
      "परिणाम</w>": 4741,
      "tom": 4742,
      "deeds</w>": 4743,
      "कैसे</w>": 4744,
      "वृद्धि</w>": 4745,
      "don</w>": 4746,
      "क्ता</w>": 4747,
      "ON</w>": 4748,
      "विदेशी</w>": 4749,
      "ger</w>": 4750,
      "continu": 4751,
      "ीकरण</w>": 4752,
      "कित्": 4753,
      "आग</w>": 4754,
      "चू": 4755,
      "capital</w>": 4756,
      "industri": 4757,
      "viron": 4758,
      "र्ष</w>": 4759,
      "प्रमाण": 4760,
      "जिन्होंने</w>": 4761,
      "five</w>": 4762,
      "Sha": 4763,
      "संबंधी</w>": 4764,
      "desh</w>": 4765,
      "whether</w>": 4766,
      "तहत</w>": 4767,
      "सिंह</w>": 4768,
      "PRE": 4769,
      "pati": 4770,
      "house</w>": 4771,
      "ख़ु": 4772,
      "increas": 4773,
      "minist": 4774,
      "faith</w>": 4775,
      "ilities</w>": 4776,
      "अग्र": 4777,
      "प्रस्ता": 4778,
      "Me": 4779,
      "follow</w>": 4780,
      "ची</w>": 4781,
      "ough</w>": 4782,
      "certain</w>": 4783,
      "tish</w>": 4784,
      "संस्थान</w>": 4785,
      "अफ": 4786,
      "सार": 4787,
      "fact</w>": 4788,
      "society</w>": 4789,
      "orig": 4790,
      "worship</w>": 4791,
      "टि</w>": 4792,
      "वत</w>": 4793,
      "ंति</w>": 4794,
      "Cour": 4795,
      "tual</w>": 4796,
      "स्‍": 4797,
      "ously</w>": 4798,
      "bar": 4799,
      "Col": 4800,
      "fer</w>": 4801,
      "oura": 4802,
      "contain": 4803,
      "reg": 4804,
      "स्थानीय</w>": 4805,
      "वीं</w>": 4806,
      "always</w>": 4807,
      "occas": 4808,
      "ak</w>": 4809,
      "posed</w>": 4810,
      "ret": 4811,
      "प्रथम</w>": 4812,
      "तरण</w>": 4813,
      "राष्ट्र</w>": 4814,
      "टर": 4815,
      "Pe": 4816,
      "13</w>": 4817,
      "ve": 4818,
      "achi": 4819,
      "whose</w>": 4820,
      "dr": 4821,
      "sector</w>": 4822,
      "expres": 4823,
      "Rem": 4824,
      "meas": 4825,
      "टै": 4826,
      "अक्": 4827,
      "मौजूद</w>": 4828,
      "सक्रि": 4829,
      "चारों</w>": 4830,
      "tainly</w>": 4831,
      "States</w>": 4832,
      "believed</w>": 4833,
      "पत्ति</w>": 4834,
      "formed</w>": 4835,
      "fav": 4836,
      "आधारित</w>": 4837,
      "tem": 4838,
      "स्क</w>": 4839,
      "project</w>": 4840,
      "hon": 4841,
      "tics</w>": 4842,
      "ai</w>": 4843,
      "bility</w>": 4844,
      "ath": 4845,
      "ab</w>": 4846,
      "Coun": 4847,
      "dh": 4848,
      "अधिक": 4849,
      "fra": 4850,
      "भेजा</w>": 4851,
      "pur</w>": 4852,
      "10": 4853,
      "बदला</w>": 4854,
      "स्वरूप</w>": 4855,
      "ारो": 4856,
      "दस्ता": 4857,
      "effor": 4858,
      "ME</w>": 4859,
      "झू": 4860,
      "CO": 4861,
      "परंतु</w>": 4862,
      "ried</w>": 4863,
      "mov": 4864,
      "निवेश</w>": 4865,
      "शर्": 4866,
      "main": 4867,
      "डे</w>": 4868,
      "nothing</w>": 4869,
      "अंतिम</w>": 4870,
      "held</w>": 4871,
      "द्वि": 4872,
      "hammad</w>": 4873,
      "political</w>": 4874,
      "किये</w>": 4875,
      "गुण": 4876,
      "ffici": 4877,
      "therefore</w>": 4878,
      "contribu": 4879,
      "विवरण</w>": 4880,
      "निधि</w>": 4881,
      "key</w>": 4882,
      "SID": 4883,
      "स्थापना</w>": 4884,
      "common</w>": 4885,
      "partment</w>": 4886,
      "साइट</w>": 4887,
      "न्यास</w>": 4888,
      "istry</w>": 4889,
      "सद</w>": 4890,
      "पाया</w>": 4891,
      "obe": 4892,
      "yet</w>": 4893,
      "तृ": 4894,
      "निस्संदेह</w>": 4895,
      "प्राधि": 4896,
      "अनुम": 4897,
      "Please</w>": 4898,
      "लगता</w>": 4899,
      "साझ": 4900,
      "isation</w>": 4901,
      "पाल</w>": 4902,
      "sing": 4903,
      "लिम</w>": 4904,
      "दारों</w>": 4905,
      "folder</w>": 4906,
      "cy</w>": 4907,
      "uro": 4908,
      "जल्": 4909,
      "Beng": 4910,
      "जिसकी</w>": 4911,
      "thee</w>": 4912,
      "pleas": 4913,
      "top</w>": 4914,
      "समाप्त</w>": 4915,
      "sever": 4916,
      "चीन</w>": 4917,
      "keep</w>": 4918,
      "ेद</w>": 4919,
      "either</w>": 4920,
      "bea": 4921,
      "ics</w>": 4922,
      "मेल</w>": 4923,
      "मंदिर</w>": 4924,
      "wise</w>": 4925,
      "पुरु": 4926,
      "create</w>": 4927,
      "100</w>": 4928,
      "ering</w>": 4929,
      "णि": 4930,
      "ground</w>": 4931,
      "squ": 4932,
      "आवे": 4933,
      "rest</w>": 4934,
      "cum": 4935,
      "La": 4936,
      "2014</w>": 4937,
      "show</w>": 4938,
      "Govern": 4939,
      "दस्तावे": 4940,
      "चिकित्": 4941,
      "forms</w>": 4942,
      "religion</w>": 4943,
      "विशिष्ट</w>": 4944,
      "गुना": 4945,
      "और": 4946,
      "ern</w>": 4947,
      "Prov": 4948,
      "ternal</w>": 4949,
      "youn": 4950,
      "तत्": 4951,
      "stitution</w>": 4952,
      "tivi": 4953,
      "संघ</w>": 4954,
      "ew": 4955,
      "ped</w>": 4956,
      "ज़िल</w>": 4957,
      "uti": 4958,
      "ऊर्": 4959,
      "नौ": 4960,
      "तियां</w>": 4961,
      "छवि</w>": 4962,
      "18</w>": 4963,
      "growth</w>": 4964,
      "बंद</w>": 4965,
      "wat": 4966,
      "रहता</w>": 4967,
      "वित्तीय</w>": 4968,
      "सका</w>": 4969,
      "मानों</w>": 4970,
      "trac": 4971,
      "मध्य</w>": 4972,
      "मत": 4973,
      "संयुक्त</w>": 4974,
      "va</w>": 4975,
      "कर्म</w>": 4976,
      "विभा": 4977,
      "along</w>": 4978,
      "course</w>": 4979,
      "वरी</w>": 4980,
      "खोज</w>": 4981,
      "बत</w>": 4982,
      "जाओ</w>": 4983,
      "मूर्": 4984,
      "24</w>": 4985,
      "received</w>": 4986,
      "ners</w>": 4987,
      "fail": 4988,
      "tivity</w>": 4989,
      "नियंत्रण</w>": 4990,
      "bar</w>": 4991,
      "local</w>": 4992,
      "तकनी": 4993,
      "control</w>": 4994,
      "portun": 4995,
      "Ha": 4996,
      "प्रवेश</w>": 4997,
      "सिद्ध</w>": 4998,
      "flu": 4999,
      "equal</w>": 5000,
      "ge": 5001,
      "म्बर</w>": 5002,
      "where": 5003,
      "term</w>": 5004,
      "cir": 5005,
      "Muhammad</w>": 5006,
      "योग्य</w>": 5007,
      "address</w>": 5008,
      "How</w>": 5009,
      "taking</w>": 5010,
      "Qu": 5011,
      "mental</w>": 5012,
      "¥</w>": 5013,
      "पुनर्": 5014,
      "Hindi</w>": 5015,
      "thir": 5016,
      "agre": 5017,
      "बार": 5018,
      "चर्": 5019,
      "मॉ": 5020,
      "लर</w>": 5021,
      "जहाँ</w>": 5022,
      "further</w>": 5023,
      "British</w>": 5024,
      "जहन्": 5025,
      "Show</w>": 5026,
      "ूब</w>": 5027,
      "्री": 5028,
      "मंत्रालय</w>": 5029,
      "भुग": 5030,
      "became</w>": 5031,
      "technology</w>": 5032,
      "इस्त": 5033,
      "दियों</w>": 5034,
      "कवि": 5035,
      "लयों</w>": 5036,
      "सरकारी</w>": 5037,
      "accep": 5038,
      "path</w>": 5039,
      "Engl": 5040,
      "ka</w>": 5041,
      "cop": 5042,
      "हिस्सा</w>": 5043,
      "gy</w>": 5044,
      "कृप": 5045,
      "बर्": 5046,
      "19</w>": 5047,
      "hor": 5048,
      "ources</w>": 5049,
      "pan": 5050,
      "total</w>": 5051,
      "Can": 5052,
      "बाहरी</w>": 5053,
      "Offic": 5054,
      "भूमिका</w>": 5055,
      "सिल</w>": 5056,
      "sho": 5057,
      "सहायक</w>": 5058,
      "Sy": 5059,
      "नाज़िल</w>": 5060,
      "tivities</w>": 5061,
      "ols</w>": 5062,
      "health</w>": 5063,
      "cribed</w>": 5064,
      "IS": 5065,
      "लाख</w>": 5066,
      "ached</w>": 5067,
      "At</w>": 5068,
      "एगा</w>": 5069,
      "समिति</w>": 5070,
      "16": 5071,
      "सत्य</w>": 5072,
      "ditions</w>": 5073,
      "प्रेर": 5074,
      "duce</w>": 5075,
      "strict</w>": 5076,
      "ड़ों</w>": 5077,
      "opportun": 5078,
      "ermin": 5079,
      "परिवार</w>": 5080,
      "अम": 5081,
      "conf": 5082,
      "दृश्य</w>": 5083,
      "म्ब": 5084,
      "Messenger</w>": 5085,
      "पौ": 5086,
      "teach": 5087,
      "leave</w>": 5088,
      "next</w>": 5089,
      "dia</w>": 5090,
      "वेब": 5091,
      "ण्ड</w>": 5092,
      "जाएँ</w>": 5093,
      "hat": 5094,
      "संविधान</w>": 5095,
      "आरंभ</w>": 5096,
      "Des": 5097,
      "लक्ष्य</w>": 5098,
      "Isra": 5099,
      "टू": 5100,
      "ports</w>": 5101,
      "सक्रिय</w>": 5102,
      "experi": 5103,
      "पहली</w>": 5104,
      "med</w>": 5105,
      "spe": 5106,
      "real": 5107,
      "क्षक</w>": 5108,
      "आर</w>": 5109,
      "incl": 5110,
      "मिला</w>": 5111,
      "idence</w>": 5112,
      "bra": 5113,
      "repres": 5114,
      "translation</w>": 5115,
      "She</w>": 5116,
      "probably</w>": 5117,
      "ize</w>": 5118,
      "उदाहरण</w>": 5119,
      "met": 5120,
      "Commit": 5121,
      "etwork</w>": 5122,
      "optional</w>": 5123,
      "पैग़": 5124,
      "Cont": 5125,
      "मनुष्य</w>": 5126,
      "works</w>": 5127,
      "ricul": 5128,
      "प्रबंधन</w>": 5129,
      "hu": 5130,
      "\"%</w>": 5131,
      "required</w>": 5132,
      "कठि": 5133,
      "कहा": 5134,
      "tiz": 5135,
      "vers</w>": 5136,
      "ditional</w>": 5137,
      "mater": 5138,
      "later</w>": 5139,
      "wrong</w>": 5140,
      "After</w>": 5141,
      "Cre": 5142,
      "hop": 5143,
      "knows</w>": 5144,
      "Mon": 5145,
      "SIDENT</w>": 5146,
      "lat": 5147,
      "Prime</w>": 5148,
      "पिछले</w>": 5149,
      "टिंग</w>": 5150,
      "प्रदर्": 5151,
      "pointed</w>": 5152,
      "ज़र</w>": 5153,
      "THE</w>": 5154,
      "gn": 5155,
      "Most</w>": 5156,
      "ali</w>": 5157,
      "लेते</w>": 5158,
      "पद</w>": 5159,
      "selected</w>": 5160,
      "जल": 5161,
      "recog": 5162,
      "PRESIDENT</w>": 5163,
      "ब्रा": 5164,
      "father</w>": 5165,
      "spea": 5166,
      "child</w>": 5167,
      "कृपया</w>": 5168,
      "नक</w>": 5169,
      "ज़े</w>": 5170,
      "Tru": 5171,
      "error</w>": 5172,
      "वैज्ञा": 5173,
      "home</w>": 5174,
      "17</w>": 5175,
      "21</w>": 5176,
      "अनुमति</w>": 5177,
      "commit": 5178,
      "अलावा</w>": 5179,
      "खाता</w>": 5180,
      "ner": 5181,
      "essing</w>": 5182,
      "सहित</w>": 5183,
      "दिनों</w>": 5184,
      "पूर्वक</w>": 5185,
      "sted</w>": 5186,
      "स्रो": 5187,
      "श्वर</w>": 5188,
      "Develop": 5189,
      "पसं": 5190,
      "नेवाला</w>": 5191,
      "dies</w>": 5192,
      "उत्तर": 5193,
      "पों</w>": 5194,
      "दिशा</w>": 5195,
      "क्र</w>": 5196,
      "application</w>": 5197,
      "एल</w>": 5198,
      "industry</w>": 5199,
      "समर्थन</w>": 5200,
      "न्यू": 5201,
      "Mer": 5202,
      "arly</w>": 5203,
      "hands</w>": 5204,
      "ज़रू": 5205,
      "नेवाले</w>": 5206,
      "dri": 5207,
      "Be": 5208,
      "रखता</w>": 5209,
      "क्रा": 5210,
      "भाग": 5211,
      "field</w>": 5212,
      "भुगतान</w>": 5213,
      "Tr": 5214,
      "web": 5215,
      "सामग्री</w>": 5216,
      "एम</w>": 5217,
      "शाली</w>": 5218,
      "दया": 5219,
      "eafter</w>": 5220,
      "production</w>": 5221,
      "ring</w>": 5222,
      "ल्क</w>": 5223,
      "संशो": 5224,
      "promo": 5225,
      "सहे": 5226,
      "Bi": 5227,
      "aries</w>": 5228,
      "ज्ञात</w>": 5229,
      "उत्पन्न</w>": 5230,
      "परे": 5231,
      "ष्</w>": 5232,
      "अपना": 5233,
      "लोड</w>": 5234,
      "moder": 5235,
      "compan": 5236,
      "second</w>": 5237,
      "भीतर</w>": 5238,
      "हरे</w>": 5239,
      "lied</w>": 5240,
      "Parliam": 5241,
      "संभव</w>": 5242,
      "cover": 5243,
      "Ministry</w>": 5244,
      "money</w>": 5245,
      "त्रुटि</w>": 5246,
      "NA": 5247,
      "Si": 5248,
      "several</w>": 5249,
      "went</w>": 5250,
      "ches</w>": 5251,
      "air</w>": 5252,
      "working</w>": 5253,
      "activities</w>": 5254,
      "इस्ते": 5255,
      "English</w>": 5256,
      "anted</w>": 5257,
      "certainly</w>": 5258,
      "गल</w>": 5259,
      "Ne": 5260,
      "अनुभव</w>": 5261,
      "Cl": 5262,
      "peti": 5263,
      "अध्ययन</w>": 5264,
      "आदमी</w>": 5265,
      "Singh</w>": 5266,
      "iting</w>": 5267,
      "research</w>": 5268,
      "22</w>": 5269,
      "pris": 5270,
      "fig": 5271,
      "आवा": 5272,
      "IC": 5273,
      "स्त्र</w>": 5274,
      "Direc": 5275,
      "विद्या": 5276,
      "hand": 5277,
      "University</w>": 5278,
      "2015</w>": 5279,
      "फ़ा": 5280,
      "सेट</w>": 5281,
      "आधु": 5282,
      "क़यामत</w>": 5283,
      "मृत्य": 5284,
      "मही": 5285,
      "ails</w>": 5286,
      "authority</w>": 5287,
      "da": 5288,
      "Af": 5289,
      "General</w>": 5290,
      "anything</w>": 5291,
      "अप्र": 5292,
      "वो</w>": 5293,
      "example</w>": 5294,
      "cam": 5295,
      "दिव": 5296,
      "hind</w>": 5297,
      "सर्वर</w>": 5298,
      "ध्व": 5299,
      "Ro": 5300,
      "glo": 5301,
      "forth</w>": 5302,
      "bal": 5303,
      "special</w>": 5304,
      "चले</w>": 5305,
      "ound": 5306,
      "सुनिश्चित</w>": 5307,
      "Moses</w>": 5308,
      "सम</w>": 5309,
      "मजबू": 5310,
      "sw": 5311,
      "खाते</w>": 5312,
      "ष्टि": 5313,
      "खेल</w>": 5314,
      "mme</w>": 5315,
      "impl": 5316,
      "आसमान</w>": 5317,
      "comes</w>": 5318,
      "Nor": 5319,
      "current</w>": 5320,
      "छ्": 5321,
      "फी": 5322,
      "साहित्य</w>": 5323,
      "valu": 5324,
      "struction</w>": 5325,
      "मृत्यु</w>": 5326,
      "let": 5327,
      "uses</w>": 5328,
      "डाक</w>": 5329,
      "doub": 5330,
      "quality</w>": 5331,
      "भूत</w>": 5332,
      "बच्चे</w>": 5333
    },
    "merges": [
      [
        "t",
        "h"
      ],
      [
        "a",
        "n"
      ],
      [
        "i",
        "n"
      ],
      [
        "th",
        "e</w>"
      ],
      [
        "क",
        "े</w>"
      ],
      [
        "्",
        "र"
      ],
      [
        "e",
        "r"
      ],
      [
        "े",
        "ं</w>"
      ],
      [
        "t",
        "i"
      ],
      [
        "e",
        "n"
      ],
      [
        "o",
        "f</w>"
      ],
      [
        "r",
        "e"
      ],
      [
        "ह",
        "ै</w>"
      ],
      [
        "a",
        "r"
      ],
      [
        "र",
        "्"
      ],
      [
        "e",
        "d</w>"
      ],
      [
        "न",
        "े</w>"
      ],
      [
        "म",
        "ें</w>"
      ],
      [
        "an",
        "d</w>"
      ],
      [
        "o",
        "n"
      ],
      [
        "ो",
        "ं</w>"
      ],
      [
        "o",
        "n</w>"
      ],
      [
        "o",
        "u"
      ],
      [
        "क",
        "ी</w>"
      ],
      [
        "औ",
        "र</w>"
      ],
      [
        "o",
        "r"
      ],
      [
        "स",
        "े</w>"
      ],
      [
        "ा",
        "र"
      ],
      [
        "t",
        "o</w>"
      ],
      [
        "य",
        "ा</w>"
      ],
      [
        "e",
        "r</w>"
      ],
      [
        "i",
        "s</w>"
      ],
      [
        "स",
        "्"
      ],
      [
        "in",
        "g</w>"
      ],
      [
        "प",
        "्र"
      ],
      [
        "i",
        "n</w>"
      ],
      [
        "a",
        "l"
      ],
      [
        "i",
        "t"
      ],
      [
        "क",
        "्"
      ],
      [
        "e",
        "s</w>"
      ],
      [
        "a",
        "t"
      ],
      [
        "त",
        "ा</w>"
      ],
      [
        "क",
        "ा</w>"
      ],
      [
        "s",
        "t"
      ],
      [
        "क",
        "र"
      ],
      [
        "r",
        "o"
      ],
      [
        "o",
        "r</w>"
      ],
      [
        "क",
        "ो</w>"
      ],
      [
        "h",
        "a"
      ],
      [
        "व",
        "ि"
      ],
      [
        "न",
        "्"
      ],
      [
        "क",
        "ा"
      ],
      [
        "म",
        "ा"
      ],
      [
        "व",
        "ा"
      ],
      [
        "त",
        "्"
      ],
      [
        "न",
        "ि"
      ],
      [
        "i",
        "l"
      ],
      [
        "ल",
        "ि"
      ],
      [
        "th",
        "e"
      ],
      [
        "e",
        "l"
      ],
      [
        "ti",
        "on</w>"
      ],
      [
        "i",
        "c"
      ],
      [
        "i",
        "s"
      ],
      [
        "a",
        "l</w>"
      ],
      [
        "क",
        "ि"
      ],
      [
        "e",
        "c"
      ],
      [
        "न",
        "ा</w>"
      ],
      [
        "a",
        "c"
      ],
      [
        "य",
        "ा"
      ],
      [
        "e",
        "s"
      ],
      [
        "o",
        "m"
      ],
      [
        "a",
        "t</w>"
      ],
      [
        "ज",
        "ा"
      ],
      [
        "स",
        "ं"
      ],
      [
        "w",
        "h"
      ],
      [
        "र",
        "ा"
      ],
      [
        "स",
        "ा"
      ],
      [
        "क",
        "ि</w>"
      ],
      [
        "T",
        "h"
      ],
      [
        "en",
        "t</w>"
      ],
      [
        "ै",
        "ं</w>"
      ],
      [
        "v",
        "e</w>"
      ],
      [
        "a",
        "s"
      ],
      [
        "a",
        "n</w>"
      ],
      [
        "u",
        "r"
      ],
      [
        "e",
        "n</w>"
      ],
      [
        "त",
        "े</w>"
      ],
      [
        "n",
        "o"
      ],
      [
        "a",
        "s</w>"
      ],
      [
        "d",
        "i"
      ],
      [
        "द",
        "्"
      ],
      [
        "ल",
        "ा"
      ],
      [
        "प",
        "र</w>"
      ],
      [
        "ह",
        "ैं</w>"
      ],
      [
        "द",
        "े"
      ],
      [
        "ह",
        "ो"
      ],
      [
        "l",
        "a"
      ],
      [
        "ि",
        "त</w>"
      ],
      [
        "लि",
        "ए</w>"
      ],
      [
        "s",
        "i"
      ],
      [
        "f",
        "or</w>"
      ],
      [
        "l",
        "e</w>"
      ],
      [
        "r",
        "i"
      ],
      [
        "त",
        "ु"
      ],
      [
        "ी",
        "ं</w>"
      ],
      [
        "ब",
        "ा"
      ],
      [
        "भ",
        "ी</w>"
      ],
      [
        "r",
        "a"
      ],
      [
        "क",
        "र</w>"
      ],
      [
        "l",
        "y</w>"
      ],
      [
        "l",
        "i"
      ],
      [
        "u",
        "n"
      ],
      [
        "द",
        "ि"
      ],
      [
        "त",
        "ि</w>"
      ],
      [
        "न",
        "ा"
      ],
      [
        "ए",
        "क</w>"
      ],
      [
        "ह",
        "ी</w>"
      ],
      [
        "o",
        "u</w>"
      ],
      [
        "th",
        "at</w>"
      ],
      [
        "e",
        "v"
      ],
      [
        "ह",
        "ा"
      ],
      [
        "e",
        "m"
      ],
      [
        "s",
        "e</w>"
      ],
      [
        "ह",
        "ीं</w>"
      ],
      [
        "क्",
        "ष"
      ],
      [
        "प",
        "ा"
      ],
      [
        "m",
        "a"
      ],
      [
        "ल",
        "्"
      ],
      [
        "अ",
        "प"
      ],
      [
        "ज",
        "ि"
      ],
      [
        "थ",
        "ा</w>"
      ],
      [
        "त",
        "ो</w>"
      ],
      [
        "a",
        "m"
      ],
      [
        "ड",
        "़"
      ],
      [
        "l",
        "o"
      ],
      [
        "p",
        "ro"
      ],
      [
        "न",
        "हीं</w>"
      ],
      [
        "त",
        "ि"
      ],
      [
        "ष",
        "्"
      ],
      [
        "s",
        "u"
      ],
      [
        "ह",
        "ु"
      ],
      [
        "स",
        "म"
      ],
      [
        "e",
        "t"
      ],
      [
        "y",
        "ou</w>"
      ],
      [
        "o",
        "l"
      ],
      [
        "a",
        "b"
      ],
      [
        "i",
        "t</w>"
      ],
      [
        "ज",
        "ो</w>"
      ],
      [
        "त",
        "ा"
      ],
      [
        "b",
        "e</w>"
      ],
      [
        "स",
        "ी</w>"
      ],
      [
        "य",
        "ो"
      ],
      [
        "Th",
        "e</w>"
      ],
      [
        "ar",
        "e</w>"
      ],
      [
        "o",
        "p"
      ],
      [
        "र",
        "ि"
      ],
      [
        "त",
        "ी</w>"
      ],
      [
        "s",
        "h"
      ],
      [
        "्",
        "य"
      ],
      [
        "c",
        "on"
      ],
      [
        "no",
        "t</w>"
      ],
      [
        "च",
        "ा"
      ],
      [
        "ह",
        "ो</w>"
      ],
      [
        "c",
        "e</w>"
      ],
      [
        "उ",
        "न"
      ],
      [
        "ल",
        "े</w>"
      ],
      [
        "ल",
        "ो"
      ],
      [
        "e",
        "a"
      ],
      [
        "en",
        "t"
      ],
      [
        "a",
        "tion</w>"
      ],
      [
        "न",
        "ी</w>"
      ],
      [
        "a",
        "g"
      ],
      [
        "it",
        "h</w>"
      ],
      [
        "उ",
        "स"
      ],
      [
        "c",
        "om"
      ],
      [
        "c",
        "h"
      ],
      [
        "er",
        "s</w>"
      ],
      [
        "म",
        "्"
      ],
      [
        "य",
        "ों</w>"
      ],
      [
        "म",
        "ु"
      ],
      [
        "द",
        "ा"
      ],
      [
        "श",
        "्"
      ],
      [
        "ti",
        "on"
      ],
      [
        "म",
        "ि"
      ],
      [
        "w",
        "ith</w>"
      ],
      [
        "er",
        "e</w>"
      ],
      [
        "भ",
        "ा"
      ],
      [
        "कि",
        "या</w>"
      ],
      [
        "b",
        "e"
      ],
      [
        "ज",
        "़"
      ],
      [
        "f",
        "or"
      ],
      [
        "al",
        "l</w>"
      ],
      [
        "I",
        "n"
      ],
      [
        "e",
        "x"
      ],
      [
        "र",
        "ह"
      ],
      [
        "य",
        "ह</w>"
      ],
      [
        "p",
        "o"
      ],
      [
        "s",
        "t</w>"
      ],
      [
        "i",
        "d"
      ],
      [
        "क",
        "ु"
      ],
      [
        "a",
        "y</w>"
      ],
      [
        "g",
        "h"
      ],
      [
        "ध",
        "ि"
      ],
      [
        "b",
        "y</w>"
      ],
      [
        "ou",
        "r</w>"
      ],
      [
        "द",
        "ा</w>"
      ],
      [
        "ou",
        "n"
      ],
      [
        "v",
        "er"
      ],
      [
        "क",
        "ो"
      ],
      [
        "इ",
        "स</w>"
      ],
      [
        "प",
        "ू"
      ],
      [
        "il",
        "l</w>"
      ],
      [
        "ल",
        "ा</w>"
      ],
      [
        "re",
        "s"
      ],
      [
        "त",
        "्र"
      ],
      [
        "ल",
        "े"
      ],
      [
        "स्",
        "थ"
      ],
      [
        "m",
        "ent</w>"
      ],
      [
        "ro",
        "m</w>"
      ],
      [
        "व",
        "ह</w>"
      ],
      [
        "a",
        "d"
      ],
      [
        "i",
        "r"
      ],
      [
        "at",
        "e</w>"
      ],
      [
        "ं",
        "ग"
      ],
      [
        "ार",
        "ा</w>"
      ],
      [
        "ha",
        "ve</w>"
      ],
      [
        "ह",
        "ि"
      ],
      [
        "f",
        "rom</w>"
      ],
      [
        "the",
        "y</w>"
      ],
      [
        "p",
        "l"
      ],
      [
        "का",
        "र</w>"
      ],
      [
        "र",
        "ू"
      ],
      [
        "w",
        "as</w>"
      ],
      [
        "कर",
        "ने</w>"
      ],
      [
        "य",
        "े</w>"
      ],
      [
        "d",
        "e"
      ],
      [
        "ी",
        "य</w>"
      ],
      [
        "t",
        "r"
      ],
      [
        "u",
        "l"
      ],
      [
        "it",
        "y</w>"
      ],
      [
        "t",
        "h</w>"
      ],
      [
        "ल",
        "ी</w>"
      ],
      [
        "th",
        "er</w>"
      ],
      [
        "w",
        "ill</w>"
      ],
      [
        "i",
        "r</w>"
      ],
      [
        "ार",
        "ी</w>"
      ],
      [
        "न",
        "ु"
      ],
      [
        "ग",
        "ा</w>"
      ],
      [
        "l",
        "d</w>"
      ],
      [
        "स",
        "ि"
      ],
      [
        "t",
        "s</w>"
      ],
      [
        "ह",
        "म"
      ],
      [
        "ज",
        "्"
      ],
      [
        "स",
        "क"
      ],
      [
        "b",
        "u"
      ],
      [
        "the",
        "m</w>"
      ],
      [
        "o",
        "o"
      ],
      [
        "h",
        "i"
      ],
      [
        "s",
        "e"
      ],
      [
        "th",
        "is</w>"
      ],
      [
        "त",
        "र"
      ],
      [
        "इ",
        "स"
      ],
      [
        "t",
        "a"
      ],
      [
        "A",
        "l"
      ],
      [
        "ख",
        "़"
      ],
      [
        "d",
        "s</w>"
      ],
      [
        "व",
        "र्"
      ],
      [
        "c",
        "i"
      ],
      [
        "म",
        "े"
      ],
      [
        "ार",
        "े</w>"
      ],
      [
        "d",
        "u"
      ],
      [
        "e",
        "ar"
      ],
      [
        "अप",
        "ने</w>"
      ],
      [
        "q",
        "u"
      ],
      [
        "ic",
        "h</w>"
      ],
      [
        "p",
        "er"
      ],
      [
        "श",
        "ा"
      ],
      [
        "ha",
        "s</w>"
      ],
      [
        "स",
        "ु"
      ],
      [
        "on",
        "e</w>"
      ],
      [
        "र",
        "ी</w>"
      ],
      [
        "w",
        "or"
      ],
      [
        "त्",
        "र</w>"
      ],
      [
        "a",
        "p"
      ],
      [
        "अ",
        "धि"
      ],
      [
        "ष्",
        "ट"
      ],
      [
        "wh",
        "ich</w>"
      ],
      [
        "t",
        "ed</w>"
      ],
      [
        "उ",
        "न्"
      ],
      [
        "उ",
        "प"
      ],
      [
        "f",
        "f"
      ],
      [
        "s",
        "p"
      ],
      [
        "m",
        "o"
      ],
      [
        "wh",
        "o</w>"
      ],
      [
        "ध",
        "ा"
      ],
      [
        "स",
        "ू"
      ],
      [
        "भ",
        "ार"
      ],
      [
        "g",
        "i"
      ],
      [
        "d",
        "o"
      ],
      [
        "m",
        "e</w>"
      ],
      [
        "क",
        "़"
      ],
      [
        "न",
        "े"
      ],
      [
        "the",
        "ir</w>"
      ],
      [
        "A",
        "n"
      ],
      [
        "s",
        "a"
      ],
      [
        "ou",
        "ld</w>"
      ],
      [
        "च",
        "्"
      ],
      [
        "श",
        "ि"
      ],
      [
        "क",
        "्र"
      ],
      [
        "t",
        "er</w>"
      ],
      [
        "e",
        "t</w>"
      ],
      [
        "प",
        "्"
      ],
      [
        "न",
        "ों</w>"
      ],
      [
        "व",
        "े</w>"
      ],
      [
        "अ",
        "नु"
      ],
      [
        "तु",
        "म</w>"
      ],
      [
        "h",
        "is</w>"
      ],
      [
        "क",
        "ह"
      ],
      [
        "i",
        "m"
      ],
      [
        "In",
        "di"
      ],
      [
        "t",
        "er"
      ],
      [
        "tion",
        "s</w>"
      ],
      [
        "u",
        "s"
      ],
      [
        "c",
        "h</w>"
      ],
      [
        "es",
        "s</w>"
      ],
      [
        "ग",
        "ा"
      ],
      [
        "s",
        "o</w>"
      ],
      [
        "प",
        "ु"
      ],
      [
        "k",
        "e</w>"
      ],
      [
        "ur",
        "e</w>"
      ],
      [
        "h",
        "e</w>"
      ],
      [
        "ग",
        "या</w>"
      ],
      [
        "H",
        "e</w>"
      ],
      [
        "an",
        "y</w>"
      ],
      [
        "ओ",
        "ं</w>"
      ],
      [
        "फ",
        "़"
      ],
      [
        "नि",
        "र्"
      ],
      [
        "स",
        "र"
      ],
      [
        "कु",
        "छ</w>"
      ],
      [
        "p",
        "ar"
      ],
      [
        "gh",
        "t</w>"
      ],
      [
        "g",
        "e</w>"
      ],
      [
        "द",
        "ी</w>"
      ],
      [
        "त",
        "था</w>"
      ],
      [
        "2",
        "0"
      ],
      [
        "प",
        "रि"
      ],
      [
        "व",
        "े"
      ],
      [
        "ou",
        "t</w>"
      ],
      [
        "ह",
        "ें</w>"
      ],
      [
        "i",
        "d</w>"
      ],
      [
        "कि",
        "सी</w>"
      ],
      [
        "तु",
        "म्"
      ],
      [
        "d",
        "er</w>"
      ],
      [
        "d",
        "e</w>"
      ],
      [
        "फ",
        "ि"
      ],
      [
        "p",
        "e"
      ],
      [
        "st",
        "r"
      ],
      [
        "स",
        "ा</w>"
      ],
      [
        "ज",
        "ा</w>"
      ],
      [
        "क",
        "े"
      ],
      [
        "in",
        "g"
      ],
      [
        "प्र",
        "ा"
      ],
      [
        "l",
        "e"
      ],
      [
        "1",
        "9"
      ],
      [
        "प",
        "र"
      ],
      [
        "का",
        "र्"
      ],
      [
        "पू",
        "र्"
      ],
      [
        "व",
        "्य"
      ],
      [
        "ग",
        "ों</w>"
      ],
      [
        "n",
        "e"
      ],
      [
        "la",
        "h</w>"
      ],
      [
        "रू",
        "प</w>"
      ],
      [
        "ह",
        "म</w>"
      ],
      [
        "Al",
        "lah</w>"
      ],
      [
        "द्",
        "व"
      ],
      [
        "सा",
        "थ</w>"
      ],
      [
        "ख",
        "ा"
      ],
      [
        "र",
        "ो"
      ],
      [
        "ी",
        "न</w>"
      ],
      [
        "G",
        "o"
      ],
      [
        "re",
        "c"
      ],
      [
        "es",
        "s"
      ],
      [
        "u",
        "m"
      ],
      [
        "को",
        "ई</w>"
      ],
      [
        "स्थ",
        "ा"
      ],
      [
        "An",
        "d</w>"
      ],
      [
        "क",
        "ृ"
      ],
      [
        "t",
        "o"
      ],
      [
        "मा",
        "न</w>"
      ],
      [
        "p",
        "or"
      ],
      [
        "W",
        "e</w>"
      ],
      [
        "त",
        "क</w>"
      ],
      [
        "उन",
        "के</w>"
      ],
      [
        "ब",
        "ं"
      ],
      [
        "at",
        "ed</w>"
      ],
      [
        "d",
        "is"
      ],
      [
        "ग",
        "्र"
      ],
      [
        "क",
        "ार"
      ],
      [
        "थ",
        "े</w>"
      ],
      [
        "जि",
        "स"
      ],
      [
        "द्व",
        "ारा</w>"
      ],
      [
        "ु",
        "दा</w>"
      ],
      [
        "o",
        "se</w>"
      ],
      [
        "ha",
        "t</w>"
      ],
      [
        "a",
        "u"
      ],
      [
        "अ",
        "ं"
      ],
      [
        "an",
        "ce</w>"
      ],
      [
        "व",
        "ा</w>"
      ],
      [
        "लो",
        "गों</w>"
      ],
      [
        "am",
        "e</w>"
      ],
      [
        "ab",
        "le</w>"
      ],
      [
        "y",
        "our</w>"
      ],
      [
        "कर",
        "ते</w>"
      ],
      [
        "it",
        "s</w>"
      ],
      [
        "द",
        "ू"
      ],
      [
        "दे",
        "श</w>"
      ],
      [
        "ज",
        "ब</w>"
      ],
      [
        "्",
        "य</w>"
      ],
      [
        "u",
        "s</w>"
      ],
      [
        "el",
        "i"
      ],
      [
        "f",
        "i"
      ],
      [
        "लो",
        "ग</w>"
      ],
      [
        "an",
        "t</w>"
      ],
      [
        "दि",
        "या</w>"
      ],
      [
        "ब",
        "्"
      ],
      [
        "रा",
        "ष्ट"
      ],
      [
        "ou",
        "s</w>"
      ],
      [
        "g",
        "u"
      ],
      [
        "m",
        "e"
      ],
      [
        "Indi",
        "a</w>"
      ],
      [
        "ou",
        "r"
      ],
      [
        "e",
        "p"
      ],
      [
        "भार",
        "त</w>"
      ],
      [
        "d",
        "ing</w>"
      ],
      [
        "प",
        "ह"
      ],
      [
        "en",
        "ce</w>"
      ],
      [
        "ज",
        "ी"
      ],
      [
        "t",
        "u"
      ],
      [
        "स",
        "े"
      ],
      [
        "स्",
        "व"
      ],
      [
        "स",
        "ी"
      ],
      [
        "र",
        "ख"
      ],
      [
        "ग",
        "ु"
      ],
      [
        "स्",
        "त"
      ],
      [
        "ag",
        "e</w>"
      ],
      [
        "यो",
        "ग</w>"
      ],
      [
        "अ",
        "ल्"
      ],
      [
        "ि",
        "क</w>"
      ],
      [
        "w",
        "n</w>"
      ],
      [
        "य",
        "ु"
      ],
      [
        "र",
        "ा</w>"
      ],
      [
        "re",
        "d</w>"
      ],
      [
        "ला",
        "ह</w>"
      ],
      [
        "ea",
        "r</w>"
      ],
      [
        "्",
        "या"
      ],
      [
        "es",
        "t</w>"
      ],
      [
        "ं",
        "ग</w>"
      ],
      [
        "bu",
        "t</w>"
      ],
      [
        "फि",
        "र</w>"
      ],
      [
        "तुम्",
        "ह"
      ],
      [
        "c",
        "l"
      ],
      [
        "क्",
        "या</w>"
      ],
      [
        "o",
        "ther</w>"
      ],
      [
        "ग",
        "ी</w>"
      ],
      [
        "क्",
        "त</w>"
      ],
      [
        "ब",
        "े"
      ],
      [
        "s",
        "ec"
      ],
      [
        "a",
        "r</w>"
      ],
      [
        "राष्ट",
        "्र"
      ],
      [
        "र",
        "े</w>"
      ],
      [
        "उ",
        "त्"
      ],
      [
        "p",
        "u"
      ],
      [
        "भ",
        "ि"
      ],
      [
        "v",
        "i"
      ],
      [
        "ब",
        "ि"
      ],
      [
        "ent",
        "s</w>"
      ],
      [
        "w",
        "e</w>"
      ],
      [
        "अल्",
        "लाह</w>"
      ],
      [
        "जा",
        "ता</w>"
      ],
      [
        "ख़",
        "ुदा</w>"
      ],
      [
        "उस",
        "के</w>"
      ],
      [
        "उ",
        "स</w>"
      ],
      [
        "ं",
        "ने</w>"
      ],
      [
        "be",
        "en</w>"
      ],
      [
        "प्र",
        "ति"
      ],
      [
        "च",
        "ि"
      ],
      [
        "s",
        "el"
      ],
      [
        "अ",
        "व"
      ],
      [
        "k",
        "no"
      ],
      [
        "म",
        "ं"
      ],
      [
        "अप",
        "नी</w>"
      ],
      [
        "c",
        "oun"
      ],
      [
        "कर",
        "ें</w>"
      ],
      [
        "ंग",
        "े</w>"
      ],
      [
        "om",
        "e</w>"
      ],
      [
        "थ",
        "ी</w>"
      ],
      [
        "ar",
        "y</w>"
      ],
      [
        "d",
        "o</w>"
      ],
      [
        "op",
        "le</w>"
      ],
      [
        "b",
        "o"
      ],
      [
        "न",
        "ी"
      ],
      [
        "s",
        "o"
      ],
      [
        "w",
        "ere</w>"
      ],
      [
        "ब",
        "ना"
      ],
      [
        "a",
        "y"
      ],
      [
        "कह",
        "ा</w>"
      ],
      [
        "कर",
        "ना</w>"
      ],
      [
        "अ",
        "न्"
      ],
      [
        "ec",
        "t</w>"
      ],
      [
        "ड",
        "ि"
      ],
      [
        "ha",
        "d</w>"
      ],
      [
        "h",
        "o"
      ],
      [
        "c",
        "re"
      ],
      [
        "श",
        "्र"
      ],
      [
        "ज",
        "ी</w>"
      ],
      [
        "r",
        "ou"
      ],
      [
        "नि",
        "य"
      ],
      [
        "ल",
        "ों</w>"
      ],
      [
        "g",
        "h</w>"
      ],
      [
        "du",
        "c"
      ],
      [
        "ज्",
        "ञ"
      ],
      [
        "hi",
        "m</w>"
      ],
      [
        "on",
        "g</w>"
      ],
      [
        "ब",
        "हु"
      ],
      [
        "द",
        "ु"
      ],
      [
        "म",
        "ू"
      ],
      [
        "th",
        "ose</w>"
      ],
      [
        "or",
        "e</w>"
      ],
      [
        "v",
        "er</w>"
      ],
      [
        "c",
        "an</w>"
      ],
      [
        "ग",
        "र</w>"
      ],
      [
        "ज",
        "़</w>"
      ],
      [
        "d",
        "er"
      ],
      [
        "ब",
        "ी"
      ],
      [
        "w",
        "ar"
      ],
      [
        "द",
        "ि</w>"
      ],
      [
        "क्ष",
        "े"
      ],
      [
        "t",
        "y</w>"
      ],
      [
        "c",
        "o"
      ],
      [
        "I",
        "t</w>"
      ],
      [
        "म",
        "ैं</w>"
      ],
      [
        "sa",
        "id</w>"
      ],
      [
        "pe",
        "ople</w>"
      ],
      [
        "m",
        "in"
      ],
      [
        "रह",
        "े</w>"
      ],
      [
        "ढ",
        "़"
      ],
      [
        "ti",
        "c"
      ],
      [
        "p",
        "re"
      ],
      [
        "al",
        "ly</w>"
      ],
      [
        "मा",
        "न"
      ],
      [
        "b",
        "eli"
      ],
      [
        "वा",
        "ले</w>"
      ],
      [
        "f",
        "u"
      ],
      [
        "g",
        "o"
      ],
      [
        "ti",
        "ve</w>"
      ],
      [
        "wh",
        "en</w>"
      ],
      [
        "हु",
        "ए</w>"
      ],
      [
        "an",
        "d"
      ],
      [
        "tion",
        "al</w>"
      ],
      [
        "e",
        "y</w>"
      ],
      [
        "sh",
        "all</w>"
      ],
      [
        "यो",
        "ज"
      ],
      [
        "p",
        "res"
      ],
      [
        "e",
        "st"
      ],
      [
        "ग",
        "े</w>"
      ],
      [
        "क्",
        "ति</w>"
      ],
      [
        "च",
        "ु"
      ],
      [
        "or",
        "d</w>"
      ],
      [
        "ev",
        "er</w>"
      ],
      [
        "k",
        "ing</w>"
      ],
      [
        "द",
        "ो"
      ],
      [
        "उन्",
        "हें</w>"
      ],
      [
        "प्",
        "त</w>"
      ],
      [
        "कर",
        "ता</w>"
      ],
      [
        "च्",
        "छ"
      ],
      [
        "उ",
        "न</w>"
      ],
      [
        "en",
        "d"
      ],
      [
        "n",
        "i"
      ],
      [
        "र",
        "ु"
      ],
      [
        "is",
        "h"
      ],
      [
        "p",
        "r"
      ],
      [
        "ac",
        "e</w>"
      ],
      [
        "जा",
        "ए"
      ],
      [
        "हो",
        "ता</w>"
      ],
      [
        "w",
        "e"
      ],
      [
        "ध",
        "ार"
      ],
      [
        "ti",
        "es</w>"
      ],
      [
        "s",
        "er"
      ],
      [
        "द",
        "र्"
      ],
      [
        "v",
        "es</w>"
      ],
      [
        "ing",
        "s</w>"
      ],
      [
        "f",
        "a"
      ],
      [
        "ब",
        "ड़"
      ],
      [
        "दे",
        "ख"
      ],
      [
        "r",
        "u"
      ],
      [
        "com",
        "m"
      ],
      [
        "रह",
        "ा</w>"
      ],
      [
        "म",
        "ा</w>"
      ],
      [
        "हो",
        "ंने</w>"
      ],
      [
        "si",
        "on</w>"
      ],
      [
        "i",
        "st"
      ],
      [
        "i",
        "f</w>"
      ],
      [
        "t",
        "ing</w>"
      ],
      [
        "al",
        "so</w>"
      ],
      [
        "ड",
        "़</w>"
      ],
      [
        "उ",
        "से</w>"
      ],
      [
        "त",
        "र</w>"
      ],
      [
        "ह",
        "र</w>"
      ],
      [
        "क",
        "ों</w>"
      ],
      [
        "w",
        "hat</w>"
      ],
      [
        "व",
        "र"
      ],
      [
        "as",
        "e</w>"
      ],
      [
        "आ",
        "प</w>"
      ],
      [
        "सक",
        "ता</w>"
      ],
      [
        "Go",
        "d</w>"
      ],
      [
        "m",
        "u"
      ],
      [
        "W",
        "h"
      ],
      [
        "आ",
        "प"
      ],
      [
        "प",
        "ै"
      ],
      [
        "ic",
        "e</w>"
      ],
      [
        "श",
        "न</w>"
      ],
      [
        "प",
        "ी"
      ],
      [
        "s",
        "ti"
      ],
      [
        "द",
        "ो</w>"
      ],
      [
        "h",
        "ar"
      ],
      [
        "ग",
        "ि"
      ],
      [
        "क्ष",
        "ा</w>"
      ],
      [
        "र्",
        "थ"
      ],
      [
        "ज्ञ",
        "ा"
      ],
      [
        "I",
        "n</w>"
      ],
      [
        "con",
        "t"
      ],
      [
        "pro",
        "v"
      ],
      [
        "ड",
        "ा"
      ],
      [
        "20",
        "1"
      ],
      [
        "ब",
        "ु"
      ],
      [
        "t",
        "ur"
      ],
      [
        "ज",
        "ै"
      ],
      [
        "th",
        "ere</w>"
      ],
      [
        "in",
        "e</w>"
      ],
      [
        "त",
        "ु</w>"
      ],
      [
        "ध",
        "ि</w>"
      ],
      [
        "ट",
        "ी</w>"
      ],
      [
        "सम",
        "य</w>"
      ],
      [
        "म",
        "ो"
      ],
      [
        "बहु",
        "त</w>"
      ],
      [
        "द",
        "्र"
      ],
      [
        "k",
        "s</w>"
      ],
      [
        "बा",
        "द</w>"
      ],
      [
        "र",
        "े"
      ],
      [
        "क",
        "र्"
      ],
      [
        "l",
        "ed</w>"
      ],
      [
        "Th",
        "is</w>"
      ],
      [
        "il",
        "e</w>"
      ],
      [
        "i",
        "g"
      ],
      [
        "ष्",
        "ट</w>"
      ],
      [
        "L",
        "ord</w>"
      ],
      [
        "d",
        "ay</w>"
      ],
      [
        "इ",
        "न</w>"
      ],
      [
        "t",
        "w"
      ],
      [
        "u",
        "d"
      ],
      [
        "t",
        "e"
      ],
      [
        "ma",
        "y</w>"
      ],
      [
        "oo",
        "d</w>"
      ],
      [
        "श",
        "ु"
      ],
      [
        "b",
        "er</w>"
      ],
      [
        "n",
        "o</w>"
      ],
      [
        "i",
        "l</w>"
      ],
      [
        "म",
        "ह"
      ],
      [
        "र",
        "ी"
      ],
      [
        "सू",
        "च"
      ],
      [
        "el",
        "l</w>"
      ],
      [
        "भ",
        "ू"
      ],
      [
        "दा",
        "न</w>"
      ],
      [
        "o",
        "c"
      ],
      [
        "त",
        "ों</w>"
      ],
      [
        "ट",
        "ा"
      ],
      [
        "u",
        "p"
      ],
      [
        "an",
        "g"
      ],
      [
        "ट",
        "ि"
      ],
      [
        "as",
        "t</w>"
      ],
      [
        "en",
        "g"
      ],
      [
        "ह",
        "ू"
      ],
      [
        "त",
        "ीय</w>"
      ],
      [
        "त्",
        "य"
      ],
      [
        "ब",
        "ै"
      ],
      [
        "on",
        "s</w>"
      ],
      [
        "प",
        "ति</w>"
      ],
      [
        "ver",
        "n"
      ],
      [
        "श",
        "े"
      ],
      [
        "व",
        "न</w>"
      ],
      [
        "em",
        "ent</w>"
      ],
      [
        "or",
        "y</w>"
      ],
      [
        "as",
        "s"
      ],
      [
        "w",
        "ay</w>"
      ],
      [
        "बं",
        "ध"
      ],
      [
        "u",
        "t</w>"
      ],
      [
        "an",
        "s"
      ],
      [
        "तर",
        "ह</w>"
      ],
      [
        "म",
        "ी</w>"
      ],
      [
        "0",
        "0</w>"
      ],
      [
        "वि",
        "श्"
      ],
      [
        "for",
        "e</w>"
      ],
      [
        "t",
        "ra"
      ],
      [
        "क",
        "ारी</w>"
      ],
      [
        "p",
        "a"
      ],
      [
        "रा",
        "ज"
      ],
      [
        "पा",
        "स</w>"
      ],
      [
        "ख",
        "्"
      ],
      [
        "स",
        "मा"
      ],
      [
        "on",
        "ly</w>"
      ],
      [
        "g",
        "ra"
      ],
      [
        "उन्",
        "होंने</w>"
      ],
      [
        "अधि",
        "क</w>"
      ],
      [
        "चा",
        "ह"
      ],
      [
        "f",
        "ter</w>"
      ],
      [
        "बा",
        "त</w>"
      ],
      [
        "हु",
        "आ</w>"
      ],
      [
        "ti",
        "me</w>"
      ],
      [
        "i",
        "c</w>"
      ],
      [
        "f",
        "in"
      ],
      [
        "fu",
        "l</w>"
      ],
      [
        "पह",
        "ले</w>"
      ],
      [
        "सम",
        "्"
      ],
      [
        "w",
        "ould</w>"
      ],
      [
        "प",
        "े"
      ],
      [
        "b",
        "ec"
      ],
      [
        "su",
        "ch</w>"
      ],
      [
        "जा",
        "न"
      ],
      [
        "य",
        "दि</w>"
      ],
      [
        "u",
        "p</w>"
      ],
      [
        "द",
        "े</w>"
      ],
      [
        "द्",
        "ध</w>"
      ],
      [
        "हम",
        "ने</w>"
      ],
      [
        "ल",
        "य</w>"
      ],
      [
        "the",
        "n</w>"
      ],
      [
        "g",
        "r"
      ],
      [
        "i",
        "es</w>"
      ],
      [
        "g",
        "re"
      ],
      [
        "दि",
        "न</w>"
      ],
      [
        "S",
        "t"
      ],
      [
        "com",
        "e</w>"
      ],
      [
        "d",
        "ev"
      ],
      [
        "उन",
        "की</w>"
      ],
      [
        "तुम्ह",
        "ारे</w>"
      ],
      [
        "चा",
        "हि"
      ],
      [
        "पूर्",
        "ण</w>"
      ],
      [
        "t",
        "e</w>"
      ],
      [
        "m",
        "an"
      ],
      [
        "oun",
        "d</w>"
      ],
      [
        "lo",
        "w"
      ],
      [
        "m",
        "is"
      ],
      [
        "e",
        "l</w>"
      ],
      [
        "चा",
        "र</w>"
      ],
      [
        "a",
        "tions</w>"
      ],
      [
        "हो",
        "गा</w>"
      ],
      [
        "b",
        "le</w>"
      ],
      [
        "a",
        "d</w>"
      ],
      [
        "d",
        "es"
      ],
      [
        "a",
        "m</w>"
      ],
      [
        "प",
        "र्"
      ],
      [
        "स",
        "ह"
      ],
      [
        "हो",
        "ने</w>"
      ],
      [
        "हा",
        "ं</w>"
      ],
      [
        "य",
        "ू"
      ],
      [
        "C",
        "on"
      ],
      [
        "कर",
        "ण</w>"
      ],
      [
        "po",
        "s"
      ],
      [
        "छ",
        "ो"
      ],
      [
        "ग",
        "ए</w>"
      ],
      [
        "ब",
        "र</w>"
      ],
      [
        "si",
        "d"
      ],
      [
        "f",
        "ol"
      ],
      [
        "ग",
        "त</w>"
      ],
      [
        "a",
        "v"
      ],
      [
        "ि",
        "यों</w>"
      ],
      [
        "क्र",
        "ि"
      ],
      [
        "च",
        "ी"
      ],
      [
        "P",
        "ro"
      ],
      [
        "it",
        "e</w>"
      ],
      [
        "हम",
        "ारे</w>"
      ],
      [
        "ma",
        "de</w>"
      ],
      [
        "ं",
        "ड"
      ],
      [
        "स्",
        "ता"
      ],
      [
        "com",
        "p"
      ],
      [
        "th",
        "ing</w>"
      ],
      [
        "w",
        "i"
      ],
      [
        "उ",
        "द्"
      ],
      [
        "स्",
        "ट"
      ],
      [
        "अ",
        "ध"
      ],
      [
        "C",
        "h"
      ],
      [
        "e",
        "d"
      ],
      [
        "t",
        "ure</w>"
      ],
      [
        "स",
        "भी</w>"
      ],
      [
        "ग",
        "ई</w>"
      ],
      [
        "दे",
        "श"
      ],
      [
        "f",
        "e</w>"
      ],
      [
        "ऐ",
        "से</w>"
      ],
      [
        "ओ",
        "र</w>"
      ],
      [
        "ब",
        "ो"
      ],
      [
        "en",
        "d</w>"
      ],
      [
        "b",
        "l"
      ],
      [
        "ac",
        "c"
      ],
      [
        "c",
        "ri"
      ],
      [
        "राष्ट्र",
        "पति</w>"
      ],
      [
        ".",
        "."
      ],
      [
        "m",
        "ore</w>"
      ],
      [
        "वा",
        "ला</w>"
      ],
      [
        "at",
        "h</w>"
      ],
      [
        "in",
        "ter"
      ],
      [
        "b",
        "r"
      ],
      [
        "हा",
        "ँ</w>"
      ],
      [
        "en",
        "c"
      ],
      [
        "f",
        "ir"
      ],
      [
        "ब",
        "द"
      ],
      [
        "C",
        "om"
      ],
      [
        "ab",
        "out</w>"
      ],
      [
        "अ",
        "भि"
      ],
      [
        "ज्",
        "य</w>"
      ],
      [
        "en",
        "ti"
      ],
      [
        "un",
        "der</w>"
      ],
      [
        "th",
        "er"
      ],
      [
        "re",
        "s</w>"
      ],
      [
        "झ",
        "े</w>"
      ],
      [
        "का",
        "म</w>"
      ],
      [
        "e",
        "i"
      ],
      [
        "प",
        "ि"
      ],
      [
        "ev",
        "er"
      ],
      [
        "च",
        "े</w>"
      ],
      [
        "म",
        "ी"
      ],
      [
        "A",
        "c"
      ],
      [
        "न्",
        "न</w>"
      ],
      [
        "v",
        "ing</w>"
      ],
      [
        "b",
        "et"
      ],
      [
        "तु",
        "म"
      ],
      [
        "p",
        "h"
      ],
      [
        "sh",
        "ould</w>"
      ],
      [
        "li",
        "ke</w>"
      ],
      [
        "th",
        "an</w>"
      ],
      [
        "त",
        "ी"
      ],
      [
        "सक",
        "ते</w>"
      ],
      [
        "in",
        "to</w>"
      ],
      [
        "m",
        "ar"
      ],
      [
        "अ",
        "च्छ"
      ],
      [
        "el",
        "y</w>"
      ],
      [
        "f",
        "ac"
      ],
      [
        "m",
        "y</w>"
      ],
      [
        "ए",
        "व"
      ],
      [
        "v",
        "ed</w>"
      ],
      [
        "sh",
        "i"
      ],
      [
        "प्र",
        "कार</w>"
      ],
      [
        "ए",
        "ं</w>"
      ],
      [
        "is",
        "e</w>"
      ],
      [
        "इस",
        "के</w>"
      ],
      [
        "ं",
        "ड</w>"
      ],
      [
        "ल",
        "न</w>"
      ],
      [
        "ज",
        "ो"
      ],
      [
        "अन्",
        "य</w>"
      ],
      [
        "a",
        "tional</w>"
      ],
      [
        "प्रा",
        "प्त</w>"
      ],
      [
        "a",
        "in"
      ],
      [
        "चाहि",
        "ए</w>"
      ],
      [
        "कार्",
        "य</w>"
      ],
      [
        "e",
        "w</w>"
      ],
      [
        "Th",
        "ey</w>"
      ],
      [
        "उस",
        "की</w>"
      ],
      [
        "c",
        "er"
      ],
      [
        "c",
        "al"
      ],
      [
        "क्षे",
        "त्र</w>"
      ],
      [
        "य",
        "ी</w>"
      ],
      [
        "श",
        "ी"
      ],
      [
        "B",
        "ut</w>"
      ],
      [
        "धा",
        "न</w>"
      ],
      [
        "is",
        "i"
      ],
      [
        "ic",
        "al</w>"
      ],
      [
        "i",
        "z"
      ],
      [
        "ग",
        "़"
      ],
      [
        "re",
        "e</w>"
      ],
      [
        "कि",
        "ए</w>"
      ],
      [
        "े",
        "गा</w>"
      ],
      [
        "स्थ",
        "ि"
      ],
      [
        "स",
        "र्"
      ],
      [
        "ज",
        "न"
      ],
      [
        "an",
        "s</w>"
      ],
      [
        "सा",
        "म"
      ],
      [
        "w",
        "r"
      ],
      [
        "र",
        "ों</w>"
      ],
      [
        "is",
        "t</w>"
      ],
      [
        "d",
        "ec"
      ],
      [
        "tr",
        "u"
      ],
      [
        "क",
        "म</w>"
      ],
      [
        "द",
        "न</w>"
      ],
      [
        "ख",
        "ु"
      ],
      [
        "हो",
        "ती</w>"
      ],
      [
        "ल",
        "ग"
      ],
      [
        "स",
        "ब"
      ],
      [
        "at",
        "t"
      ],
      [
        "ण",
        "ा"
      ],
      [
        "an",
        "c"
      ],
      [
        "जा",
        "ने</w>"
      ],
      [
        "ति",
        "यों</w>"
      ],
      [
        "s",
        "ome</w>"
      ],
      [
        "त",
        "े"
      ],
      [
        "m",
        "on"
      ],
      [
        "ड़",
        "े</w>"
      ],
      [
        ")",
        ",</w>"
      ],
      [
        "vern",
        "ment</w>"
      ],
      [
        "M",
        "o"
      ],
      [
        "tw",
        "o</w>"
      ],
      [
        "at",
        "er</w>"
      ],
      [
        "P",
        "re"
      ],
      [
        "भ",
        "े"
      ],
      [
        "इ",
        "न"
      ],
      [
        "ac",
        "h"
      ],
      [
        "sti",
        "tu"
      ],
      [
        "क्",
        "ष</w>"
      ],
      [
        "ऐ",
        "सा</w>"
      ],
      [
        "en",
        "er"
      ],
      [
        "ए",
        "ँ</w>"
      ],
      [
        "us",
        "ed</w>"
      ],
      [
        "ne",
        "w</w>"
      ],
      [
        "s",
        "y"
      ],
      [
        "ज़",
        "ा"
      ],
      [
        "20",
        "0"
      ],
      [
        "नि",
        "क</w>"
      ],
      [
        "श्",
        "च"
      ],
      [
        "ff",
        "ic"
      ],
      [
        "ना",
        "म</w>"
      ],
      [
        "m",
        "s</w>"
      ],
      [
        "स",
        "र</w>"
      ],
      [
        "su",
        "b"
      ],
      [
        "n",
        "ing</w>"
      ],
      [
        "वि",
        "का"
      ],
      [
        "the",
        "se</w>"
      ],
      [
        "क",
        "ी"
      ],
      [
        "o",
        "ver</w>"
      ],
      [
        "एव",
        "ं</w>"
      ],
      [
        "म",
        "त</w>"
      ],
      [
        "a",
        "il"
      ],
      [
        "p",
        "p"
      ],
      [
        "अ",
        "गर</w>"
      ],
      [
        "S",
        "u"
      ],
      [
        "प",
        "हु"
      ],
      [
        "ा",
        "इ"
      ],
      [
        "at",
        "es</w>"
      ],
      [
        "प",
        "ो"
      ],
      [
        "व",
        "ै"
      ],
      [
        "l",
        "ea"
      ],
      [
        "भार",
        "तीय</w>"
      ],
      [
        "str",
        "u"
      ],
      [
        "भा",
        "ग</w>"
      ],
      [
        "h",
        "ea"
      ],
      [
        "य",
        "न</w>"
      ],
      [
        "मु",
        "झे</w>"
      ],
      [
        "े",
        "ंगे</w>"
      ],
      [
        "व",
        "्या"
      ],
      [
        "म",
        "ै"
      ],
      [
        "el",
        "op"
      ],
      [
        "ड़",
        "ा</w>"
      ],
      [
        "कार्",
        "य"
      ],
      [
        "मा",
        "र्"
      ],
      [
        "न्",
        "या"
      ],
      [
        "o",
        "b"
      ],
      [
        "al",
        "s</w>"
      ],
      [
        "ट",
        "्"
      ],
      [
        "n",
        "ed</w>"
      ],
      [
        "be",
        "fore</w>"
      ],
      [
        "त",
        "ं"
      ],
      [
        "र",
        "सू"
      ],
      [
        "कर",
        "ो</w>"
      ],
      [
        "क",
        "ता</w>"
      ],
      [
        "h",
        "el"
      ],
      [
        "ar",
        "i"
      ],
      [
        "so",
        "ci"
      ],
      [
        "au",
        "se</w>"
      ],
      [
        "t",
        "ri"
      ],
      [
        "ट",
        "ा</w>"
      ],
      [
        "रा",
        "ज्य</w>"
      ],
      [
        "p",
        "la"
      ],
      [
        "ac",
        "h</w>"
      ],
      [
        "ट",
        "र</w>"
      ],
      [
        "ta",
        "in"
      ],
      [
        "लि",
        "या</w>"
      ],
      [
        "M",
        "a"
      ],
      [
        "res",
        "p"
      ],
      [
        "च",
        "ा</w>"
      ],
      [
        "ol",
        "d</w>"
      ],
      [
        "w",
        "s</w>"
      ],
      [
        "वर्",
        "ष</w>"
      ],
      [
        "सर",
        "कार</w>"
      ],
      [
        "a",
        "fter</w>"
      ],
      [
        "अ",
        "ब</w>"
      ],
      [
        "per",
        "s"
      ],
      [
        "sp",
        "ec"
      ],
      [
        "tr",
        "y</w>"
      ],
      [
        "H",
        "is</w>"
      ],
      [
        "त्",
        "व</w>"
      ],
      [
        "id",
        "e</w>"
      ],
      [
        "v",
        "en</w>"
      ],
      [
        "f",
        "ic"
      ],
      [
        "व",
        "ी</w>"
      ],
      [
        "ह",
        "र"
      ],
      [
        "विका",
        "स</w>"
      ],
      [
        "ग",
        "ो"
      ],
      [
        "मं",
        "त्र"
      ],
      [
        "ti",
        "c</w>"
      ],
      [
        "tr",
        "ans"
      ],
      [
        "व",
        "ृ"
      ],
      [
        "कार",
        "ण</w>"
      ],
      [
        "कि",
        "न</w>"
      ],
      [
        "wor",
        "k</w>"
      ],
      [
        "लि",
        "ख"
      ],
      [
        "ल",
        "ी"
      ],
      [
        "em",
        "p"
      ],
      [
        "बा",
        "र</w>"
      ],
      [
        "त",
        "ः</w>"
      ],
      [
        "ver",
        "y</w>"
      ],
      [
        "स",
        "ब</w>"
      ],
      [
        "e",
        "ve</w>"
      ],
      [
        "e",
        "m</w>"
      ],
      [
        "व्य",
        "क्ति</w>"
      ],
      [
        "li",
        "fe</w>"
      ],
      [
        "इ",
        "ं"
      ],
      [
        "ध",
        "ारा</w>"
      ],
      [
        "wh",
        "o"
      ],
      [
        "दू",
        "सर"
      ],
      [
        "स",
        "ो"
      ],
      [
        "ब",
        "ढ़"
      ],
      [
        "भा",
        "ष"
      ],
      [
        "ार",
        "ों</w>"
      ],
      [
        "क",
        "ं"
      ],
      [
        "गा",
        "र</w>"
      ],
      [
        "n",
        "ess</w>"
      ],
      [
        "ट",
        "े"
      ],
      [
        "in",
        "d"
      ],
      [
        "वि",
        "द्"
      ],
      [
        "हु",
        "ई</w>"
      ],
      [
        "रसू",
        "ल</w>"
      ],
      [
        "oo",
        "k</w>"
      ],
      [
        "u",
        "se</w>"
      ],
      [
        "ear",
        "s</w>"
      ],
      [
        "il",
        "y</w>"
      ],
      [
        "sel",
        "f</w>"
      ],
      [
        "i",
        "al</w>"
      ],
      [
        "म",
        "ौ"
      ],
      [
        "ac",
        "k</w>"
      ],
      [
        "द",
        "ृ"
      ],
      [
        "el",
        "l"
      ],
      [
        "en",
        "s</w>"
      ],
      [
        "r",
        "e</w>"
      ],
      [
        "ay",
        "s</w>"
      ],
      [
        "श",
        "ा</w>"
      ],
      [
        "उस",
        "ने</w>"
      ],
      [
        "दा",
        "र</w>"
      ],
      [
        "f",
        "er"
      ],
      [
        "at",
        "ing</w>"
      ],
      [
        "नि",
        "श्च"
      ],
      [
        "m",
        "an</w>"
      ],
      [
        "is",
        "h</w>"
      ],
      [
        "दो",
        "नों</w>"
      ],
      [
        "E",
        "x"
      ],
      [
        "्र",
        "े"
      ],
      [
        "wi",
        "th"
      ],
      [
        "ले",
        "किन</w>"
      ],
      [
        "क",
        "ै"
      ],
      [
        "या",
        "ं</w>"
      ],
      [
        "u",
        "m</w>"
      ],
      [
        "स्था",
        "न</w>"
      ],
      [
        "य",
        "ता</w>"
      ],
      [
        "or",
        "s</w>"
      ],
      [
        "a",
        "k"
      ],
      [
        "ध",
        "न</w>"
      ],
      [
        "S",
        "o</w>"
      ],
      [
        "ड़",
        "ी</w>"
      ],
      [
        "निय",
        "म</w>"
      ],
      [
        "प",
        "ं"
      ],
      [
        "s",
        "ay</w>"
      ],
      [
        "्र",
        "ा"
      ],
      [
        "mo",
        "st</w>"
      ],
      [
        "in",
        "d</w>"
      ],
      [
        "beli",
        "ev"
      ],
      [
        "प्र",
        "े"
      ],
      [
        "i",
        "m</w>"
      ],
      [
        "ब",
        "न्"
      ],
      [
        "क्ष",
        "ण</w>"
      ],
      [
        "त",
        "न</w>"
      ],
      [
        "be",
        "ing</w>"
      ],
      [
        "तुम्",
        "हें</w>"
      ],
      [
        "E",
        "n"
      ],
      [
        "I",
        "f</w>"
      ],
      [
        "Indi",
        "an</w>"
      ],
      [
        "त्",
        "व"
      ],
      [
        "ख",
        "ो"
      ],
      [
        "s",
        "es</w>"
      ],
      [
        "m",
        "em"
      ],
      [
        "sid",
        "ent</w>"
      ],
      [
        "w",
        "er</w>"
      ],
      [
        "p",
        "ri"
      ],
      [
        "स्",
        "वा"
      ],
      [
        "जा",
        "ती</w>"
      ],
      [
        "si",
        "g"
      ],
      [
        "प्र",
        "दान</w>"
      ],
      [
        "वि",
        "शे"
      ],
      [
        "c",
        "ol"
      ],
      [
        "o",
        "w</w>"
      ],
      [
        "र",
        "त</w>"
      ],
      [
        "ec",
        "ted</w>"
      ],
      [
        "सा",
        "र</w>"
      ],
      [
        "v",
        "al"
      ],
      [
        "ज",
        "ू"
      ],
      [
        "सा",
        "मा"
      ],
      [
        "ं",
        "कि</w>"
      ],
      [
        "ऐ",
        "सी</w>"
      ],
      [
        "म",
        "हा"
      ],
      [
        "h",
        "er</w>"
      ],
      [
        "Y",
        "ou</w>"
      ],
      [
        "y",
        "ing</w>"
      ],
      [
        "th",
        "rou"
      ],
      [
        "वा",
        "ली</w>"
      ],
      [
        "दि",
        "खा"
      ],
      [
        "जि",
        "न"
      ],
      [
        "द्",
        "र</w>"
      ],
      [
        "u",
        "t"
      ],
      [
        "यु",
        "क्त</w>"
      ],
      [
        "ser",
        "v"
      ],
      [
        "धा",
        "र</w>"
      ],
      [
        "मि",
        "ल</w>"
      ],
      [
        "ec",
        "tion</w>"
      ],
      [
        "व्य",
        "व"
      ],
      [
        "ज",
        "न</w>"
      ],
      [
        "हो",
        "ते</w>"
      ],
      [
        "ff",
        "er"
      ],
      [
        "यो",
        "ग"
      ],
      [
        "द",
        "ों</w>"
      ],
      [
        "ति",
        "क</w>"
      ],
      [
        "व",
        "ल</w>"
      ],
      [
        "k",
        "ed</w>"
      ],
      [
        "lo",
        "g"
      ],
      [
        "स",
        "हा"
      ],
      [
        "ज",
        "ु"
      ],
      [
        "f",
        "e"
      ],
      [
        "जै",
        "से</w>"
      ],
      [
        "m",
        "er"
      ],
      [
        "u",
        "r</w>"
      ],
      [
        "प्र",
        "भा"
      ],
      [
        "्",
        "र</w>"
      ],
      [
        "जि",
        "स</w>"
      ],
      [
        "जी",
        "वन</w>"
      ],
      [
        "..",
        ".</w>"
      ],
      [
        "in",
        "t"
      ],
      [
        "S",
        "h"
      ],
      [
        "shi",
        "p</w>"
      ],
      [
        "ar",
        "d</w>"
      ],
      [
        "por",
        "t"
      ],
      [
        "मु",
        "ख"
      ],
      [
        "ex",
        "c"
      ],
      [
        "ण",
        "्"
      ],
      [
        "स",
        "द"
      ],
      [
        "res",
        "s</w>"
      ],
      [
        "र",
        "ब</w>"
      ],
      [
        "a",
        "st"
      ],
      [
        "सं",
        "बंध"
      ],
      [
        "pro",
        "c"
      ],
      [
        "la",
        "tion</w>"
      ],
      [
        "ग्र",
        "ा"
      ],
      [
        "ब",
        "ारे</w>"
      ],
      [
        "त",
        "ना</w>"
      ],
      [
        "र",
        "ही</w>"
      ],
      [
        ")",
        ".</w>"
      ],
      [
        "आ",
        "व"
      ],
      [
        "बी",
        "च</w>"
      ],
      [
        "ch",
        "ar"
      ],
      [
        "e",
        "g"
      ],
      [
        "U",
        "n"
      ],
      [
        "ल",
        "ता</w>"
      ],
      [
        "wor",
        "ld</w>"
      ],
      [
        "ev",
        "en</w>"
      ],
      [
        "por",
        "t</w>"
      ],
      [
        "सम",
        "झ"
      ],
      [
        "ज्ञा",
        "न</w>"
      ],
      [
        "g",
        "ood</w>"
      ],
      [
        "se",
        "e</w>"
      ],
      [
        "श",
        "्य"
      ],
      [
        "in",
        "v"
      ],
      [
        "lo",
        "w</w>"
      ],
      [
        "उस",
        "का</w>"
      ],
      [
        "s",
        "in"
      ],
      [
        "ma",
        "tion</w>"
      ],
      [
        "द",
        "ी"
      ],
      [
        "throu",
        "gh</w>"
      ],
      [
        "de",
        "ed</w>"
      ],
      [
        "il",
        "l"
      ],
      [
        "for",
        "m"
      ],
      [
        "ma",
        "ke</w>"
      ],
      [
        "we",
        "en</w>"
      ],
      [
        "रा",
        "न</w>"
      ],
      [
        "योज",
        "ना</w>"
      ],
      [
        "स्",
        "था</w>"
      ],
      [
        "ं",
        "क</w>"
      ],
      [
        "व",
        "र</w>"
      ],
      [
        "सं",
        "ग"
      ],
      [
        "म",
        "क</w>"
      ],
      [
        "w",
        "ell</w>"
      ],
      [
        "ट",
        "े</w>"
      ],
      [
        "f",
        "ul"
      ],
      [
        "ho",
        "w</w>"
      ],
      [
        "bet",
        "ween</w>"
      ],
      [
        "।",
        "\"</w>"
      ],
      [
        "ह",
        "ों</w>"
      ],
      [
        "स्",
        "त</w>"
      ],
      [
        "ec",
        "h"
      ],
      [
        "sec",
        "tion</w>"
      ],
      [
        "m",
        "at"
      ],
      [
        "stru",
        "c"
      ],
      [
        "द",
        "र</w>"
      ],
      [
        "lo",
        "c"
      ],
      [
        "Pre",
        "sident</w>"
      ],
      [
        "n",
        "ame</w>"
      ],
      [
        "j",
        "ect</w>"
      ],
      [
        "dev",
        "elop"
      ],
      [
        "क",
        "ल्"
      ],
      [
        "द",
        "ौ"
      ],
      [
        "per",
        "i"
      ],
      [
        "ep",
        "t</w>"
      ],
      [
        "f",
        "l"
      ],
      [
        "स्था",
        "प"
      ],
      [
        "p",
        "ur"
      ],
      [
        "मे",
        "रे</w>"
      ],
      [
        "ब",
        "ी</w>"
      ],
      [
        "on",
        "g"
      ],
      [
        "ज़",
        "ि"
      ],
      [
        "id",
        "ed</w>"
      ],
      [
        "th",
        "ou"
      ],
      [
        "अ",
        "ल"
      ],
      [
        "coun",
        "try</w>"
      ],
      [
        "i",
        "ties</w>"
      ],
      [
        "अ",
        "र्"
      ],
      [
        "lo",
        "o"
      ],
      [
        "t",
        "or</w>"
      ],
      [
        "m",
        "any</w>"
      ],
      [
        "राष्ट्र",
        "ीय</w>"
      ],
      [
        "म",
        "ों</w>"
      ],
      [
        "ब",
        "ू"
      ],
      [
        "e",
        "qu"
      ],
      [
        "a",
        "re"
      ],
      [
        "ई",
        "मान</w>"
      ],
      [
        "h",
        "er"
      ],
      [
        "या",
        "लय</w>"
      ],
      [
        "f",
        "o"
      ],
      [
        "c",
        "ap"
      ],
      [
        "M",
        "in"
      ],
      [
        "j",
        "u"
      ],
      [
        "do",
        "wn</w>"
      ],
      [
        "स्थि",
        "ति</w>"
      ],
      [
        "या",
        "ँ</w>"
      ],
      [
        "न्",
        "य</w>"
      ],
      [
        "kno",
        "w</w>"
      ],
      [
        "बं",
        "ध</w>"
      ],
      [
        "up",
        "on</w>"
      ],
      [
        "fir",
        "st</w>"
      ],
      [
        "क",
        "ू"
      ],
      [
        "beli",
        "eve</w>"
      ],
      [
        "f",
        "t</w>"
      ],
      [
        "प्र",
        "योग</w>"
      ],
      [
        "वा",
        "द</w>"
      ],
      [
        "p",
        "er</w>"
      ],
      [
        "ur",
        "ing</w>"
      ],
      [
        "त्र",
        "ों</w>"
      ],
      [
        "u",
        "e</w>"
      ],
      [
        "उन",
        "का</w>"
      ],
      [
        "do",
        "es</w>"
      ],
      [
        "क्रि",
        "या</w>"
      ],
      [
        "ti",
        "v"
      ],
      [
        "ह",
        "में</w>"
      ],
      [
        "y",
        "ears</w>"
      ],
      [
        "P",
        "ar"
      ],
      [
        "p",
        "s</w>"
      ],
      [
        "जाए",
        "गा</w>"
      ],
      [
        "Go",
        "vernment</w>"
      ],
      [
        "के",
        "वल</w>"
      ],
      [
        "व",
        "ी"
      ],
      [
        "व",
        "ही</w>"
      ],
      [
        "an",
        "ge</w>"
      ],
      [
        "is",
        "m</w>"
      ],
      [
        "c",
        "ould</w>"
      ],
      [
        "h",
        "ear"
      ],
      [
        "ल",
        "ें</w>"
      ],
      [
        "उ",
        "ठ"
      ],
      [
        "ं",
        "त</w>"
      ],
      [
        "li",
        "c</w>"
      ],
      [
        "ther",
        "e"
      ],
      [
        "la",
        "r</w>"
      ],
      [
        "as",
        "h"
      ],
      [
        "d",
        "ed</w>"
      ],
      [
        "n",
        "um"
      ],
      [
        "श",
        "क</w>"
      ],
      [
        "ac",
        "t</w>"
      ],
      [
        "g",
        "et</w>"
      ],
      [
        "जिस",
        "में</w>"
      ],
      [
        "j",
        "o"
      ],
      [
        "c",
        "ur"
      ],
      [
        "भि",
        "न्न</w>"
      ],
      [
        "g",
        "a"
      ],
      [
        "c",
        "ar"
      ],
      [
        "st",
        "ri"
      ],
      [
        "स्",
        "प"
      ],
      [
        "wh",
        "ere</w>"
      ],
      [
        "प",
        "त्"
      ],
      [
        "आ",
        "र"
      ],
      [
        "ता",
        "कि</w>"
      ],
      [
        "cl",
        "u"
      ],
      [
        "ड",
        "र</w>"
      ],
      [
        "s",
        "ch"
      ],
      [
        "श",
        "ो"
      ],
      [
        "n",
        "s</w>"
      ],
      [
        "त",
        "र्"
      ],
      [
        "c",
        "or"
      ],
      [
        "ह",
        "े"
      ],
      [
        "o",
        "wn</w>"
      ],
      [
        "आव",
        "श्य"
      ],
      [
        "Th",
        "ere</w>"
      ],
      [
        "ज",
        "े"
      ],
      [
        "e",
        "al"
      ],
      [
        "ain",
        "st</w>"
      ],
      [
        "हू",
        "ँ</w>"
      ],
      [
        "ti",
        "m"
      ],
      [
        "se",
        "t</w>"
      ],
      [
        "न",
        "ो"
      ],
      [
        "un",
        "der"
      ],
      [
        "e",
        "f"
      ],
      [
        "अप",
        "ना</w>"
      ],
      [
        "pro",
        "duc"
      ],
      [
        "ri",
        "ght</w>"
      ],
      [
        "च",
        "े"
      ],
      [
        "e",
        "ther</w>"
      ],
      [
        "ाइ",
        "ल</w>"
      ],
      [
        "it",
        "ed</w>"
      ],
      [
        "di",
        "d</w>"
      ],
      [
        "ex",
        "p"
      ],
      [
        "ag",
        "ainst</w>"
      ],
      [
        "निर्",
        "धार"
      ],
      [
        "क्",
        "यो"
      ],
      [
        "t",
        "t"
      ],
      [
        "वि",
        "ष"
      ],
      [
        "ta",
        "ke</w>"
      ],
      [
        "y",
        "ear</w>"
      ],
      [
        "r",
        "y</w>"
      ],
      [
        "ल",
        "ने</w>"
      ],
      [
        "स",
        "फ"
      ],
      [
        "वा",
        "लों</w>"
      ],
      [
        "मा",
        "ण</w>"
      ],
      [
        "ध",
        "्य"
      ],
      [
        "m",
        "ess"
      ],
      [
        "जा",
        "ना</w>"
      ],
      [
        "ता",
        "ओं</w>"
      ],
      [
        "al",
        "l"
      ],
      [
        "y",
        "p"
      ],
      [
        "कृ",
        "त</w>"
      ],
      [
        "हम",
        "ारी</w>"
      ],
      [
        "p",
        "ol"
      ],
      [
        "at",
        "ure</w>"
      ],
      [
        "वा",
        "र</w>"
      ],
      [
        "दूसर",
        "े</w>"
      ],
      [
        "re",
        "qu"
      ],
      [
        "प्र",
        "ो"
      ],
      [
        "उ",
        "सी</w>"
      ],
      [
        "श्",
        "य</w>"
      ],
      [
        "या",
        "र</w>"
      ],
      [
        "प्र",
        "त्य"
      ],
      [
        "सब",
        "से</w>"
      ],
      [
        "Al",
        "l</w>"
      ],
      [
        "उप",
        "योग</w>"
      ],
      [
        "y",
        "e</w>"
      ],
      [
        "et",
        "s</w>"
      ],
      [
        "इ",
        "से</w>"
      ],
      [
        "वा",
        "स</w>"
      ],
      [
        "l",
        "an"
      ],
      [
        "क",
        "़</w>"
      ],
      [
        "्र",
        "ि"
      ],
      [
        "for",
        "mation</w>"
      ],
      [
        "ल",
        "ो</w>"
      ],
      [
        "प्र",
        "ति</w>"
      ],
      [
        "m",
        "i"
      ],
      [
        "फ",
        "्"
      ],
      [
        "ear",
        "th</w>"
      ],
      [
        "c",
        "ent"
      ],
      [
        "दे",
        "ने</w>"
      ],
      [
        "ख",
        "ि"
      ],
      [
        "उत्",
        "पा"
      ],
      [
        "h",
        "i</w>"
      ],
      [
        "om",
        "e"
      ],
      [
        "di",
        "v"
      ],
      [
        "अ",
        "थ"
      ],
      [
        "म",
        "न</w>"
      ],
      [
        "re",
        "ly</w>"
      ],
      [
        "d",
        "y</w>"
      ],
      [
        "ti",
        "s"
      ],
      [
        "बड़",
        "ा</w>"
      ],
      [
        "ल",
        "ब्"
      ],
      [
        "प",
        "त्र</w>"
      ],
      [
        "जा",
        "ए</w>"
      ],
      [
        "पै",
        "दा</w>"
      ],
      [
        "ड",
        "े"
      ],
      [
        "war",
        "d</w>"
      ],
      [
        "o",
        "w"
      ],
      [
        "I",
        "s"
      ],
      [
        "त्",
        "य</w>"
      ],
      [
        "pl",
        "ace</w>"
      ],
      [
        "il",
        "ity</w>"
      ],
      [
        "d",
        "re"
      ],
      [
        "जा",
        "ते</w>"
      ],
      [
        "for",
        "m</w>"
      ],
      [
        "ल",
        "गा"
      ],
      [
        "फ",
        "़</w>"
      ],
      [
        "gi",
        "ve</w>"
      ],
      [
        "श्र",
        "ी</w>"
      ],
      [
        "सूच",
        "ना</w>"
      ],
      [
        "Ac",
        "t</w>"
      ],
      [
        "in",
        "t</w>"
      ],
      [
        "इस",
        "में</w>"
      ],
      [
        "स",
        "न</w>"
      ],
      [
        "म",
        "े</w>"
      ],
      [
        "ख",
        "ा</w>"
      ],
      [
        "l",
        "ess</w>"
      ],
      [
        "ब",
        "ल्"
      ],
      [
        "क्यो",
        "ंकि</w>"
      ],
      [
        "प",
        "श्"
      ],
      [
        "1",
        "0</w>"
      ],
      [
        "l",
        "ar"
      ],
      [
        "क्र",
        "म</w>"
      ],
      [
        "b",
        "as"
      ],
      [
        "re",
        "v"
      ],
      [
        "दे",
        "ता</w>"
      ],
      [
        "त",
        "म</w>"
      ],
      [
        "sy",
        "st"
      ],
      [
        "नि",
        "क"
      ],
      [
        "ढ",
        "़</w>"
      ],
      [
        "जि",
        "से</w>"
      ],
      [
        "आ",
        "ज</w>"
      ],
      [
        "जि",
        "न्"
      ],
      [
        "m",
        "il"
      ],
      [
        "न्",
        "तु</w>"
      ],
      [
        "स्",
        "तु"
      ],
      [
        "मा",
        "म"
      ],
      [
        "b",
        "lic</w>"
      ],
      [
        "ह",
        "ै"
      ],
      [
        "s",
        "ed</w>"
      ],
      [
        "f",
        "il"
      ],
      [
        "R",
        "a"
      ],
      [
        "कं",
        "प"
      ],
      [
        "f",
        "un"
      ],
      [
        "is",
        "ed</w>"
      ],
      [
        "अधि",
        "नियम</w>"
      ],
      [
        "उप",
        "लब्"
      ],
      [
        "gi",
        "ven</w>"
      ],
      [
        "l",
        "and</w>"
      ],
      [
        "par",
        "t</w>"
      ],
      [
        "पूर्",
        "व</w>"
      ],
      [
        "e",
        "as"
      ],
      [
        "r",
        "ic"
      ],
      [
        "ट",
        "ी"
      ],
      [
        "आ",
        "ं"
      ],
      [
        "e",
        "p</w>"
      ],
      [
        "t",
        "re"
      ],
      [
        "ध",
        "ी</w>"
      ],
      [
        "ब",
        "ना</w>"
      ],
      [
        "g",
        "an"
      ],
      [
        "ch",
        "il"
      ],
      [
        "N",
        "o"
      ],
      [
        "A",
        "d"
      ],
      [
        "ड",
        "ी</w>"
      ],
      [
        "d",
        "et"
      ],
      [
        "प",
        "ी</w>"
      ],
      [
        "स्व",
        "ी"
      ],
      [
        "घ",
        "ा"
      ],
      [
        "अथ",
        "वा</w>"
      ],
      [
        "y",
        "a</w>"
      ],
      [
        "उन",
        "से</w>"
      ],
      [
        "am",
        "ong</w>"
      ],
      [
        "M",
        "u"
      ],
      [
        "c",
        "ul"
      ],
      [
        "ag",
        "es</w>"
      ],
      [
        "re",
        "ad"
      ],
      [
        "थ",
        "ा"
      ],
      [
        "र्",
        "म</w>"
      ],
      [
        "an",
        "ts</w>"
      ],
      [
        "kno",
        "w"
      ],
      [
        "D",
        "i"
      ],
      [
        "k",
        "en</w>"
      ],
      [
        "s",
        "ur"
      ],
      [
        "bec",
        "ause</w>"
      ],
      [
        "su",
        "p"
      ],
      [
        "उस",
        "से</w>"
      ],
      [
        "s",
        "ent</w>"
      ],
      [
        "e",
        "e</w>"
      ],
      [
        "ish",
        "ed</w>"
      ],
      [
        "त",
        "ब</w>"
      ],
      [
        "त्",
        "या"
      ],
      [
        "ap",
        "p"
      ],
      [
        "di",
        "ffer"
      ],
      [
        "त",
        "ै"
      ],
      [
        "क",
        "भी</w>"
      ],
      [
        "मा",
        "ल</w>"
      ],
      [
        "H",
        "im</w>"
      ],
      [
        "h",
        "um"
      ],
      [
        "l",
        "l</w>"
      ],
      [
        "isi",
        "on</w>"
      ],
      [
        "s",
        "ha"
      ],
      [
        "op",
        "er"
      ],
      [
        "fi",
        "ed</w>"
      ],
      [
        "ex",
        "t</w>"
      ],
      [
        "m",
        "ents</w>"
      ],
      [
        "c",
        "u"
      ],
      [
        "in",
        "du"
      ],
      [
        "di",
        "rec"
      ],
      [
        "1",
        "8"
      ],
      [
        "St",
        "ate</w>"
      ],
      [
        "पर",
        "वर"
      ],
      [
        "pl",
        "ic"
      ],
      [
        "दि",
        "गार</w>"
      ],
      [
        "फ",
        "ा"
      ],
      [
        "no",
        "w</w>"
      ],
      [
        "मू",
        "ल्"
      ],
      [
        "c",
        "la"
      ],
      [
        "c",
        "an"
      ],
      [
        "ro",
        "w"
      ],
      [
        "परवर",
        "दिगार</w>"
      ],
      [
        "r",
        "i</w>"
      ],
      [
        "re",
        "li"
      ],
      [
        "कर",
        "ा"
      ],
      [
        "नि",
        "या</w>"
      ],
      [
        "के",
        "ं"
      ],
      [
        "c",
        "ha"
      ],
      [
        "g",
        "ener"
      ],
      [
        "न",
        "ीय</w>"
      ],
      [
        "ध",
        "ा</w>"
      ],
      [
        "mu",
        "st</w>"
      ],
      [
        "o",
        "f"
      ],
      [
        "ol",
        "u"
      ],
      [
        "ac",
        "coun"
      ],
      [
        "ta",
        "in</w>"
      ],
      [
        "त",
        "ौ"
      ],
      [
        "श",
        "ी</w>"
      ],
      [
        "नि",
        "का"
      ],
      [
        "ab",
        "l"
      ],
      [
        "b",
        "i"
      ],
      [
        "क",
        "ॉ"
      ],
      [
        "Wh",
        "en</w>"
      ],
      [
        "d",
        "ge</w>"
      ],
      [
        "e",
        "ds</w>"
      ],
      [
        "th",
        "ers</w>"
      ],
      [
        "ब",
        "स</w>"
      ],
      [
        "w",
        "om"
      ],
      [
        "st",
        "ar"
      ],
      [
        "tur",
        "n</w>"
      ],
      [
        "सक",
        "ती</w>"
      ],
      [
        "ever",
        "y</w>"
      ],
      [
        "च्",
        "च"
      ],
      [
        "m",
        "en</w>"
      ],
      [
        "l",
        "it"
      ],
      [
        "ब",
        "र"
      ],
      [
        "al",
        "ity</w>"
      ],
      [
        "ख्",
        "या</w>"
      ],
      [
        "m",
        "p"
      ],
      [
        "पहु",
        "ँ"
      ],
      [
        "प",
        "न</w>"
      ],
      [
        "u",
        "al</w>"
      ],
      [
        "O",
        "ur</w>"
      ],
      [
        "ख",
        "े"
      ],
      [
        "श",
        "ब्"
      ],
      [
        "R",
        "e"
      ],
      [
        "बड़",
        "ी</w>"
      ],
      [
        "r",
        "a</w>"
      ],
      [
        "par",
        "t"
      ],
      [
        "con",
        "si"
      ],
      [
        "r",
        "an"
      ],
      [
        "कर",
        "ती</w>"
      ],
      [
        "ष",
        "ण</w>"
      ],
      [
        "सं",
        "देश</w>"
      ],
      [
        "य",
        "क</w>"
      ],
      [
        "ण",
        "ी</w>"
      ],
      [
        "ं",
        "च</w>"
      ],
      [
        "कृ",
        "ति</w>"
      ],
      [
        "h",
        "a</w>"
      ],
      [
        "इस",
        "लिए</w>"
      ],
      [
        "य",
        "र</w>"
      ],
      [
        "es",
        "e</w>"
      ],
      [
        "ट",
        "्र"
      ],
      [
        "ट",
        "न</w>"
      ],
      [
        "in",
        "k</w>"
      ],
      [
        "ची",
        "ज़</w>"
      ],
      [
        "हू",
        "ं</w>"
      ],
      [
        "सहा",
        "यता</w>"
      ],
      [
        "च",
        "ित</w>"
      ],
      [
        "19",
        "9"
      ],
      [
        "क",
        "ई</w>"
      ],
      [
        "re",
        "l"
      ],
      [
        "com",
        "pl"
      ],
      [
        "वे",
        "श</w>"
      ],
      [
        "शि",
        "क्षा</w>"
      ],
      [
        "o",
        "d</w>"
      ],
      [
        "इ",
        "न्"
      ],
      [
        "न",
        "ू"
      ],
      [
        "लि",
        "ये</w>"
      ],
      [
        "v",
        "ari"
      ],
      [
        "त्",
        "ता</w>"
      ],
      [
        "em",
        "s</w>"
      ],
      [
        "म",
        "ित</w>"
      ],
      [
        "ir",
        "e</w>"
      ],
      [
        "k",
        "e"
      ],
      [
        "अल",
        "ग</w>"
      ],
      [
        "आ",
        "य"
      ],
      [
        ".",
        "\"</w>"
      ],
      [
        "sel",
        "ves</w>"
      ],
      [
        "ju",
        "st</w>"
      ],
      [
        "or",
        "der</w>"
      ],
      [
        "मि",
        "क</w>"
      ],
      [
        "O",
        "n"
      ],
      [
        "gre",
        "at</w>"
      ],
      [
        "हा",
        "र</w>"
      ],
      [
        "wh",
        "ile</w>"
      ],
      [
        "D",
        "e"
      ],
      [
        "T",
        "o</w>"
      ],
      [
        "हो",
        "ना</w>"
      ],
      [
        "ec",
        "on"
      ],
      [
        "्य",
        "ू"
      ],
      [
        "बल्",
        "कि</w>"
      ],
      [
        "p",
        "at"
      ],
      [
        "सूच",
        "ी</w>"
      ],
      [
        "सं",
        "स्"
      ],
      [
        "मे",
        "री</w>"
      ],
      [
        "त",
        "ें</w>"
      ],
      [
        "र्",
        "इ</w>"
      ],
      [
        "उन",
        "में</w>"
      ],
      [
        "कु",
        "ल</w>"
      ],
      [
        "ल",
        "त</w>"
      ],
      [
        "ह",
        "ित</w>"
      ],
      [
        "a",
        "in</w>"
      ],
      [
        "s",
        "ome"
      ],
      [
        "a",
        "way</w>"
      ],
      [
        "fol",
        "low"
      ],
      [
        "n",
        "er</w>"
      ],
      [
        "पु",
        "न"
      ],
      [
        "ne",
        "ed</w>"
      ],
      [
        "यो",
        "गि"
      ],
      [
        "र्",
        "य</w>"
      ],
      [
        "भ",
        "ी"
      ],
      [
        "g",
        "l"
      ],
      [
        "प",
        "ता</w>"
      ],
      [
        "id",
        "e"
      ],
      [
        "निर्",
        "माण</w>"
      ],
      [
        "बै",
        "ठ"
      ],
      [
        "w",
        "ater</w>"
      ],
      [
        "c",
        "our"
      ],
      [
        "ब",
        "रा"
      ],
      [
        "b",
        "el"
      ],
      [
        "प्र",
        "का"
      ],
      [
        "at",
        "a</w>"
      ],
      [
        "इस",
        "से</w>"
      ],
      [
        "st",
        "s</w>"
      ],
      [
        "ध",
        "्या"
      ],
      [
        "भ",
        "ु"
      ],
      [
        "वर",
        "ण</w>"
      ],
      [
        "m",
        "it"
      ],
      [
        "शा",
        "मिल</w>"
      ],
      [
        "सद",
        "स्"
      ],
      [
        "F",
        "or</w>"
      ],
      [
        "या",
        "द</w>"
      ],
      [
        "य",
        "त</w>"
      ],
      [
        "हो",
        "गी</w>"
      ],
      [
        "h",
        "ere</w>"
      ],
      [
        "b",
        "ack</w>"
      ],
      [
        "D",
        "ay</w>"
      ],
      [
        "य",
        "हाँ</w>"
      ],
      [
        "au",
        "th"
      ],
      [
        "ं",
        "भ</w>"
      ],
      [
        "d",
        "em"
      ],
      [
        "t",
        "en</w>"
      ],
      [
        "f",
        "am"
      ],
      [
        "श",
        "ै"
      ],
      [
        "num",
        "ber</w>"
      ],
      [
        "ड",
        "ी"
      ],
      [
        "et",
        "y</w>"
      ],
      [
        "परि",
        "वर्"
      ],
      [
        "tic",
        "al</w>"
      ],
      [
        "विशे",
        "ष</w>"
      ],
      [
        "str",
        "y</w>"
      ],
      [
        "n",
        "ational</w>"
      ],
      [
        "आ",
        "गे</w>"
      ],
      [
        "कह",
        "ते</w>"
      ],
      [
        "s",
        "m"
      ],
      [
        "g",
        "o</w>"
      ],
      [
        "ver",
        "s"
      ],
      [
        "fo",
        "re"
      ],
      [
        "कर",
        "के</w>"
      ],
      [
        "क",
        "ह</w>"
      ],
      [
        "I",
        "N"
      ],
      [
        "ec",
        "ts</w>"
      ],
      [
        "f",
        "ile</w>"
      ],
      [
        "र",
        "च"
      ],
      [
        "po",
        "si"
      ],
      [
        "b",
        "an"
      ],
      [
        "ज",
        "हां</w>"
      ],
      [
        "a",
        "tive</w>"
      ],
      [
        "s",
        "en"
      ],
      [
        "दौ",
        "रान</w>"
      ],
      [
        "or",
        "d"
      ],
      [
        "po",
        "wer</w>"
      ],
      [
        "ो",
        "ल्"
      ],
      [
        "त्र",
        "ा</w>"
      ],
      [
        "C",
        "ent"
      ],
      [
        "in",
        "i"
      ],
      [
        "भा",
        "व"
      ],
      [
        "ल",
        "ं"
      ],
      [
        "d",
        "ra"
      ],
      [
        "d",
        "uring</w>"
      ],
      [
        "pers",
        "on</w>"
      ],
      [
        "it",
        "al</w>"
      ],
      [
        "A",
        "s"
      ],
      [
        "ता",
        "न</w>"
      ],
      [
        "प",
        "ार"
      ],
      [
        "जि",
        "न</w>"
      ],
      [
        "g",
        "ar"
      ],
      [
        "र",
        "क्षा</w>"
      ],
      [
        "ं",
        "ट</w>"
      ],
      [
        "believ",
        "ers</w>"
      ],
      [
        "म",
        "ृ"
      ],
      [
        "0",
        "00</w>"
      ],
      [
        "लि",
        "त</w>"
      ],
      [
        "फ",
        "े"
      ],
      [
        "वा",
        "स्त"
      ],
      [
        "re",
        "gi"
      ],
      [
        "2",
        "0</w>"
      ],
      [
        "फ़",
        "ाइल</w>"
      ],
      [
        "e",
        "ach</w>"
      ],
      [
        "o",
        "g"
      ],
      [
        "उन",
        "को</w>"
      ],
      [
        "मंत्र",
        "ी</w>"
      ],
      [
        "el",
        "s</w>"
      ],
      [
        "wr",
        "it"
      ],
      [
        "log",
        "y</w>"
      ],
      [
        "य",
        "ही</w>"
      ],
      [
        "p",
        "i"
      ],
      [
        "स्थ",
        "ित</w>"
      ],
      [
        "क",
        "ौ"
      ],
      [
        "c",
        "ase</w>"
      ],
      [
        "s",
        "ame</w>"
      ],
      [
        "si",
        "de</w>"
      ],
      [
        "वि",
        "भिन्न</w>"
      ],
      [
        "वि",
        "चार</w>"
      ],
      [
        "भ",
        "व</w>"
      ],
      [
        "syst",
        "em</w>"
      ],
      [
        "as",
        "s</w>"
      ],
      [
        "आ",
        "ई"
      ],
      [
        "ष्",
        "ठ"
      ],
      [
        "अ",
        "ग"
      ],
      [
        "अध",
        "ीन</w>"
      ],
      [
        "प",
        "ड़"
      ],
      [
        "o",
        "ff"
      ],
      [
        "े",
        "क</w>"
      ],
      [
        "im",
        "port"
      ],
      [
        "A",
        "s</w>"
      ],
      [
        "ic",
        "es</w>"
      ],
      [
        "ज",
        "े</w>"
      ],
      [
        "c",
        "as"
      ],
      [
        "पूर्",
        "व"
      ],
      [
        "ष्ट",
        "ि</w>"
      ],
      [
        "ad",
        "v"
      ],
      [
        "लि",
        "क</w>"
      ],
      [
        "त्",
        "मक</w>"
      ],
      [
        "वि",
        "त</w>"
      ],
      [
        "स",
        "मान</w>"
      ],
      [
        "A",
        "r"
      ],
      [
        "जिस",
        "के</w>"
      ],
      [
        "an",
        "a</w>"
      ],
      [
        "rec",
        "ei"
      ],
      [
        "य",
        "म</w>"
      ],
      [
        "ल",
        "ू"
      ],
      [
        "सं",
        "ख्या</w>"
      ],
      [
        "ौ",
        "द्"
      ],
      [
        "अनु",
        "सार</w>"
      ],
      [
        "द",
        "र"
      ],
      [
        "पू",
        "रा</w>"
      ],
      [
        "ch",
        "ange</w>"
      ],
      [
        "स",
        "न्"
      ],
      [
        "ार",
        "ा"
      ],
      [
        "त्व",
        "पूर्ण</w>"
      ],
      [
        "ou",
        "se</w>"
      ],
      [
        "ou",
        "t"
      ],
      [
        "d",
        "en"
      ],
      [
        "हो",
        "ंगे</w>"
      ],
      [
        "साम",
        "ने</w>"
      ],
      [
        "इस",
        "का</w>"
      ],
      [
        "ou",
        "s"
      ],
      [
        "d",
        "en</w>"
      ],
      [
        "से",
        "वा</w>"
      ],
      [
        "सम",
        "ु"
      ],
      [
        "फ़",
        "ि"
      ],
      [
        "तर",
        "फ</w>"
      ],
      [
        "मार्",
        "ग</w>"
      ],
      [
        "Th",
        "en</w>"
      ],
      [
        "su",
        "l"
      ],
      [
        "resp",
        "on"
      ],
      [
        "c",
        "c"
      ],
      [
        "म",
        "द"
      ],
      [
        "ग",
        "ी"
      ],
      [
        "y",
        "s</w>"
      ],
      [
        "w",
        "ays</w>"
      ],
      [
        "le",
        "dge</w>"
      ],
      [
        "ह",
        "त</w>"
      ],
      [
        "bo",
        "th</w>"
      ],
      [
        "ने",
        "क</w>"
      ],
      [
        "अ",
        "ति"
      ],
      [
        "c",
        "lo"
      ],
      [
        "de",
        "p"
      ],
      [
        "N",
        "o</w>"
      ],
      [
        "R",
        "es"
      ],
      [
        "e",
        "f</w>"
      ],
      [
        "v",
        "en"
      ],
      [
        ":",
        "%</w>"
      ],
      [
        "spec",
        "i"
      ],
      [
        "ह",
        "न</w>"
      ],
      [
        "कि",
        "ता"
      ],
      [
        "र",
        "ू</w>"
      ],
      [
        "भ",
        "ा</w>"
      ],
      [
        "st",
        "an"
      ],
      [
        "सं",
        "बंध</w>"
      ],
      [
        "गा",
        "ं"
      ],
      [
        "सम",
        "ू"
      ],
      [
        "or",
        "gan"
      ],
      [
        "या",
        "न</w>"
      ],
      [
        "cal",
        "led</w>"
      ],
      [
        "s",
        "ci"
      ],
      [
        "घ",
        "ट"
      ],
      [
        "war",
        "ds</w>"
      ],
      [
        "विश्",
        "व"
      ],
      [
        "वा",
        "न</w>"
      ],
      [
        "an",
        "other</w>"
      ],
      [
        "मु",
        "ख</w>"
      ],
      [
        "कर",
        "े</w>"
      ],
      [
        "B",
        "ha"
      ],
      [
        "उस",
        "में</w>"
      ],
      [
        "et",
        "c</w>"
      ],
      [
        "छ",
        "ा"
      ],
      [
        "सा",
        "इ"
      ],
      [
        "अच्छ",
        "ा</w>"
      ],
      [
        "देश",
        "ों</w>"
      ],
      [
        "develop",
        "ment</w>"
      ],
      [
        "U",
        "ni"
      ],
      [
        "b",
        "ro"
      ],
      [
        "th",
        "ings</w>"
      ],
      [
        "आप",
        "को</w>"
      ],
      [
        "आ",
        "धार</w>"
      ],
      [
        "भाष",
        "ा</w>"
      ],
      [
        "न",
        "ई</w>"
      ],
      [
        "enc",
        "y</w>"
      ],
      [
        "घ",
        "र</w>"
      ],
      [
        "kno",
        "wn</w>"
      ],
      [
        "ं",
        "त्र"
      ],
      [
        "क्",
        "स</w>"
      ],
      [
        "संबंध",
        "ित</w>"
      ],
      [
        "इ",
        "सी</w>"
      ],
      [
        "दु",
        "निया</w>"
      ],
      [
        "e",
        "duc"
      ],
      [
        "दे",
        "ते</w>"
      ],
      [
        "E",
        "N"
      ],
      [
        "w",
        "in"
      ],
      [
        "hel",
        "p</w>"
      ],
      [
        "l",
        "ong</w>"
      ],
      [
        "प",
        "ृ"
      ],
      [
        "t",
        "en"
      ],
      [
        "क्ष",
        "ित</w>"
      ],
      [
        "म",
        "ीन</w>"
      ],
      [
        "w",
        "a"
      ],
      [
        "कर",
        "ेगा</w>"
      ],
      [
        "ल",
        "ै"
      ],
      [
        "y",
        "ed</w>"
      ],
      [
        "ig",
        "n</w>"
      ],
      [
        "न्",
        "त</w>"
      ],
      [
        "or",
        "t</w>"
      ],
      [
        "t",
        "ech"
      ],
      [
        "बा",
        "हर</w>"
      ],
      [
        "वर्",
        "ष"
      ],
      [
        "si",
        "ble</w>"
      ],
      [
        "who",
        "m</w>"
      ],
      [
        "ण",
        "ों</w>"
      ],
      [
        "अ",
        "न"
      ],
      [
        "य",
        "ो</w>"
      ],
      [
        "सि",
        "ं"
      ],
      [
        "pu",
        "t</w>"
      ],
      [
        "ण",
        "ा</w>"
      ],
      [
        "उपलब्",
        "ध</w>"
      ],
      [
        "तै",
        "यार</w>"
      ],
      [
        "in",
        "ed</w>"
      ],
      [
        "बड़",
        "े</w>"
      ],
      [
        "econ",
        "om"
      ],
      [
        "आ",
        "य</w>"
      ],
      [
        "v",
        "il"
      ],
      [
        "bu",
        "il"
      ],
      [
        "as",
        "k</w>"
      ],
      [
        "च्",
        "च</w>"
      ],
      [
        "चाह",
        "ते</w>"
      ],
      [
        "n",
        "or</w>"
      ],
      [
        "वा",
        "ह</w>"
      ],
      [
        "in",
        "deed</w>"
      ],
      [
        "ac",
        "tion</w>"
      ],
      [
        "प्रत्य",
        "ेक</w>"
      ],
      [
        "वि",
        "क</w>"
      ],
      [
        "निश्च",
        "ित</w>"
      ],
      [
        "च",
        "ार"
      ],
      [
        "l",
        "ine</w>"
      ],
      [
        "5",
        "0</w>"
      ],
      [
        "पा",
        "नी</w>"
      ],
      [
        "with",
        "out</w>"
      ],
      [
        "1",
        "2</w>"
      ],
      [
        "विष",
        "य</w>"
      ],
      [
        "d",
        "ic"
      ],
      [
        "ले",
        "ख"
      ],
      [
        "स",
        "ौ"
      ],
      [
        "द्",
        "धि</w>"
      ],
      [
        "ंग",
        "्रे"
      ],
      [
        "ध",
        "ु"
      ],
      [
        "क",
        "ल</w>"
      ],
      [
        "in",
        "clu"
      ],
      [
        "th",
        "ree</w>"
      ],
      [
        "s",
        "ou"
      ],
      [
        "c",
        "ame</w>"
      ],
      [
        "ac",
        "k"
      ],
      [
        "comm",
        "un"
      ],
      [
        "tim",
        "es</w>"
      ],
      [
        "म",
        "हि"
      ],
      [
        "dre",
        "n</w>"
      ],
      [
        "n",
        "al</w>"
      ],
      [
        "W",
        "hat</w>"
      ],
      [
        "ज",
        "ारी</w>"
      ],
      [
        "त्",
        "त</w>"
      ],
      [
        "b",
        "ers</w>"
      ],
      [
        "ब",
        "न</w>"
      ],
      [
        "su",
        "cc"
      ],
      [
        "bo",
        "dy</w>"
      ],
      [
        "in",
        "s</w>"
      ],
      [
        "t",
        "ly</w>"
      ],
      [
        "know",
        "ledge</w>"
[...]
