{
  "version": "1.0",
  "truncation": {
    "direction": "Right",
    "max_length": 128,
    "strategy": "LongestFirst",
    "stride": 0
  },
  "padding": {
    "strategy": {
      "Fixed": 128
    },
    "direction": "Right",
    "pad_to_multiple_of": null,
    "pad_id": 1,
    "pad_type_id": 0,
    "pad_token": "[PAD]"
  },
  "added_tokens": [
    {
      "id": 0,
      "content": "[UNK]",
      "single_word": false,
      "lstrip": false,
      "rstrip": false,
      "normalized": false,
      "special": true
    },
    {
      "id": 1,
      "content": "[PAD]",
      "single_word": false,
      "lstrip": false,
      "rstrip": false,
      "normalized": false,
      "special": true
    },
    {
      "id": 2,
      "content": "[EOS]",
      "single_word": false,
      "lstrip": false,
      "rstrip": false,
      "normalized": false,
      "special": true
    },
    {
      "id": 3,
      "content": "[SOS]",
      "single_word": false,
      "lstrip": false,
      "rstrip": false,
      "normalized": false,
      "special": true
    }
  ],
  "normalizer": null,
  "pre_tokenizer": {
    "type": "Whitespace"
  },
  "post_processor": null,
  "decoder": {
    "type": "BPEDecoder",
    "suffix": "</w>"
  },
  "model": {
    "type": "BPE",
    "dropout": null,
    "unk_token": "[UNK]",
    "continuing_subword_prefix": null,
    "end_of_word_suffix": "</w>",
    "fuse_unk": false,
    "byte_fallback": false,
    "ignore_merges": false,
    "vocab": {
      "[UNK]": 0,
      "[PAD]": 1,
      "[EOS]": 2,
      "[SOS]": 3,
      "\u0014": 4,
      "\u001b": 5,
      "!": 6,
      "\"": 7,
      "#": 8,
      "$": 9,
      "%": 10,
      "&": 11,
      "'": 12,
      "(": 13,
      ")": 14,
      "*": 15,
      "+": 16,
      ",": 17,
      "-": 18,
      ".": 19,
      "/": 20,
      "0": 21,
      "1": 22,
      "2": 23,
      "3": 24,
      "4": 25,
      "5": 26,
      "6": 27,
      "7": 28,
      "8": 29,
      "9": 30,
      ":": 31,
      ";": 32,
      "<": 33,
      "=": 34,
      ">": 35,
      "?": 36,
      "@": 37,
      "A": 38,
      "B": 39,
      "C": 40,
      "D": 41,
      "E": 42,
      "F": 43,
      "G": 44,
      "H": 45,
      "I": 46,
      "J": 47,
      "K": 48,
      "L": 49,
      "M": 50,
      "N": 51,
      "O": 52,
      "P": 53,
      "Q": 54,
      "R": 55,
      "S": 56,
      "T": 57,
      "U": 58,
      "V": 59,
      "W": 60,
      "X": 61,
      "Y": 62,
      "Z": 63,
      "[": 64,
      "\\": 65,
      "]": 66,
      "^": 67,
      "_": 68,
      "`": 69,
      "a": 70,
      "b": 71,
      "c": 72,
      "d": 73,
      "e": 74,
      "f": 75,
      "g": 76,
      "h": 77,
      "i": 78,
      "j": 79,
      "k": 80,
      "l": 81,
      "m": 82,
      "n": 83,
      "o": 84,
      "p": 85,
      "q": 86,
      "r": 87,
      "s": 88,
      "t": 89,
      "u": 90,
      "v": 91,
      "w": 92,
      "x": 93,
      "y": 94,
      "z": 95,
      "{": 96,
      "|": 97,
      "}": 98,
      "~": 99,
      "": 100,
      "": 101,
      "": 102,
      "": 103,
      "": 104,
      "": 105,
      "": 106,
      "": 107,
      "": 108,
      "": 109,
      "": 110,
      "": 111,
      "": 112,
      "": 113,
      "": 114,
      "": 115,
      "": 116,
      "": 117,
      "": 118,
      "": 119,
      "": 120,
      "": 121,
      "": 122,
      "": 123,
      "": 124,
      "": 125,
      "": 126,
      "": 127,
      "": 128,
      "": 129,
      "¡": 130,
      "¢": 131,
      "£": 132,
      "¤": 133,
      "¥": 134,
      "¦": 135,
      "§": 136,
      "¨": 137,
      "©": 138,
      "ª": 139,
      "«": 140,
      "¬": 141,
      "­": 142,
      "®": 143,
      "¯": 144,
      "°": 145,
      "±": 146,
      "²": 147,
      "³": 148,
      "´": 149,
      "µ": 150,
      "¶": 151,
      "·": 152,
      "¸": 153,
      "¹": 154,
      "º": 155,
      "»": 156,
      "¼": 157,
      "½": 158,
      "¾": 159,
      "¿": 160,
      "À": 161,
      "Á": 162,
      "Â": 163,
      "Ã": 164,
      "Ä": 165,
      "Å": 166,
      "Æ": 167,
      "Ç": 168,
      "É": 169,
      "Ê": 170,
      "Í": 171,
      "Î": 172,
      "Ð": 173,
      "Ñ": 174,
      "Ó": 175,
      "Ô": 176,
      "Õ": 177,
      "Ö": 178,
      "×": 179,
      "Ø": 180,
      "Ú": 181,
      "Û": 182,
      "Ü": 183,
      "ß": 184,
      "à": 185,
      "á": 186,
      "â": 187,
      "ã": 188,
      "ä": 189,
      "å": 190,
      "æ": 191,
      "ç": 192,
      "è": 193,
      "é": 194,
      "ê": 195,
      "ë": 196,
      "ì": 197,
      "í": 198,
      "î": 199,
      "ï": 200,
      "ð": 201,
      "ñ": 202,
      "ò": 203,
      "ó": 204,
      "ô": 205,
      "õ": 206,
      "ö": 207,
      "÷": 208,
      "ø": 209,
      "ù": 210,
      "ú": 211,
      "ü": 212,
      "ý": 213,
      "þ": 214,
      "Ā": 215,
      "ā": 216,
      "Ă": 217,
      "ă": 218,
      "Ą": 219,
      "ą": 220,
      "Ć": 221,
      "ć": 222,
      "Č": 223,
      "č": 224,
      "ď": 225,
      "Đ": 226,
      "ē": 227,
      "ė": 228,
      "Ę": 229,
      "ę": 230,
      "Ě": 231,
      "ě": 232,
      "ğ": 233,
      "ģ": 234,
      "ī": 235,
      "ĭ": 236,
      "İ": 237,
      "ı": 238,
      "Ĺ": 239,
      "ĺ": 240,
      "ļ": 241,
      "Ľ": 242,
      "ľ": 243,
      "Ł": 244,
      "ł": 245,
      "ń": 246,
      "Ň": 247,
      "ň": 248,
      "Ō": 249,
      "ō": 250,
      "ŏ": 251,
      "ő": 252,
      "œ": 253,
      "ŕ": 254,
      "Ř": 255,
      "ř": 256,
      "Ś": 257,
      "ś": 258,
      "Ş": 259,
      "ş": 260,
      "Š": 261,
      "š": 262,
      "Ţ": 263,
      "ţ": 264,
      "Ť": 265,
      "ť": 266,
      "ū": 267,
      "ŭ": 268,
      "ů": 269,
      "ű": 270,
      "ų": 271,
      "ź": 272,
      "Ż": 273,
      "ż": 274,
      "Ž": 275,
      "ž": 276,
      "ơ": 277,
      "ư": 278,
      "ǁ": 279,
      "ǆ": 280,
      "ș": 281,
      "ț": 282,
      "ɓ": 283,
      "ə": 284,
      "ɪ": 285,
      "ʼ": 286,
      "ʿ": 287,
      "ˇ": 288,
      "ː": 289,
      "˘": 290,
      "˙": 291,
      "˚": 292,
      "˛": 293,
      "˜": 294,
      "˝": 295,
      "̀": 296,
      "́": 297,
      "̂": 298,
      "̃": 299,
      "̄": 300,
      "̆": 301,
      "̇": 302,
      "̈": 303,
      "̊": 304,
      "̌": 305,
      "̣": 306,
      "̧": 307,
      "̨": 308,
      "̪": 309,
      "ͧ": 310,
      ";": 311,
      "Β": 312,
      "Δ": 313,
      "Θ": 314,
      "Κ": 315,
      "Λ": 316,
      "Μ": 317,
      "Π": 318,
      "Ω": 319,
      "ί": 320,
      "α": 321,
      "β": 322,
      "γ": 323,
      "ε": 324,
      "ζ": 325,
      "η": 326,
      "θ": 327,
      "ι": 328,
      "κ": 329,
      "λ": 330,
      "μ": 331,
      "ν": 332,
      "ο": 333,
      "π": 334,
      "ρ": 335,
      "σ": 336,
      "τ": 337,
      "φ": 338,
      "ψ": 339,
      "ω": 340,
      "ό": 341,
      "ώ": 342,
      "Ѕ": 343,
      "І": 344,
      "А": 345,
      "Б": 346,
      "В": 347,
      "Г": 348,
      "Д": 349,
      "Е": 350,
      "Ж": 351,
      "З": 352,
      "И": 353,
      "К": 354,
      "Л": 355,
      "М": 356,
      "Н": 357,
      "О": 358,
      "П": 359,
      "Р": 360,
      "С": 361,
      "Т": 362,
      "У": 363,
      "Х": 364,
      "Ч": 365,
      "Ш": 366,
      "Ы": 367,
      "Я": 368,
      "а": 369,
      "б": 370,
      "в": 371,
      "г": 372,
      "д": 373,
      "е": 374,
      "ж": 375,
      "з": 376,
      "и": 377,
      "й": 378,
      "к": 379,
      "л": 380,
      "м": 381,
      "н": 382,
      "о": 383,
      "п": 384,
      "р": 385,
      "с": 386,
      "т": 387,
      "у": 388,
      "ф": 389,
      "х": 390,
      "ц": 391,
      "ч": 392,
      "ш": 393,
      "щ": 394,
      "ъ": 395,
      "ы": 396,
      "ь": 397,
      "э": 398,
      "ю": 399,
      "я": 400,
      "є": 401,
      "і": 402,
      "ғ": 403,
      "Қ": 404,
      "қ": 405,
      "ң": 406,
      "Ү": 407,
      "ү": 408,
      "ұ": 409,
      "ә": 410,
      "Ө": 411,
      "ө": 412,
      "֠": 413,
      "֦": 414,
      "ֹ": 415,
      "׃": 416,
      "،": 417,
      "آ": 418,
      "أ": 419,
      "إ": 420,
      "ا": 421,
      "ة": 422,
      "ت": 423,
      "ج": 424,
      "ح": 425,
      "د": 426,
      "ر": 427,
      "س": 428,
      "ق": 429,
      "ك": 430,
      "ل": 431,
      "م": 432,
      "ن": 433,
      "و": 434,
      "ي": 435,
      "ٓ": 436,
      "ٕ": 437,
      "ی": 438,
      "ँ": 439,
      "ं": 440,
      "ः": 441,
      "अ": 442,
      "आ": 443,
      "इ": 444,
      "ई": 445,
      "उ": 446,
      "ऊ": 447,
      "ऋ": 448,
      "ऌ": 449,
      "ऍ": 450,
      "ऎ": 451,
      "ए": 452,
      "ऐ": 453,
      "ऑ": 454,
      "ऒ": 455,
      "ओ": 456,
      "औ": 457,
      "क": 458,
      "ख": 459,
      "ग": 460,
      "घ": 461,
      "ङ": 462,
      "च": 463,
      "छ": 464,
      "ज": 465,
      "झ": 466,
      "ञ": 467,
      "ट": 468,
      "ठ": 469,
      "ड": 470,
      "ढ": 471,
      "ण": 472,
      "त": 473,
      "थ": 474,
      "द": 475,
      "ध": 476,
      "न": 477,
      "ऩ": 478,
      "प": 479,
      "फ": 480,
      "ब": 481,
      "भ": 482,
      "म": 483,
      "य": 484,
      "र": 485,
      "ऱ": 486,
      "ल": 487,
      "ळ": 488,
      "ऴ": 489,
      "व": 490,
      "श": 491,
      "ष": 492,
      "स": 493,
      "ह": 494,
      "़": 495,
      "ऽ": 496,
      "ा": 497,
      "ि": 498,
      "ी": 499,
      "ु": 500,
      "ू": 501,
      "ृ": 502,
      "ॄ": 503,
      "ॅ": 504,
      "ॆ": 505,
      "े": 506,
      "ै": 507,
      "ॉ": 508,
      "ॊ": 509,
      "ो": 510,
      "ौ": 511,
      "्": 512,
      "ॐ": 513,
      "॑": 514,
      "॒": 515,
      "॓": 516,
      "॔": 517,
      "क़": 518,
      "ख़": 519,
      "ग़": 520,
      "ज़": 521,
      "ड़": 522,
      "ढ़": 523,
      "फ़": 524,
      "य़": 525,
      "ॠ": 526,
      "ॡ": 527,
      "ॣ": 528,
      "।": 529,
      "॥": 530,
      "०": 531,
      "१": 532,
      "२": 533,
      "३": 534,
      "४": 535,
      "५": 536,
      "६": 537,
      "७": 538,
      "८": 539,
      "९": 540,
      "॰": 541,
      "ক": 542,
      "চ": 543,
      "ঠ": 544,
      "থ": 545,
      "দ": 546,
      "ন": 547,
      "ব": 548,
      "ভ": 549,
      "র": 550,
      "ষ": 551,
      "স": 552,
      "া": 553,
      "ী": 554,
      "ু": 555,
      "্": 556,
      "ਦ": 557,
      "ਲ": 558,
      "ਿ": 559,
      "ੀ": 560,
      "ੱ": 561,
      "પ": 562,
      "બ": 563,
      "ા": 564,
      "ુ": 565,
      "ḍ": 566,
      "ḥ": 567,
      "ḷ": 568,
      "ṁ": 569,
      "ṃ": 570,
      "ṅ": 571,
      "ṇ": 572,
      "Ṛ": 573,
      "ṛ": 574,
      "ṣ": 575,
      "ṭ": 576,
      "ẻ": 577,
      "ờ": 578,
      "ủ": 579,
      "​": 580,
      "‌": 581,
      "‍": 582,
      "‎": 583,
      "‏": 584,
      "‐": 585,
      "‑": 586,
      "–": 587,
      "—": 588,
      "―": 589,
      "‘": 590,
      "’": 591,
      "‚": 592,
      "“": 593,
      "”": 594,
      "„": 595,
      "†": 596,
      "‡": 597,
      "•": 598,
      "…": 599,
      "‰": 600,
      "′": 601,
      "⁰": 602,
      "⁴": 603,
      "⁵": 604,
      "⁶": 605,
      "⁷": 606,
      "⁻": 607,
      "₀": 608,
      "₁": 609,
      "₂": 610,
      "€": 611,
      "₹": 612,
      "™": 613,
      "⅓": 614,
      "⅔": 615,
      "⅕": 616,
      "⅖": 617,
      "⅗": 618,
      "⅘": 619,
      "⅙": 620,
      "←": 621,
      "→": 622,
      "⇒": 623,
      "∂": 624,
      "−": 625,
      "∕": 626,
      "√": 627,
      "∞": 628,
      "∣": 629,
      "∨": 630,
      "∶": 631,
      "≠": 632,
      "≤": 633,
      "≥": 634,
      "⋯": 635,
      "⌈": 636,
      "⌉": 637,
      "⌊": 638,
      "⌋": 639,
      "⌘": 640,
      "⏎": 641,
      "─": 642,
      "═": 643,
      "■": 644,
      "☺": 645,
      "☻": 646,
      "♪": 647,
      "♫": 648,
      "➣": 649,
      "、": 650,
      "。": 651,
      "あ": 652,
      "い": 653,
      "う": 654,
      "え": 655,
      "か": 656,
      "き": 657,
      "く": 658,
      "け": 659,
      "こ": 660,
      "さ": 661,
      "し": 662,
      "す": 663,
      "せ": 664,
      "そ": 665,
      "た": 666,
      "ち": 667,
      "っ": 668,
      "つ": 669,
      "て": 670,
      "と": 671,
      "な": 672,
      "に": 673,
      "の": 674,
      "は": 675,
      "ひ": 676,
      "へ": 677,
      "ま": 678,
      "み": 679,
      "め": 680,
      "も": 681,
      "よ": 682,
      "ら": 683,
      "り": 684,
      "る": 685,
      "れ": 686,
      "を": 687,
      "ん": 688,
      "゙": 689,
      "゚": 690,
      "ァ": 691,
      "ア": 692,
      "ィ": 693,
      "イ": 694,
      "ウ": 695,
      "エ": 696,
      "ォ": 697,
      "オ": 698,
      "カ": 699,
      "ク": 700,
      "コ": 701,
      "サ": 702,
      "シ": 703,
      "ス": 704,
      "タ": 705,
      "ッ": 706,
      "テ": 707,
      "ト": 708,
      "ニ": 709,
      "ネ": 710,
      "ハ": 711,
      "ヒ": 712,
      "フ": 713,
      "ヘ": 714,
      "ホ": 715,
      "マ": 716,
      "ム": 717,
      "メ": 718,
      "モ": 719,
      "ョ": 720,
      "ラ": 721,
      "リ": 722,
      "ル": 723,
      "レ": 724,
      "ロ": 725,
      "ワ": 726,
      "ン": 727,
      "ー": 728,
      "一": 729,
      "上": 730,
      "下": 731,
      "不": 732,
      "両": 733,
      "並": 734,
      "中": 735,
      "了": 736,
      "他": 737,
      "付": 738,
      "作": 739,
      "使": 740,
      "保": 741,
      "信": 742,
      "傭": 743,
      "優": 744,
      "元": 745,
      "先": 746,
      "入": 747,
      "全": 748,
      "共": 749,
      "内": 750,
      "再": 751,
      "出": 752,
      "分": 753,
      "切": 754,
      "利": 755,
      "削": 756,
      "前": 757,
      "力": 758,
      "加": 759,
      "動": 760,
      "化": 761,
      "匿": 762,
      "参": 763,
      "可": 764,
      "同": 765,
      "名": 766,
      "否": 767,
      "含": 768,
      "員": 769,
      "國": 770,
      "堀": 771,
      "報": 772,
      "境": 773,
      "変": 774,
      "外": 775,
      "大": 776,
      "失": 777,
      "妖": 778,
      "始": 779,
      "字": 780,
      "存": 781,
      "定": 782,
      "容": 783,
      "対": 784,
      "小": 785,
      "広": 786,
      "度": 787,
      "庸": 788,
      "当": 789,
      "待": 790,
      "後": 791,
      "従": 792,
      "必": 793,
      "悠": 794,
      "情": 795,
      "態": 796,
      "憂": 797,
      "成": 798,
      "戻": 799,
      "所": 800,
      "手": 801,
      "打": 802,
      "承": 803,
      "択": 804,
      "抹": 805,
      "拒": 806,
      "接": 807,
      "揺": 808,
      "擁": 809,
      "敗": 810,
      "数": 811,
      "断": 812,
      "新": 813,
      "方": 814,
      "既": 815,
      "明": 816,
      "時": 817,
      "曜": 818,
      "更": 819,
      "替": 820,
      "最": 821,
      "有": 822,
      "未": 823,
      "本": 824,
      "様": 825,
      "正": 826,
      "毎": 827,
      "求": 828,
      "洋": 829,
      "消": 830,
      "満": 831,
      "溶": 832,
      "漢": 833,
      "点": 834,
      "熔": 835,
      "版": 836,
      "状": 837,
      "環": 838,
      "用": 839,
      "由": 840,
      "病": 841,
      "登": 842,
      "直": 843,
      "知": 844,
      "短": 845,
      "確": 846,
      "示": 847,
      "秒": 848,
      "秦": 849,
      "細": 850,
      "終": 851,
      "続": 852,
      "編": 853,
      "置": 854,
      "羊": 855,
      "耀": 856,
      "者": 857,
      "能": 858,
      "脱": 859,
      "自": 860,
      "致": 861,
      "般": 862,
      "色": 863,
      "葉": 864,
      "行": 865,
      "表": 866,
      "複": 867,
      "要": 868,
      "見": 869,
      "規": 870,
      "覧": 871,
      "設": 872,
      "詳": 873,
      "認": 874,
      "謡": 875,
      "设": 876,
      "象": 877,
      "起": 878,
      "越": 879,
      "追": 880,
      "送": 881,
      "通": 882,
      "連": 883,
      "遥": 884,
      "選": 885,
      "重": 886,
      "録": 887,
      "開": 888,
      "関": 889,
      "除": 890,
      "集": 891,
      "離": 892,
      "順": 893,
      "預": 894,
      "째": 895,
      "": 896,
      "": 897,
      "": 898,
      "": 899,
      "": 900,
      "": 901,
      "ﬁ": 902,
      "ﬂ": 903,
      "﻿": 904,
      "：": 905,
      "？": 906,
      "￼": 907,
      "�": 908,
      "a</w>": 909,
      "n</w>": 910,
      "ग</w>": 911,
      "ी</w>": 912,
      "स</w>": 913,
      "d</w>": 914,
      "ं</w>": 915,
      "l</w>": 916,
      "k</w>": 917,
      "t</w>": 918,
      "h</w>": 919,
      "ा</w>": 920,
      "द</w>": 921,
      "N</w>": 922,
      "ः</w>": 923,
      "े</w>": 924,
      "ज</w>": 925,
      "s</w>": 926,
      "श</w>": 927,
      "н</w>": 928,
      "m</w>": 929,
      "3</w>": 930,
      "म</w>": 931,
      "ि</w>": 932,
      "e</w>": 933,
      "i</w>": 934,
      "र</w>": 935,
      "क</w>": 936,
      "१</w>": 937,
      "त</w>": 938,
      "ु</w>": 939,
      "E</w>": 940,
      "ड</w>": 941,
      "ट</w>": 942,
      "न</w>": 943,
      "ई</w>": 944,
      "ल</w>": 945,
      "ू</w>": 946,
      "z</w>": 947,
      "r</w>": 948,
      "ण</w>": 949,
      "y</w>": 950,
      "I</w>": 951,
      "g</w>": 952,
      "य</w>": 953,
      "ओ</w>": 954,
      "1</w>": 955,
      "ष</w>": 956,
      "G</w>": 957,
      "T</w>": 958,
      "і</w>": 959,
      "ह</w>": 960,
      "प</w>": 961,
      "ए</w>": 962,
      "़</w>": 963,
      "x</w>": 964,
      "ो</w>": 965,
      ".</w>": 966,
      "्</w>": 967,
      "व</w>": 968,
      "7</w>": 969,
      "p</w>": 970,
      "o</w>": 971,
      "ş</w>": 972,
      "c</w>": 973,
      "4</w>": 974,
      "S</w>": 975,
      "V</w>": 976,
      "R</w>": 977,
      "घ</w>": 978,
      "ौ</w>": 979,
      "b</w>": 980,
      "९</w>": 981,
      "5</w>": 982,
      "W</w>": 983,
      "u</w>": 984,
      "थ</w>": 985,
      "ब</w>": 986,
      "X</w>": 987,
      "D</w>": 988,
      "6</w>": 989,
      "v</w>": 990,
      ",</w>": 991,
      "‘</w>": 992,
      "B</w>": 993,
      "L</w>": 994,
      "च</w>": 995,
      "ँ</w>": 996,
      "2</w>": 997,
      "K</w>": 998,
      "0</w>": 999,
      "५</w>": 1000,
      "ऋ</w>": 1001,
      ")</w>": 1002,
      "!</w>": 1003,
      "ै</w>": 1004,
      "A</w>": 1005,
      "т</w>": 1006,
      "j</w>": 1007,
      "9</w>": 1008,
      ";</w>": 1009,
      "P</w>": 1010,
      "C</w>": 1011,
      "Y</w>": 1012,
      "०</w>": 1013,
      "é</w>": 1014,
      "झ</w>": 1015,
      "ऐ</w>": 1016,
      "M</w>": 1017,
      "U</w>": 1018,
      "फ</w>": 1019,
      "\"</w>": 1020,
      "Z</w>": 1021,
      "\\</w>": 1022,
      "動</w>": 1023,
      "С</w>": 1024,
      "२</w>": 1025,
      "६</w>": 1026,
      "आ</w>": 1027,
      "]</w>": 1028,
      "8</w>": 1029,
      "भ</w>": 1030,
      "'</w>": 1031,
      "O</w>": 1032,
      "ॉ</w>": 1033,
      "а</w>": 1034,
      "—</w>": 1035,
      "ञ</w>": 1036,
      "f</w>": 1037,
      "ख</w>": 1038,
      "-</w>": 1039,
      "q</w>": 1040,
      "ň</w>": 1041,
      "ध</w>": 1042,
      "॔</w>": 1043,
      "ढ़</w>": 1044,
      "ı</w>": 1045,
      "É</w>": 1046,
      "и</w>": 1047,
      "३</w>": 1048,
      "w</w>": 1049,
      "ृ</w>": 1050,
      "४</w>": 1051,
      "छ</w>": 1052,
      "&</w>": 1053,
      "て</w>": 1054,
      "अ</w>": 1055,
      "इ</w>": 1056,
      ":</w>": 1057,
      "</w>": 1058,
      "ь</w>": 1059,
      "H</w>": 1060,
      "Т</w>": 1061,
      "‍</w>": 1062,
      "%</w>": 1063,
      "”</w>": 1064,
      "у</w>": 1065,
      "ऊ</w>": 1066,
      "उ</w>": 1067,
      "ć</w>": 1068,
      "す</w>": 1069,
      "з</w>": 1070,
      "ě</w>": 1071,
      "ä</w>": 1072,
      "ž</w>": 1073,
      "к</w>": 1074,
      "́</w>": 1075,
      "ˇ</w>": 1076,
      "ठ</w>": 1077,
      "ā</w>": 1078,
      "’</w>": 1079,
      "/</w>": 1080,
      "ऍ</w>": 1081,
      "☻</w>": 1082,
      "F</w>": 1083,
      "</w>": 1084,
      "फ़</w>": 1085,
      "ψ</w>": 1086,
      "に</w>": 1087,
      "७</w>": 1088,
      "Q</w>": 1089,
      "८</w>": 1090,
      "ड़</w>": 1091,
      "…</w>": 1092,
      "е</w>": 1093,
      "¤</w>": 1094,
      "।</w>": 1095,
      "औ</w>": 1096,
      "ॆ</w>": 1097,
      "‎</w>": 1098,
      "ė</w>": 1099,
      "ú</w>": 1100,
      "<</w>": 1101,
      "à</w>": 1102,
      "š</w>": 1103,
      "$</w>": 1104,
      "œ</w>": 1105,
      "~</w>": 1106,
      "#</w>": 1107,
      "я</w>": 1108,
      "ý</w>": 1109,
      "ळ</w>": 1110,
      "ॅ</w>": 1111,
      "á</w>": 1112,
      "д</w>": 1113,
      "ī</w>": 1114,
      "報</w>": 1115,
      "τ</w>": 1116,
      "J</w>": 1117,
      "ढ</w>": 1118,
      "л</w>": 1119,
      "р</w>": 1120,
      "る</w>": 1121,
      "Ö</w>": 1122,
      "。</w>": 1123,
      "ङ</w>": 1124,
      "</w>": 1125,
      "θ</w>": 1126,
      "></w>": 1127,
      "ॊ</w>": 1128,
      "ŕ</w>": 1129,
      "゙</w>": 1130,
      "�</w>": 1131,
      "方</w>": 1132,
      "€</w>": 1133,
      "в</w>": 1134,
      "*</w>": 1135,
      "̨</w>": 1136,
      "Ć</w>": 1137,
      "°</w>": 1138,
      "成</w>": 1139,
      "س</w>": 1140,
      "х</w>": 1141,
      "Ň</w>": 1142,
      "?</w>": 1143,
      "ł</w>": 1144,
      "ː</w>": 1145,
      "í</w>": 1146,
      "た</w>": 1147,
      "о</w>": 1148,
      "،</w>": 1149,
      "র</w>": 1150,
      "</w>": 1151,
      "ă</w>": 1152,
      "[</w>": 1153,
      "м</w>": 1154,
      "η</w>": 1155,
      "֦</w>": 1156,
      "Ę</w>": 1157,
      "ů</w>": 1158,
      "य़</w>": 1159,
      "ю</w>": 1160,
      "̧</w>": 1161,
      "ы</w>": 1162,
      "(</w>": 1163,
      "へ</w>": 1164,
      "定</w>": 1165,
      "∕</w>": 1166,
      "¬</w>": 1167,
      "</w>": 1168,
      "·</w>": 1169,
      "с</w>": 1170,
      "ţ</w>": 1171,
      "ऎ</w>": 1172,
      "ت</w>": 1173,
      "\u001b</w>": 1174,
      "م</w>": 1175,
      "॒</w>": 1176,
      "{</w>": 1177,
      "̇</w>": 1178,
      "ō</w>": 1179,
      "¡</w>": 1180,
      "ŭ</w>": 1181,
      "•</w>": 1182,
      "ス</w>": 1183,
      "_</w>": 1184,
      "`</w>": 1185,
      "な</w>": 1186,
      "Ω</w>": 1187,
      "</w>": 1188,
      "“</w>": 1189,
      "ü</w>": 1190,
      "̌</w>": 1191,
      "ज़</w>": 1192,
      "他</w>": 1193,
      "ऌ</w>": 1194,
      "ĺ</w>": 1195,
      "​</w>": 1196,
      "ら</w>": 1197,
      "</w>": 1198,
      "Ã</w>": 1199,
      "ë</w>": 1200,
      "ū</w>": 1201,
      "：</w>": 1202,
      "か</w>": 1203,
      "≥</w>": 1204,
      "新</w>": 1205,
      "â</w>": 1206,
      "Ě</w>": 1207,
      "</w>": 1208,
      "ن</w>": 1209,
      "®</w>": 1210,
      "क़</w>": 1211,
      "ç</w>": 1212,
      "ト</w>": 1213,
      "ń</w>": 1214,
      "ḷ</w>": 1215,
      "Ă</w>": 1216,
      "</w>": 1217,
      "ऱ</w>": 1218,
      "♫</w>": 1219,
      "Ä</w>": 1220,
      "∞</w>": 1221,
      "ö</w>": 1222,
      "æ</w>": 1223,
      "̄</w>": 1224,
      "−</w>": 1225,
      "悠</w>": 1226,
      "˛</w>": 1227,
      "い</w>": 1228,
      "Λ</w>": 1229,
      "更</w>": 1230,
      "₹</w>": 1231,
      "ة</w>": 1232,
      "॥</w>": 1233,
      "Â</w>": 1234,
      "ج</w>": 1235,
      "†</w>": 1236,
      "–</w>": 1237,
      "є</w>": 1238,
      "加</w>": 1239,
      "存</w>": 1240,
      "}</w>": 1241,
      "認</w>": 1242,
      "ң</w>": 1243,
      "²</w>": 1244,
      "⁰</w>": 1245,
      "け</w>": 1246,
      "</w>": 1247,
      "Ч</w>": 1248,
      "し</w>": 1249,
      "¹</w>": 1250,
      "ó</w>": 1251,
      "⋯</w>": 1252,
      "ē</w>": 1253,
      "̆</w>": 1254,
      "φ</w>": 1255,
      "º</w>": 1256,
      "­</w>": 1257,
      "</w>": 1258,
      "째</w>": 1259,
      "Π</w>": 1260,
      "α</w>": 1261,
      "|</w>": 1262,
      "Ž</w>": 1263,
      "ん</w>": 1264,
      "ऑ</w>": 1265,
      "č</w>": 1266,
      "く</w>": 1267,
      "√</w>": 1268,
      "+</w>": 1269,
      "̀</w>": 1270,
      "ő</w>": 1271,
      "ò</w>": 1272,
      "え</w>": 1273,
      "γ</w>": 1274,
      "ø</w>": 1275,
      "@</w>": 1276,
      "₁</w>": 1277,
      "̈</w>": 1278,
      "゚</w>": 1279,
      "ー</w>": 1280,
      "÷</w>": 1281,
      "\u0014</w>": 1282,
      "続</w>": 1283,
      "</w>": 1284,
      "»</w>": 1285,
      "ğ</w>": 1286,
      "Ó</w>": 1287,
      "¨</w>": 1288,
      "Ś</w>": 1289,
      "能</w>": 1290,
      "ム</w>": 1291,
      "</w>": 1292,
      "„</w>": 1293,
      "ώ</w>": 1294,
      "è</w>": 1295,
      "</w>": 1296,
      "</w>": 1297,
      "度</w>": 1298,
      "ख़</w>": 1299,
      "̊</w>": 1300,
      "п</w>": 1301,
      "Ү</w>": 1302,
      "‌</w>": 1303,
      "ą</w>": 1304,
      "å</w>": 1305,
      "ॐ</w>": 1306,
      "§</w>": 1307,
      "ン</w>": 1308,
      "ク</w>": 1309,
      "³</w>": 1310,
      "õ</w>": 1311,
      "Ç</w>": 1312,
      "堀</w>": 1313,
      "ñ</w>": 1314,
      "щ</w>": 1315,
      "預</w>": 1316,
      "Å</w>": 1317,
      "ô</w>": 1318,
      "β</w>": 1319,
      "ち</w>": 1320,
      "¾</w>": 1321,
      "₂</w>": 1322,
      "=</w>": 1323,
      "қ</w>": 1324,
      "׃</w>": 1325,
      "ऽ</w>": 1326,
      "μ</w>": 1327,
      "ź</w>": 1328,
      "</w>": 1329,
      "</w>": 1330,
      "と</w>": 1331,
      "ч</w>": 1332,
      "থ</w>": 1333,
      "∨</w>": 1334,
      "‏</w>": 1335,
      "☺</w>": 1336,
      "ì</w>": 1337,
      "˙</w>": 1338,
      "名</w>": 1339,
      "κ</w>": 1340,
      "¦</w>": 1341,
      "</w>": 1342,
      "¶</w>": 1343,
      "¼</w>": 1344,
      "つ</w>": 1345,
      "─</w>": 1346,
      "ß</w>": 1347,
      "消</w>": 1348,
      "ア</w>": 1349,
      "う</w>": 1350,
      "</w>": 1351,
      "̂</w>": 1352,
      "可</w>": 1353,
      "‐</w>": 1354,
      "б</w>": 1355,
      "॑</w>": 1356,
      "´</w>": 1357,
      "ॠ</w>": 1358,
      "⁵</w>": 1359,
      "ж</w>": 1360,
      "¸</w>": 1361,
      "±</w>": 1362,
      "ḥ</w>": 1363,
      "ル</w>": 1364,
      "ŏ</w>": 1365,
      "Ř</w>": 1366,
      "£</w>": 1367,
      "</w>": 1368,
      "→</w>": 1369,
      "ṃ</w>": 1370,
      "ủ</w>": 1371,
      "^</w>": 1372,
      "⅙</w>": 1373,
      "も</w>": 1374,
      "ॡ</w>": 1375,
      "ṣ</w>": 1376,
      "ã</w>": 1377,
      "॓</w>": 1378,
      "￼</w>": 1379,
      "ɓ</w>": 1380,
      "ẻ</w>": 1381,
      "國</w>": 1382,
      "</w>": 1383,
      "集</w>": 1384,
      "、</w>": 1385,
      "⌘</w>": 1386,
      "態</w>": 1387,
      "ľ</w>": 1388,
      "½</w>": 1389,
      "Β</w>": 1390,
      "ऒ</w>": 1391,
      "敗</w>": 1392,
      "ï</w>": 1393,
      "Δ</w>": 1394,
      "¥</w>": 1395,
      "Ê</w>": 1396,
      "Č</w>": 1397,
      "ग़</w>": 1398,
      "</w>": 1399,
      "示</w>": 1400,
      "þ</w>": 1401,
      "―</w>": 1402,
      "¯</w>": 1403,
      "否</w>": 1404,
      "</w>": 1405,
      "≠</w>": 1406,
      "λ</w>": 1407,
      "⅗</w>": 1408,
      "‑</w>": 1409,
      "</w>": 1410,
      "ν</w>": 1411,
      "</w>": 1412,
      "Θ</w>": 1413,
      "﻿</w>": 1414,
      "∂</w>": 1415,
      "⅘</w>": 1416,
      "</w>": 1417,
      "字</w>": 1418,
      "♪</w>": 1419,
      "</w>": 1420,
      "×</w>": 1421,
      "İ</w>": 1422,
      "Ľ</w>": 1423,
      "˚</w>": 1424,
      "˜</w>": 1425,
      "Š</w>": 1426,
      "</w>": 1427,
      "ļ</w>": 1428,
      "➣</w>": 1429,
      "≤</w>": 1430,
      "«</w>": 1431,
      "ʼ</w>": 1432,
      "॰</w>": 1433,
      "¢</w>": 1434,
      "⌈</w>": 1435,
      "™</w>": 1436,
      "⁴</w>": 1437,
      "¿</w>": 1438,
      "ی</w>": 1439,
      "设</w>": 1440,
      "⏎</w>": 1441,
      "⇒</w>": 1442,
      "明</w>": 1443,
      "ǆ</w>": 1444,
      "‡</w>": 1445,
      "π</w>": 1446,
      "</w>": 1447,
      "</w>": 1448,
      "ř</w>": 1449,
      "µ</w>": 1450,
      "ê</w>": 1451,
      "Ş</w>": 1452,
      "択</w>": 1453,
      "⅖</w>": 1454,
      "ু</w>": 1455,
      "ֹ</w>": 1456,
      "</w>": 1457,
      "般</w>": 1458,
      "∶</w>": 1459,
      "ষ</w>": 1460,
      "秦</w>": 1461,
      "⅔</w>": 1462,
      "⌊</w>": 1463,
      "‰</w>": 1464,
      "⅓</w>": 1465,
      "═</w>": 1466,
      "ੀ</w>": 1467,
      "</w>": 1468,
      "⁷</w>": 1469,
      "г</w>": 1470,
      "Ā</w>": 1471,
      "Î</w>": 1472,
      "‚</w>": 1473,
      "？</w>": 1474,
      "前</w>": 1475,
      "©</w>": 1476,
      "⌋</w>": 1477,
      "■</w>": 1478,
      "ż</w>": 1479,
      "</w>": 1480,
      "み</w>": 1481,
      "</w>": 1482,
      "₀</w>": 1483,
      "ऴ</w>": 1484,
      "Ü</w>": 1485,
      "←</w>": 1486,
      "</w>": 1487,
      "ĭ</w>": 1488,
      "ુ</w>": 1489,
      "ل</w>": 1490,
      "Ô</w>": 1491,
      "ę</w>": 1492,
      "З</w>": 1493,
      "ṇ</w>": 1494,
      ";</w>": 1495,
      "ә</w>": 1496,
      "В</w>": 1497,
      "ų</w>": 1498,
      "˝</w>": 1499,
      "Д</w>": 1500,
      "⌉</w>": 1501,
      "∣</w>": 1502,
      "˘</w>": 1503,
      "ц</w>": 1504,
      "⁶</w>": 1505,
      "й</w>": 1506,
      "Ł</w>": 1507,
      "ª</w>": 1508,
      "ω</w>": 1509,
      "数</w>": 1510,
      "ο</w>": 1511,
      "⅕</w>": 1512,
      "′</w>": 1513,
      "作</w>": 1514,
      "者</w>": 1515,
      "th": 1516,
      "an": 1517,
      "in": 1518,
      "the</w>": 1519,
      "के</w>": 1520,
      "्र": 1521,
      "er": 1522,
      "ें</w>": 1523,
      "ti": 1524,
      "en": 1525,
      "of</w>": 1526,
      "re": 1527,
      "है</w>": 1528,
      "ar": 1529,
      "र्": 1530,
      "ed</w>": 1531,
      "ने</w>": 1532,
      "में</w>": 1533,
      "and</w>": 1534,
      "on": 1535,
      "ों</w>": 1536,
      "on</w>": 1537,
      "ou": 1538,
      "की</w>": 1539,
      "और</w>": 1540,
      "or": 1541,
      "से</w>": 1542,
      "ार": 1543,
      "to</w>": 1544,
      "या</w>": 1545,
      "er</w>": 1546,
      "is</w>": 1547,
      "स्": 1548,
      "ing</w>": 1549,
      "प्र": 1550,
      "in</w>": 1551,
      "al": 1552,
      "it": 1553,
      "क्": 1554,
      "es</w>": 1555,
      "at": 1556,
      "ता</w>": 1557,
      "का</w>": 1558,
      "st": 1559,
      "कर": 1560,
      "ro": 1561,
      "or</w>": 1562,
      "को</w>": 1563,
      "ha": 1564,
      "वि": 1565,
      "न्": 1566,
      "का": 1567,
      "मा": 1568,
      "वा": 1569,
      "त्": 1570,
      "नि": 1571,
      "il": 1572,
      "लि": 1573,
      "the": 1574,
      "el": 1575,
      "tion</w>": 1576,
      "ic": 1577,
      "is": 1578,
      "al</w>": 1579,
      "कि": 1580,
      "ec": 1581,
      "ना</w>": 1582,
      "ac": 1583,
      "या": 1584,
      "es": 1585,
      "om": 1586,
      "at</w>": 1587,
      "जा": 1588,
      "सं": 1589,
      "wh": 1590,
      "रा": 1591,
      "सा": 1592,
      "कि</w>": 1593,
      "Th": 1594,
      "ent</w>": 1595,
      "ैं</w>": 1596,
      "ve</w>": 1597,
      "as": 1598,
      "an</w>": 1599,
      "ur": 1600,
      "en</w>": 1601,
      "ते</w>": 1602,
      "no": 1603,
      "as</w>": 1604,
      "di": 1605,
      "द्": 1606,
      "ला": 1607,
      "पर</w>": 1608,
      "हैं</w>": 1609,
      "दे": 1610,
      "हो": 1611,
      "la": 1612,
      "ित</w>": 1613,
      "लिए</w>": 1614,
      "si": 1615,
      "for</w>": 1616,
      "le</w>": 1617,
      "ri": 1618,
      "तु": 1619,
      "ीं</w>": 1620,
      "बा": 1621,
      "भी</w>": 1622,
      "ra": 1623,
      "कर</w>": 1624,
      "ly</w>": 1625,
      "li": 1626,
      "un": 1627,
      "दि": 1628,
      "ति</w>": 1629,
      "ना": 1630,
      "एक</w>": 1631,
      "ही</w>": 1632,
      "ou</w>": 1633,
      "that</w>": 1634,
      "ev": 1635,
      "हा": 1636,
      "em": 1637,
      "se</w>": 1638,
      "हीं</w>": 1639,
      "क्ष": 1640,
      "पा": 1641,
      "ma": 1642,
      "ल्": 1643,
      "अप": 1644,
      "जि": 1645,
      "था</w>": 1646,
      "तो</w>": 1647,
      "am": 1648,
      "ड़": 1649,
      "lo": 1650,
      "pro": 1651,
      "नहीं</w>": 1652,
      "ति": 1653,
      "ष्": 1654,
      "su": 1655,
      "हु": 1656,
      "सम": 1657,
      "et": 1658,
      "you</w>": 1659,
      "ol": 1660,
      "ab": 1661,
      "it</w>": 1662,
      "जो</w>": 1663,
      "ता": 1664,
      "be</w>": 1665,
      "सी</w>": 1666,
      "यो": 1667,
      "The</w>": 1668,
      "are</w>": 1669,
      "op": 1670,
      "रि": 1671,
      "ती</w>": 1672,
      "sh": 1673,
      "्य": 1674,
      "con": 1675,
      "not</w>": 1676,
      "चा": 1677,
      "हो</w>": 1678,
      "ce</w>": 1679,
      "उन": 1680,
      "ले</w>": 1681,
      "लो": 1682,
      "ea": 1683,
      "ent": 1684,
      "ation</w>": 1685,
      "नी</w>": 1686,
      "ag": 1687,
      "ith</w>": 1688,
      "उस": 1689,
      "com": 1690,
      "ch": 1691,
      "ers</w>": 1692,
      "म्": 1693,
      "यों</w>": 1694,
      "मु": 1695,
      "दा": 1696,
      "श्": 1697,
      "tion": 1698,
      "मि": 1699,
      "with</w>": 1700,
      "ere</w>": 1701,
      "भा": 1702,
      "किया</w>": 1703,
      "be": 1704,
      "ज़": 1705,
      "for": 1706,
      "all</w>": 1707,
      "In": 1708,
      "ex": 1709,
      "रह": 1710,
      "यह</w>": 1711,
      "po": 1712,
      "st</w>": 1713,
      "id": 1714,
      "कु": 1715,
      "ay</w>": 1716,
      "gh": 1717,
      "धि": 1718,
      "by</w>": 1719,
      "our</w>": 1720,
      "दा</w>": 1721,
      "oun": 1722,
      "ver": 1723,
      "को": 1724,
      "इस</w>": 1725,
      "पू": 1726,
      "ill</w>": 1727,
      "ला</w>": 1728,
      "res": 1729,
      "त्र": 1730,
      "ले": 1731,
      "स्थ": 1732,
      "ment</w>": 1733,
      "rom</w>": 1734,
      "वह</w>": 1735,
      "ad": 1736,
      "ir": 1737,
      "ate</w>": 1738,
      "ंग": 1739,
      "ारा</w>": 1740,
      "have</w>": 1741,
      "हि": 1742,
      "from</w>": 1743,
      "they</w>": 1744,
      "pl": 1745,
      "कार</w>": 1746,
      "रू": 1747,
      "was</w>": 1748,
      "करने</w>": 1749,
      "ये</w>": 1750,
      "de": 1751,
      "ीय</w>": 1752,
      "tr": 1753,
      "ul": 1754,
      "ity</w>": 1755,
      "th</w>": 1756,
      "ली</w>": 1757,
      "ther</w>": 1758,
      "will</w>": 1759,
      "ir</w>": 1760,
      "ारी</w>": 1761,
      "नु": 1762,
      "गा</w>": 1763,
      "ld</w>": 1764,
      "सि": 1765,
      "ts</w>": 1766,
      "हम": 1767,
      "ज्": 1768,
      "सक": 1769,
      "bu": 1770,
      "them</w>": 1771,
      "oo": 1772,
      "hi": 1773,
      "se": 1774,
      "this</w>": 1775,
      "तर": 1776,
      "इस": 1777,
      "ta": 1778,
      "Al": 1779,
      "ख़": 1780,
      "ds</w>": 1781,
      "वर्": 1782,
      "ci": 1783,
      "मे": 1784,
      "ारे</w>": 1785,
      "du": 1786,
      "ear": 1787,
      "अपने</w>": 1788,
      "qu": 1789,
      "ich</w>": 1790,
      "per": 1791,
      "शा": 1792,
      "has</w>": 1793,
      "सु": 1794,
      "one</w>": 1795,
      "री</w>": 1796,
      "wor": 1797,
      "त्र</w>": 1798,
      "ap": 1799,
      "अधि": 1800,
      "ष्ट": 1801,
      "which</w>": 1802,
      "ted</w>": 1803,
      "उन्": 1804,
      "उप": 1805,
      "ff": 1806,
      "sp": 1807,
      "mo": 1808,
      "who</w>": 1809,
      "धा": 1810,
      "सू": 1811,
      "भार": 1812,
      "gi": 1813,
      "do": 1814,
      "me</w>": 1815,
      "क़": 1816,
      "ने": 1817,
      "their</w>": 1818,
      "An": 1819,
      "sa": 1820,
      "ould</w>": 1821,
      "च्": 1822,
      "शि": 1823,
      "क्र": 1824,
      "ter</w>": 1825,
      "et</w>": 1826,
      "प्": 1827,
      "नों</w>": 1828,
      "वे</w>": 1829,
      "अनु": 1830,
      "तुम</w>": 1831,
      "his</w>": 1832,
      "कह": 1833,
      "im": 1834,
      "Indi": 1835,
      "ter": 1836,
      "tions</w>": 1837,
      "us": 1838,
      "ch</w>": 1839,
      "ess</w>": 1840,
      "गा": 1841,
      "so</w>": 1842,
      "पु": 1843,
      "ke</w>": 1844,
      "ure</w>": 1845,
      "he</w>": 1846,
      "गया</w>": 1847,
      "He</w>": 1848,
      "any</w>": 1849,
      "ओं</w>": 1850,
      "फ़": 1851,
      "निर्": 1852,
      "सर": 1853,
      "कुछ</w>": 1854,
      "par": 1855,
      "ght</w>": 1856,
      "ge</w>": 1857,
      "दी</w>": 1858,
      "तथा</w>": 1859,
      "20": 1860,
      "परि": 1861,
      "वे": 1862,
      "out</w>": 1863,
      "हें</w>": 1864,
      "id</w>": 1865,
      "किसी</w>": 1866,
      "तुम्": 1867,
      "der</w>": 1868,
      "de</w>": 1869,
      "फि": 1870,
      "pe": 1871,
      "str": 1872,
      "सा</w>": 1873,
      "जा</w>": 1874,
      "के": 1875,
      "ing": 1876,
      "प्रा": 1877,
      "le": 1878,
      "19": 1879,
      "पर": 1880,
      "कार्": 1881,
      "पूर्": 1882,
      "व्य": 1883,
      "गों</w>": 1884,
      "ne": 1885,
      "lah</w>": 1886,
      "रूप</w>": 1887,
      "हम</w>": 1888,
      "Allah</w>": 1889,
      "द्व": 1890,
      "साथ</w>": 1891,
      "खा": 1892,
      "रो": 1893,
      "ीन</w>": 1894,
      "Go": 1895,
      "rec": 1896,
      "ess": 1897,
      "um": 1898,
      "कोई</w>": 1899,
      "स्था": 1900,
      "And</w>": 1901,
      "कृ": 1902,
      "to": 1903,
      "मान</w>": 1904,
      "por": 1905,
      "We</w>": 1906,
      "तक</w>": 1907,
      "उनके</w>": 1908,
      "बं": 1909,
      "ated</w>": 1910,
      "dis": 1911,
      "ग्र": 1912,
      "कार": 1913,
      "थे</w>": 1914,
      "जिस": 1915,
      "द्वारा</w>": 1916,
      "ुदा</w>": 1917,
      "ose</w>": 1918,
      "hat</w>": 1919,
      "au": 1920,
      "अं": 1921,
      "ance</w>": 1922,
      "वा</w>": 1923,
      "लोगों</w>": 1924,
      "ame</w>": 1925,
      "able</w>": 1926,
      "your</w>": 1927,
      "करते</w>": 1928,
      "its</w>": 1929,
      "दू": 1930,
      "देश</w>": 1931,
      "जब</w>": 1932,
      "्य</w>": 1933,
      "us</w>": 1934,
      "eli": 1935,
      "fi": 1936,
      "लोग</w>": 1937,
      "ant</w>": 1938,
      "दिया</w>": 1939,
      "ब्": 1940,
      "राष्ट": 1941,
      "ous</w>": 1942,
      "gu": 1943,
      "me": 1944,
      "India</w>": 1945,
      "our": 1946,
      "ep": 1947,
      "भारत</w>": 1948,
      "ding</w>": 1949,
      "पह": 1950,
      "ence</w>": 1951,
      "जी": 1952,
      "tu": 1953,
      "से": 1954,
      "स्व": 1955,
      "सी": 1956,
      "रख": 1957,
      "गु": 1958,
      "स्त": 1959,
      "age</w>": 1960,
      "योग</w>": 1961,
      "अल्": 1962,
      "िक</w>": 1963,
      "wn</w>": 1964,
      "यु": 1965,
      "रा</w>": 1966,
      "red</w>": 1967,
      "लाह</w>": 1968,
      "ear</w>": 1969,
      "्या": 1970,
      "est</w>": 1971,
      "ंग</w>": 1972,
      "but</w>": 1973,
      "फिर</w>": 1974,
      "तुम्ह": 1975,
      "cl": 1976,
      "क्या</w>": 1977,
      "other</w>": 1978,
      "गी</w>": 1979,
      "क्त</w>": 1980,
      "बे": 1981,
      "sec": 1982,
      "ar</w>": 1983,
      "राष्ट्र": 1984,
      "रे</w>": 1985,
      "उत्": 1986,
      "pu": 1987,
      "भि": 1988,
      "vi": 1989,
      "बि": 1990,
      "ents</w>": 1991,
      "we</w>": 1992,
      "अल्लाह</w>": 1993,
      "जाता</w>": 1994,
      "ख़ुदा</w>": 1995,
      "उसके</w>": 1996,
      "उस</w>": 1997,
      "ंने</w>": 1998,
      "been</w>": 1999,
      "प्रति": 2000,
      "चि": 2001,
      "sel": 2002,
      "अव": 2003,
      "kno": 2004,
      "मं": 2005,
      "अपनी</w>": 2006,
      "coun": 2007,
      "करें</w>": 2008,
      "ंगे</w>": 2009,
      "ome</w>": 2010,
      "थी</w>": 2011,
      "ary</w>": 2012,
      "do</w>": 2013,
      "ople</w>": 2014,
      "bo": 2015,
      "नी": 2016,
      "so": 2017,
      "were</w>": 2018,
      "बना": 2019,
      "ay": 2020,
      "कहा</w>": 2021,
      "करना</w>": 2022,
      "अन्": 2023,
      "ect</w>": 2024,
      "डि": 2025,
      "had</w>": 2026,
      "ho": 2027,
      "cre": 2028,
      "श्र": 2029,
      "जी</w>": 2030,
      "rou": 2031,
      "निय": 2032,
      "लों</w>": 2033,
      "gh</w>": 2034,
      "duc": 2035,
      "ज्ञ": 2036,
      "him</w>": 2037,
      "ong</w>": 2038,
      "बहु": 2039,
      "दु": 2040,
      "मू": 2041,
      "those</w>": 2042,
      "ore</w>": 2043,
      "ver</w>": 2044,
      "can</w>": 2045,
      "गर</w>": 2046,
      "ज़</w>": 2047,
      "der": 2048,
      "बी": 2049,
      "war": 2050,
      "दि</w>": 2051,
      "क्षे": 2052,
      "ty</w>": 2053,
      "co": 2054,
      "It</w>": 2055,
      "मैं</w>": 2056,
      "said</w>": 2057,
      "people</w>": 2058,
      "min": 2059,
      "रहे</w>": 2060,
      "ढ़": 2061,
      "tic": 2062,
      "pre": 2063,
      "ally</w>": 2064,
      "मान": 2065,
      "beli": 2066,
      "वाले</w>": 2067,
      "fu": 2068,
      "go": 2069,
      "tive</w>": 2070,
      "when</w>": 2071,
      "हुए</w>": 2072,
      "and": 2073,
      "tional</w>": 2074,
      "ey</w>": 2075,
      "shall</w>": 2076,
      "योज": 2077,
      "pres": 2078,
      "est": 2079,
      "गे</w>": 2080,
      "क्ति</w>": 2081,
      "चु": 2082,
      "ord</w>": 2083,
      "ever</w>": 2084,
      "king</w>": 2085,
      "दो": 2086,
      "उन्हें</w>": 2087,
      "प्त</w>": 2088,
      "करता</w>": 2089,
      "च्छ": 2090,
      "उन</w>": 2091,
      "end": 2092,
      "ni": 2093,
      "रु": 2094,
      "ish": 2095,
      "pr": 2096,
      "ace</w>": 2097,
      "जाए": 2098,
      "होता</w>": 2099,
      "we": 2100,
      "धार": 2101,
      "ties</w>": 2102,
      "ser": 2103,
      "दर्": 2104,
      "ves</w>": 2105,
      "ings</w>": 2106,
      "fa": 2107,
      "बड़": 2108,
      "देख": 2109,
      "ru": 2110,
      "comm": 2111,
      "रहा</w>": 2112,
      "मा</w>": 2113,
      "होंने</w>": 2114,
      "sion</w>": 2115,
      "ist": 2116,
      "if</w>": 2117,
      "ting</w>": 2118,
      "also</w>": 2119,
      "ड़</w>": 2120,
      "उसे</w>": 2121,
      "तर</w>": 2122,
      "हर</w>": 2123,
      "कों</w>": 2124,
      "what</w>": 2125,
      "वर": 2126,
      "ase</w>": 2127,
      "आप</w>": 2128,
      "सकता</w>": 2129,
      "God</w>": 2130,
      "mu": 2131,
      "Wh": 2132,
      "आप": 2133,
      "पै": 2134,
      "ice</w>": 2135,
      "शन</w>": 2136,
      "पी": 2137,
      "sti": 2138,
      "दो</w>": 2139,
      "har": 2140,
      "गि": 2141,
      "क्षा</w>": 2142,
      "र्थ": 2143,
      "ज्ञा": 2144,
      "In</w>": 2145,
      "cont": 2146,
      "prov": 2147,
      "डा": 2148,
      "201": 2149,
      "बु": 2150,
      "tur": 2151,
      "जै": 2152,
      "there</w>": 2153,
      "ine</w>": 2154,
      "तु</w>": 2155,
      "धि</w>": 2156,
      "टी</w>": 2157,
      "समय</w>": 2158,
      "मो": 2159,
      "बहुत</w>": 2160,
      "द्र": 2161,
      "ks</w>": 2162,
      "बाद</w>": 2163,
      "रे": 2164,
      "कर्": 2165,
      "led</w>": 2166,
      "This</w>": 2167,
      "ile</w>": 2168,
      "ig": 2169,
      "ष्ट</w>": 2170,
      "Lord</w>": 2171,
      "day</w>": 2172,
      "इन</w>": 2173,
      "tw": 2174,
      "ud": 2175,
      "te": 2176,
      "may</w>": 2177,
      "ood</w>": 2178,
      "शु": 2179,
      "ber</w>": 2180,
      "no</w>": 2181,
      "il</w>": 2182,
      "मह": 2183,
      "री": 2184,
      "सूच": 2185,
      "ell</w>": 2186,
      "भू": 2187,
      "दान</w>": 2188,
      "oc": 2189,
      "तों</w>": 2190,
      "टा": 2191,
      "up": 2192,
      "ang": 2193,
      "टि": 2194,
      "ast</w>": 2195,
      "eng": 2196,
      "हू": 2197,
      "तीय</w>": 2198,
      "त्य": 2199,
      "बै": 2200,
      "ons</w>": 2201,
      "पति</w>": 2202,
      "vern": 2203,
      "शे": 2204,
      "वन</w>": 2205,
      "ement</w>": 2206,
      "ory</w>": 2207,
      "ass": 2208,
      "way</w>": 2209,
      "बंध": 2210,
      "ut</w>": 2211,
      "ans": 2212,
      "तरह</w>": 2213,
      "मी</w>": 2214,
      "00</w>": 2215,
      "विश्": 2216,
      "fore</w>": 2217,
      "tra": 2218,
      "कारी</w>": 2219,
      "pa": 2220,
      "राज": 2221,
      "पास</w>": 2222,
      "ख्": 2223,
      "समा": 2224,
      "only</w>": 2225,
      "gra": 2226,
      "उन्होंने</w>": 2227,
      "अधिक</w>": 2228,
      "चाह": 2229,
      "fter</w>": 2230,
      "बात</w>": 2231,
      "हुआ</w>": 2232,
      "time</w>": 2233,
      "ic</w>": 2234,
      "fin": 2235,
      "ful</w>": 2236,
      "पहले</w>": 2237,
      "सम्": 2238,
      "would</w>": 2239,
      "पे": 2240,
      "bec": 2241,
      "such</w>": 2242,
      "जान": 2243,
      "यदि</w>": 2244,
      "up</w>": 2245,
      "दे</w>": 2246,
      "द्ध</w>": 2247,
      "हमने</w>": 2248,
      "लय</w>": 2249,
      "then</w>": 2250,
      "gr": 2251,
      "ies</w>": 2252,
      "gre": 2253,
      "दिन</w>": 2254,
      "St": 2255,
      "come</w>": 2256,
      "dev": 2257,
      "उनकी</w>": 2258,
      "तुम्हारे</w>": 2259,
      "चाहि": 2260,
      "पूर्ण</w>": 2261,
      "te</w>": 2262,
      "man": 2263,
      "ound</w>": 2264,
      "low": 2265,
      "mis": 2266,
      "el</w>": 2267,
      "चार</w>": 2268,
      "ations</w>": 2269,
      "होगा</w>": 2270,
      "ble</w>": 2271,
      "ad</w>": 2272,
      "des": 2273,
      "am</w>": 2274,
      "पर्": 2275,
      "सह": 2276,
      "होने</w>": 2277,
      "हां</w>": 2278,
      "यू": 2279,
      "Con": 2280,
      "करण</w>": 2281,
      "pos": 2282,
      "छो": 2283,
      "गए</w>": 2284,
      "बर</w>": 2285,
      "sid": 2286,
      "fol": 2287,
      "गत</w>": 2288,
      "av": 2289,
      "ियों</w>": 2290,
      "क्रि": 2291,
      "ची": 2292,
      "Pro": 2293,
      "ite</w>": 2294,
      "हमारे</w>": 2295,
      "made</w>": 2296,
      "ंड": 2297,
      "स्ता": 2298,
      "comp": 2299,
      "thing</w>": 2300,
      "wi": 2301,
      "उद्": 2302,
      "स्ट": 2303,
      "अध": 2304,
      "Ch": 2305,
      "ed": 2306,
      "ture</w>": 2307,
      "सभी</w>": 2308,
      "गई</w>": 2309,
      "देश": 2310,
      "fe</w>": 2311,
      "ऐसे</w>": 2312,
      "ओर</w>": 2313,
      "बो": 2314,
      "end</w>": 2315,
      "bl": 2316,
      "acc": 2317,
      "cri": 2318,
      "राष्ट्रपति</w>": 2319,
      "..": 2320,
      "more</w>": 2321,
      "वाला</w>": 2322,
      "ath</w>": 2323,
      "inter": 2324,
      "br": 2325,
      "हाँ</w>": 2326,
      "enc": 2327,
      "fir": 2328,
      "बद": 2329,
      "Com": 2330,
      "about</w>": 2331,
      "अभि": 2332,
      "ज्य</w>": 2333,
      "enti": 2334,
      "under</w>": 2335,
      "ther": 2336,
      "res</w>": 2337,
      "झे</w>": 2338,
      "काम</w>": 2339,
      "ei": 2340,
      "पि": 2341,
      "ever": 2342,
      "चे</w>": 2343,
      "मी": 2344,
      "Ac": 2345,
      "न्न</w>": 2346,
      "ving</w>": 2347,
      "bet": 2348,
      "तुम": 2349,
      "ph": 2350,
      "should</w>": 2351,
      "like</w>": 2352,
      "than</w>": 2353,
      "ती": 2354,
      "सकते</w>": 2355,
      "into</w>": 2356,
      "mar": 2357,
      "अच्छ": 2358,
      "ely</w>": 2359,
      "fac": 2360,
      "my</w>": 2361,
      "एव": 2362,
      "ved</w>": 2363,
      "shi": 2364,
      "प्रकार</w>": 2365,
      "एं</w>": 2366,
      "ise</w>": 2367,
      "इसके</w>": 2368,
      "ंड</w>": 2369,
      "लन</w>": 2370,
      "जो": 2371,
      "अन्य</w>": 2372,
      "ational</w>": 2373,
      "प्राप्त</w>": 2374,
      "ain": 2375,
      "चाहिए</w>": 2376,
      "कार्य</w>": 2377,
      "ew</w>": 2378,
      "They</w>": 2379,
      "उसकी</w>": 2380,
      "cer": 2381,
      "cal": 2382,
      "क्षेत्र</w>": 2383,
      "यी</w>": 2384,
      "शी": 2385,
      "But</w>": 2386,
      "धान</w>": 2387,
      "isi": 2388,
      "ical</w>": 2389,
      "iz": 2390,
      "ग़": 2391,
      "ree</w>": 2392,
      "किए</w>": 2393,
      "ेगा</w>": 2394,
      "स्थि": 2395,
      "सर्": 2396,
      "जन": 2397,
      "ans</w>": 2398,
      "साम": 2399,
      "wr": 2400,
      "रों</w>": 2401,
      "ist</w>": 2402,
      "dec": 2403,
      "tru": 2404,
      "कम</w>": 2405,
      "दन</w>": 2406,
      "खु": 2407,
      "होती</w>": 2408,
      "लग": 2409,
      "सब": 2410,
      "att": 2411,
      "णा": 2412,
      "anc": 2413,
      "जाने</w>": 2414,
      "तियों</w>": 2415,
      "some</w>": 2416,
      "ते": 2417,
      "mon": 2418,
      "ड़े</w>": 2419,
      "),</w>": 2420,
      "vernment</w>": 2421,
      "Mo": 2422,
      "two</w>": 2423,
      "ater</w>": 2424,
      "Pre": 2425,
      "भे": 2426,
      "इन": 2427,
      "ach": 2428,
      "stitu": 2429,
      "क्ष</w>": 2430,
      "ऐसा</w>": 2431,
      "ener": 2432,
      "एँ</w>": 2433,
      "used</w>": 2434,
      "new</w>": 2435,
      "sy": 2436,
      "ज़ा": 2437,
      "200": 2438,
      "निक</w>": 2439,
      "श्च": 2440,
      "ffic": 2441,
      "नाम</w>": 2442,
      "ms</w>": 2443,
      "सर</w>": 2444,
      "sub": 2445,
      "ning</w>": 2446,
      "विका": 2447,
      "these</w>": 2448,
      "की": 2449,
      "over</w>": 2450,
      "एवं</w>": 2451,
      "मत</w>": 2452,
      "ail": 2453,
      "pp": 2454,
      "अगर</w>": 2455,
      "Su": 2456,
      "पहु": 2457,
      "ाइ": 2458,
      "ates</w>": 2459,
      "पो": 2460,
      "वै": 2461,
      "lea": 2462,
      "भारतीय</w>": 2463,
      "stru": 2464,
      "भाग</w>": 2465,
      "hea": 2466,
      "यन</w>": 2467,
      "मुझे</w>": 2468,
      "ेंगे</w>": 2469,
      "व्या": 2470,
      "मै": 2471,
      "elop": 2472,
      "ड़ा</w>": 2473,
      "कार्य": 2474,
      "मार्": 2475,
      "न्या": 2476,
      "ob": 2477,
      "als</w>": 2478,
      "ट्": 2479,
      "ned</w>": 2480,
      "before</w>": 2481,
      "तं": 2482,
      "रसू": 2483,
      "करो</w>": 2484,
      "कता</w>": 2485,
      "hel": 2486,
      "ari": 2487,
      "soci": 2488,
      "ause</w>": 2489,
      "tri": 2490,
      "टा</w>": 2491,
      "राज्य</w>": 2492,
      "pla": 2493,
      "ach</w>": 2494,
      "टर</w>": 2495,
      "tain": 2496,
      "लिया</w>": 2497,
      "Ma": 2498,
      "resp": 2499,
      "चा</w>": 2500,
      "old</w>": 2501,
      "ws</w>": 2502,
      "वर्ष</w>": 2503,
      "सरकार</w>": 2504,
      "after</w>": 2505,
      "अब</w>": 2506,
      "pers": 2507,
      "spec": 2508,
      "try</w>": 2509,
      "His</w>": 2510,
      "त्व</w>": 2511,
      "ide</w>": 2512,
      "ven</w>": 2513,
      "fic": 2514,
      "वी</w>": 2515,
      "हर": 2516,
      "विकास</w>": 2517,
      "गो": 2518,
      "मंत्र": 2519,
      "tic</w>": 2520,
      "trans": 2521,
      "वृ": 2522,
      "कारण</w>": 2523,
      "किन</w>": 2524,
      "work</w>": 2525,
      "लिख": 2526,
      "ली": 2527,
      "emp": 2528,
      "बार</w>": 2529,
      "तः</w>": 2530,
      "very</w>": 2531,
      "सब</w>": 2532,
      "eve</w>": 2533,
      "em</w>": 2534,
      "व्यक्ति</w>": 2535,
      "life</w>": 2536,
      "इं": 2537,
      "धारा</w>": 2538,
      "who": 2539,
      "दूसर": 2540,
      "सो": 2541,
      "बढ़": 2542,
      "भाष": 2543,
      "ारों</w>": 2544,
      "कं": 2545,
      "गार</w>": 2546,
      "ness</w>": 2547,
      "टे": 2548,
      "ind": 2549,
      "विद्": 2550,
      "हुई</w>": 2551,
      "रसूल</w>": 2552,
      "ook</w>": 2553,
      "use</w>": 2554,
      "ears</w>": 2555,
      "ily</w>": 2556,
      "self</w>": 2557,
      "ial</w>": 2558,
      "मौ": 2559,
      "ack</w>": 2560,
      "दृ": 2561,
      "ell": 2562,
      "ens</w>": 2563,
      "re</w>": 2564,
      "ays</w>": 2565,
      "शा</w>": 2566,
      "उसने</w>": 2567,
      "दार</w>": 2568,
      "fer": 2569,
      "ating</w>": 2570,
      "निश्च": 2571,
      "man</w>": 2572,
      "ish</w>": 2573,
      "दोनों</w>": 2574,
      "Ex": 2575,
      "्रे": 2576,
      "with": 2577,
      "लेकिन</w>": 2578,
      "कै": 2579,
      "यां</w>": 2580,
      "um</w>": 2581,
      "स्थान</w>": 2582,
      "यता</w>": 2583,
      "ors</w>": 2584,
      "ak": 2585,
      "धन</w>": 2586,
      "So</w>": 2587,
      "ड़ी</w>": 2588,
      "नियम</w>": 2589,
      "पं": 2590,
      "say</w>": 2591,
      "्रा": 2592,
      "most</w>": 2593,
      "ind</w>": 2594,
      "believ": 2595,
      "प्रे": 2596,
      "im</w>": 2597,
      "बन्": 2598,
      "क्षण</w>": 2599,
      "तन</w>": 2600,
      "being</w>": 2601,
      "तुम्हें</w>": 2602,
      "En": 2603,
      "If</w>": 2604,
      "Indian</w>": 2605,
      "त्व": 2606,
      "खो": 2607,
      "ses</w>": 2608,
      "mem": 2609,
      "sident</w>": 2610,
      "wer</w>": 2611,
      "pri": 2612,
      "स्वा": 2613,
      "जाती</w>": 2614,
      "sig": 2615,
      "प्रदान</w>": 2616,
      "विशे": 2617,
      "col": 2618,
      "ow</w>": 2619,
      "रत</w>": 2620,
      "ected</w>": 2621,
      "सार</w>": 2622,
      "val": 2623,
      "जू": 2624,
      "सामा": 2625,
      "ंकि</w>": 2626,
      "ऐसी</w>": 2627,
      "महा": 2628,
      "her</w>": 2629,
      "You</w>": 2630,
      "ying</w>": 2631,
      "throu": 2632,
      "वाली</w>": 2633,
      "दिखा": 2634,
      "जिन": 2635,
      "द्र</w>": 2636,
      "ut": 2637,
      "युक्त</w>": 2638,
      "serv": 2639,
      "धार</w>": 2640,
      "मिल</w>": 2641,
      "ection</w>": 2642,
      "व्यव": 2643,
      "जन</w>": 2644,
      "होते</w>": 2645,
      "ffer": 2646,
      "योग": 2647,
      "दों</w>": 2648,
      "तिक</w>": 2649,
      "वल</w>": 2650,
      "ked</w>": 2651,
      "log": 2652,
      "सहा": 2653,
      "जु": 2654,
      "fe": 2655,
      "जैसे</w>": 2656,
      "mer": 2657,
      "ur</w>": 2658,
      "प्रभा": 2659,
      "्र</w>": 2660,
      "जिस</w>": 2661,
      "जीवन</w>": 2662,
      "...</w>": 2663,
      "int": 2664,
      "Sh": 2665,
      "ship</w>": 2666,
      "ard</w>": 2667,
      "port": 2668,
      "मुख": 2669,
      "exc": 2670,
      "ण्": 2671,
      "सद": 2672,
      "ress</w>": 2673,
      "रब</w>": 2674,
      "ast": 2675,
      "संबंध": 2676,
      "proc": 2677,
      "lation</w>": 2678,
      "ग्रा": 2679,
      "बारे</w>": 2680,
      "तना</w>": 2681,
      "रही</w>": 2682,
      ").</w>": 2683,
      "आव": 2684,
      "बीच</w>": 2685,
      "char": 2686,
      "eg": 2687,
      "Un": 2688,
      "लता</w>": 2689,
      "world</w>": 2690,
      "even</w>": 2691,
      "port</w>": 2692,
      "समझ": 2693,
      "ज्ञान</w>": 2694,
      "good</w>": 2695,
      "see</w>": 2696,
      "श्य": 2697,
      "inv": 2698,
      "low</w>": 2699,
      "उसका</w>": 2700,
      "sin": 2701,
      "mation</w>": 2702,
      "दी": 2703,
      "through</w>": 2704,
      "deed</w>": 2705,
      "ill": 2706,
      "form": 2707,
      "make</w>": 2708,
      "ween</w>": 2709,
      "रान</w>": 2710,
      "योजना</w>": 2711,
      "स्था</w>": 2712,
      "ंक</w>": 2713,
      "वर</w>": 2714,
      "संग": 2715,
      "मक</w>": 2716,
      "well</w>": 2717,
      "टे</w>": 2718,
      "ful": 2719,
      "how</w>": 2720,
      "between</w>": 2721,
      "।\"</w>": 2722,
      "हों</w>": 2723,
      "स्त</w>": 2724,
      "ech": 2725,
      "section</w>": 2726,
      "mat": 2727,
      "struc": 2728,
      "दर</w>": 2729,
      "loc": 2730,
      "President</w>": 2731,
      "name</w>": 2732,
      "ject</w>": 2733,
      "develop": 2734,
      "कल्": 2735,
      "दौ": 2736,
      "peri": 2737,
      "ept</w>": 2738,
      "fl": 2739,
      "स्थाप": 2740,
      "pur": 2741,
      "मेरे</w>": 2742,
      "बी</w>": 2743,
      "ong": 2744,
      "ज़ि": 2745,
      "ided</w>": 2746,
      "thou": 2747,
      "अल": 2748,
      "country</w>": 2749,
      "ities</w>": 2750,
      "अर्": 2751,
      "loo": 2752,
      "tor</w>": 2753,
      "many</w>": 2754,
      "राष्ट्रीय</w>": 2755,
      "मों</w>": 2756,
      "बू": 2757,
      "equ": 2758,
      "are": 2759,
      "ईमान</w>": 2760,
      "her": 2761,
      "यालय</w>": 2762,
      "fo": 2763,
      "cap": 2764,
      "Min": 2765,
      "ju": 2766,
      "down</w>": 2767,
      "स्थिति</w>": 2768,
      "याँ</w>": 2769,
      "न्य</w>": 2770,
      "know</w>": 2771,
      "बंध</w>": 2772,
      "upon</w>": 2773,
      "first</w>": 2774,
      "कू": 2775,
      "believe</w>": 2776,
      "ft</w>": 2777,
      "प्रयोग</w>": 2778,
      "वाद</w>": 2779,
      "per</w>": 2780,
      "uring</w>": 2781,
      "त्रों</w>": 2782,
      "ue</w>": 2783,
      "उनका</w>": 2784,
      "does</w>": 2785,
      "क्रिया</w>": 2786,
      "tiv": 2787,
      "हमें</w>": 2788,
      "years</w>": 2789,
      "Par": 2790,
      "ps</w>": 2791,
      "जाएगा</w>": 2792,
      "Government</w>": 2793,
      "केवल</w>": 2794,
      "वी": 2795,
      "वही</w>": 2796,
      "ange</w>": 2797,
      "ism</w>": 2798,
      "could</w>": 2799,
      "hear": 2800,
      "लें</w>": 2801,
      "उठ": 2802,
      "ंत</w>": 2803,
      "lic</w>": 2804,
      "there": 2805,
      "lar</w>": 2806,
      "ash": 2807,
      "ded</w>": 2808,
      "num": 2809,
      "शक</w>": 2810,
      "act</w>": 2811,
      "get</w>": 2812,
      "जिसमें</w>": 2813,
      "jo": 2814,
      "cur": 2815,
      "भिन्न</w>": 2816,
      "ga": 2817,
      "car": 2818,
      "stri": 2819,
      "स्प": 2820,
      "where</w>": 2821,
      "पत्": 2822,
      "आर": 2823,
      "ताकि</w>": 2824,
      "clu": 2825,
      "डर</w>": 2826,
      "sch": 2827,
      "शो": 2828,
      "ns</w>": 2829,
      "तर्": 2830,
      "cor": 2831,
      "हे": 2832,
      "own</w>": 2833,
      "आवश्य": 2834,
      "There</w>": 2835,
      "जे": 2836,
      "eal": 2837,
      "ainst</w>": 2838,
      "हूँ</w>": 2839,
      "tim": 2840,
      "set</w>": 2841,
      "नो": 2842,
      "under": 2843,
      "ef": 2844,
      "अपना</w>": 2845,
      "produc": 2846,
      "right</w>": 2847,
      "चे": 2848,
      "ether</w>": 2849,
      "ाइल</w>": 2850,
      "ited</w>": 2851,
      "did</w>": 2852,
      "exp": 2853,
      "against</w>": 2854,
      "निर्धार": 2855,
      "क्यो": 2856,
      "tt": 2857,
      "विष": 2858,
      "take</w>": 2859,
      "year</w>": 2860,
      "ry</w>": 2861,
      "लने</w>": 2862,
      "सफ": 2863,
      "वालों</w>": 2864,
      "माण</w>": 2865,
      "ध्य": 2866,
      "mess": 2867,
      "जाना</w>": 2868,
      "ताओं</w>": 2869,
      "all": 2870,
      "yp": 2871,
      "कृत</w>": 2872,
      "हमारी</w>": 2873,
      "pol": 2874,
      "ature</w>": 2875,
      "वार</w>": 2876,
      "दूसरे</w>": 2877,
      "requ": 2878,
      "प्रो": 2879,
      "उसी</w>": 2880,
      "श्य</w>": 2881,
      "यार</w>": 2882,
      "प्रत्य": 2883,
      "सबसे</w>": 2884,
      "All</w>": 2885,
      "उपयोग</w>": 2886,
      "ye</w>": 2887,
      "ets</w>": 2888,
      "इसे</w>": 2889,
      "वास</w>": 2890,
      "lan": 2891,
      "क़</w>": 2892,
      "्रि": 2893,
      "formation</w>": 2894,
      "लो</w>": 2895,
      "प्रति</w>": 2896,
      "mi": 2897,
      "फ्": 2898,
      "earth</w>": 2899,
      "cent": 2900,
      "देने</w>": 2901,
      "खि": 2902,
      "उत्पा": 2903,
      "hi</w>": 2904,
      "ome": 2905,
      "div": 2906,
      "अथ": 2907,
      "मन</w>": 2908,
      "rely</w>": 2909,
      "dy</w>": 2910,
      "tis": 2911,
      "बड़ा</w>": 2912,
      "लब्": 2913,
      "पत्र</w>": 2914,
      "जाए</w>": 2915,
      "पैदा</w>": 2916,
      "डे": 2917,
      "ward</w>": 2918,
      "ow": 2919,
      "Is": 2920,
      "त्य</w>": 2921,
      "place</w>": 2922,
      "ility</w>": 2923,
      "dre": 2924,
      "जाते</w>": 2925,
      "form</w>": 2926,
      "लगा": 2927,
      "फ़</w>": 2928,
      "give</w>": 2929,
      "श्री</w>": 2930,
      "सूचना</w>": 2931,
      "Act</w>": 2932,
      "int</w>": 2933,
      "इसमें</w>": 2934,
      "सन</w>": 2935,
      "मे</w>": 2936,
      "खा</w>": 2937,
      "less</w>": 2938,
      "बल्": 2939,
      "क्योंकि</w>": 2940,
      "पश्": 2941,
      "10</w>": 2942,
      "lar": 2943,
      "क्रम</w>": 2944,
      "bas": 2945,
      "rev": 2946,
      "देता</w>": 2947,
      "तम</w>": 2948,
      "syst": 2949,
      "निक": 2950,
      "ढ़</w>": 2951,
      "जिसे</w>": 2952,
      "आज</w>": 2953,
      "जिन्": 2954,
      "mil": 2955,
      "न्तु</w>": 2956,
      "स्तु": 2957,
      "माम": 2958,
      "blic</w>": 2959,
      "है": 2960,
      "sed</w>": 2961,
      "fil": 2962,
      "Ra": 2963,
      "कंप": 2964,
      "fun": 2965,
      "ised</w>": 2966,
      "अधिनियम</w>": 2967,
      "उपलब्": 2968,
      "given</w>": 2969,
      "land</w>": 2970,
      "part</w>": 2971,
      "पूर्व</w>": 2972,
      "eas": 2973,
      "ric": 2974,
      "टी": 2975,
      "आं": 2976,
      "ep</w>": 2977,
      "tre": 2978,
      "धी</w>": 2979,
      "बना</w>": 2980,
      "gan": 2981,
      "chil": 2982,
      "No": 2983,
      "Ad": 2984,
      "डी</w>": 2985,
      "det": 2986,
      "पी</w>": 2987,
      "स्वी": 2988,
      "घा": 2989,
      "अथवा</w>": 2990,
      "ya</w>": 2991,
      "उनसे</w>": 2992,
      "among</w>": 2993,
      "Mu": 2994,
      "cul": 2995,
      "ages</w>": 2996,
      "read": 2997,
      "था": 2998,
      "र्म</w>": 2999,
      "ants</w>": 3000,
      "know": 3001,
      "Di": 3002,
      "ken</w>": 3003,
      "sur": 3004,
      "because</w>": 3005,
      "sup": 3006,
      "उससे</w>": 3007,
      "sent</w>": 3008,
      "ee</w>": 3009,
      "ished</w>": 3010,
      "तब</w>": 3011,
      "त्या": 3012,
      "app": 3013,
      "differ": 3014,
      "तै": 3015,
      "कभी</w>": 3016,
      "माल</w>": 3017,
      "Him</w>": 3018,
      "hum": 3019,
      "ll</w>": 3020,
      "ision</w>": 3021,
      "sha": 3022,
      "oper": 3023,
      "fied</w>": 3024,
      "ext</w>": 3025,
      "ments</w>": 3026,
      "cu": 3027,
      "indu": 3028,
      "direc": 3029,
      "18": 3030,
      "State</w>": 3031,
      "परवर": 3032,
      "plic": 3033,
      "दिगार</w>": 3034,
      "फा": 3035,
      "now</w>": 3036,
      "मूल्": 3037,
      "cla": 3038,
      "can": 3039,
      "row": 3040,
      "परवरदिगार</w>": 3041,
      "ri</w>": 3042,
      "reli": 3043,
      "करा": 3044,
      "निया</w>": 3045,
      "कें": 3046,
      "cha": 3047,
      "gener": 3048,
      "नीय</w>": 3049,
      "धा</w>": 3050,
      "must</w>": 3051,
      "of": 3052,
      "olu": 3053,
      "accoun": 3054,
      "tain</w>": 3055,
      "तौ": 3056,
      "शी</w>": 3057,
      "निका": 3058,
      "abl": 3059,
      "bi": 3060,
      "कॉ": 3061,
      "When</w>": 3062,
      "dge</w>": 3063,
      "eds</w>": 3064,
      "thers</w>": 3065,
      "बस</w>": 3066,
      "wom": 3067,
      "star": 3068,
      "turn</w>": 3069,
      "सकती</w>": 3070,
      "every</w>": 3071,
      "च्च": 3072,
      "men</w>": 3073,
      "lit": 3074,
      "बर": 3075,
      "ality</w>": 3076,
      "ख्या</w>": 3077,
      "mp": 3078,
      "पहुँ": 3079,
      "पन</w>": 3080,
      "ual</w>": 3081,
      "Our</w>": 3082,
      "खे": 3083,
      "शब्": 3084,
      "Re": 3085,
      "बड़ी</w>": 3086,
      "ra</w>": 3087,
      "part": 3088,
      "consi": 3089,
      "ran": 3090,
      "करती</w>": 3091,
      "षण</w>": 3092,
      "संदेश</w>": 3093,
      "यक</w>": 3094,
      "णी</w>": 3095,
      "ंच</w>": 3096,
      "कृति</w>": 3097,
      "ha</w>": 3098,
      "इसलिए</w>": 3099,
      "यर</w>": 3100,
      "ese</w>": 3101,
      "ट्र": 3102,
      "टन</w>": 3103,
      "ink</w>": 3104,
      "चीज़</w>": 3105,
      "हूं</w>": 3106,
      "सहायता</w>": 3107,
      "चित</w>": 3108,
      "199": 3109,
      "कई</w>": 3110,
      "rel": 3111,
      "compl": 3112,
      "वेश</w>": 3113,
      "शिक्षा</w>": 3114,
      "od</w>": 3115,
      "इन्": 3116,
      "नू": 3117,
      "लिये</w>": 3118,
      "vari": 3119,
      "त्ता</w>": 3120,
      "ems</w>": 3121,
      "मित</w>": 3122,
      "ire</w>": 3123,
      "ke": 3124,
      "अलग</w>": 3125,
      "आय": 3126,
      ".\"</w>": 3127,
      "selves</w>": 3128,
      "just</w>": 3129,
      "order</w>": 3130,
      "मिक</w>": 3131,
      "On": 3132,
      "great</w>": 3133,
      "हार</w>": 3134,
      "while</w>": 3135,
      "De": 3136,
      "To</w>": 3137,
      "होना</w>": 3138,
      "econ": 3139,
      "्यू": 3140,
      "बल्कि</w>": 3141,
      "pat": 3142,
      "सूची</w>": 3143,
      "संस्": 3144,
      "मेरी</w>": 3145,
      "तें</w>": 3146,
      "र्इ</w>": 3147,
      "उनमें</w>": 3148,
      "कुल</w>": 3149,
      "लत</w>": 3150,
      "हित</w>": 3151,
      "ain</w>": 3152,
      "some": 3153,
      "away</w>": 3154,
      "follow": 3155,
      "ner</w>": 3156,
      "पुन": 3157,
      "need</w>": 3158,
      "योगि": 3159,
      "र्य</w>": 3160,
      "भी": 3161,
      "gl": 3162,
      "पता</w>": 3163,
      "ide": 3164,
      "निर्माण</w>": 3165,
      "बैठ": 3166,
      "water</w>": 3167,
      "cour": 3168,
      "बरा": 3169,
      "bel": 3170,
      "प्रका": 3171,
      "ata</w>": 3172,
      "इससे</w>": 3173,
      "sts</w>": 3174,
      "ध्या": 3175,
      "भु": 3176,
      "वरण</w>": 3177,
      "mit": 3178,
      "शामिल</w>": 3179,
      "सदस्": 3180,
      "For</w>": 3181,
      "याद</w>": 3182,
      "यत</w>": 3183,
      "होगी</w>": 3184,
      "here</w>": 3185,
      "back</w>": 3186,
      "Day</w>": 3187,
      "यहाँ</w>": 3188,
      "auth": 3189,
      "ंभ</w>": 3190,
      "dem": 3191,
      "ten</w>": 3192,
      "fam": 3193,
      "शै": 3194,
      "number</w>": 3195,
      "डी": 3196,
      "ety</w>": 3197,
      "परिवर्": 3198,
      "tical</w>": 3199,
      "विशेष</w>": 3200,
      "stry</w>": 3201,
      "national</w>": 3202,
      "आगे</w>": 3203,
      "कहते</w>": 3204,
      "sm": 3205,
      "go</w>": 3206,
      "vers": 3207,
      "fore": 3208,
      "करके</w>": 3209,
      "कह</w>": 3210,
      "IN": 3211,
      "ects</w>": 3212,
      "file</w>": 3213,
      "रच": 3214,
      "posi": 3215,
      "ban": 3216,
      "जहां</w>": 3217,
      "ative</w>": 3218,
      "sen": 3219,
      "दौरान</w>": 3220,
      "ord": 3221,
      "power</w>": 3222,
      "ोल्": 3223,
      "त्रा</w>": 3224,
      "Cent": 3225,
      "ini": 3226,
      "भाव": 3227,
      "लं": 3228,
      "dra": 3229,
      "during</w>": 3230,
      "person</w>": 3231,
      "ital</w>": 3232,
      "As": 3233,
      "तान</w>": 3234,
      "पार": 3235,
      "जिन</w>": 3236,
      "gar": 3237,
      "रक्षा</w>": 3238,
      "ंट</w>": 3239,
      "believers</w>": 3240,
      "मृ": 3241,
      "000</w>": 3242,
      "लित</w>": 3243,
      "फे": 3244,
      "वास्त": 3245,
      "regi": 3246,
      "20</w>": 3247,
      "फ़ाइल</w>": 3248,
      "each</w>": 3249,
      "og": 3250,
      "उनको</w>": 3251,
      "मंत्री</w>": 3252,
      "els</w>": 3253,
      "writ": 3254,
      "logy</w>": 3255,
      "यही</w>": 3256,
      "pi": 3257,
      "स्थित</w>": 3258,
      "कौ": 3259,
      "case</w>": 3260,
      "same</w>": 3261,
      "side</w>": 3262,
      "विभिन्न</w>": 3263,
      "विचार</w>": 3264,
      "भव</w>": 3265,
      "system</w>": 3266,
      "ass</w>": 3267,
      "आई": 3268,
      "ष्ठ": 3269,
      "अग": 3270,
      "अधीन</w>": 3271,
      "पड़": 3272,
      "off": 3273,
      "ेक</w>": 3274,
      "import": 3275,
      "As</w>": 3276,
      "ices</w>": 3277,
      "जे</w>": 3278,
      "cas": 3279,
      "पूर्व": 3280,
      "ष्टि</w>": 3281,
      "adv": 3282,
      "लिक</w>": 3283,
      "त्मक</w>": 3284,
      "वित</w>": 3285,
      "समान</w>": 3286,
      "Ar": 3287,
      "जिसके</w>": 3288,
      "ana</w>": 3289,
      "recei": 3290,
      "यम</w>": 3291,
      "लू": 3292,
      "संख्या</w>": 3293,
      "ौद्": 3294,
      "अनुसार</w>": 3295,
      "दर": 3296,
      "पूरा</w>": 3297,
      "change</w>": 3298,
      "सन्": 3299,
      "ारा": 3300,
      "त्वपूर्ण</w>": 3301,
      "ouse</w>": 3302,
      "out": 3303,
      "den": 3304,
      "होंगे</w>": 3305,
      "सामने</w>": 3306,
      "इसका</w>": 3307,
      "ous": 3308,
      "den</w>": 3309,
      "सेवा</w>": 3310,
      "समु": 3311,
      "फ़ि": 3312,
      "तरफ</w>": 3313,
      "मार्ग</w>": 3314,
      "Then</w>": 3315,
      "sul": 3316,
      "respon": 3317,
      "cc": 3318,
      "मद": 3319,
      "गी": 3320,
      "ys</w>": 3321,
      "ways</w>": 3322,
      "ledge</w>": 3323,
      "हत</w>": 3324,
      "both</w>": 3325,
      "नेक</w>": 3326,
      "अति": 3327,
      "clo": 3328,
      "dep": 3329,
      "No</w>": 3330,
      "Res": 3331,
      "ef</w>": 3332,
      "ven": 3333,
      ":%</w>": 3334,
      "speci": 3335,
      "हन</w>": 3336,
      "किता": 3337,
      "रू</w>": 3338,
      "भा</w>": 3339,
      "stan": 3340,
      "संबंध</w>": 3341,
      "गां": 3342,
      "समू": 3343,
      "organ": 3344,
      "यान</w>": 3345,
      "called</w>": 3346,
      "sci": 3347,
      "घट": 3348,
      "wards</w>": 3349,
      "विश्व": 3350,
      "वान</w>": 3351,
      "another</w>": 3352,
      "मुख</w>": 3353,
      "करे</w>": 3354,
      "Bha": 3355,
      "उसमें</w>": 3356,
      "etc</w>": 3357,
      "छा": 3358,
      "साइ": 3359,
      "अच्छा</w>": 3360,
      "देशों</w>": 3361,
      "development</w>": 3362,
      "Uni": 3363,
      "bro": 3364,
      "things</w>": 3365,
      "आपको</w>": 3366,
      "आधार</w>": 3367,
      "भाषा</w>": 3368,
      "नई</w>": 3369,
      "ency</w>": 3370,
      "घर</w>": 3371,
      "known</w>": 3372,
      "ंत्र": 3373,
      "क्स</w>": 3374,
      "संबंधित</w>": 3375,
      "इसी</w>": 3376,
      "दुनिया</w>": 3377,
      "educ": 3378,
      "देते</w>": 3379,
      "EN": 3380,
      "win": 3381,
      "help</w>": 3382,
      "long</w>": 3383,
      "पृ": 3384,
      "ten": 3385,
      "क्षित</w>": 3386,
      "मीन</w>": 3387,
      "wa": 3388,
      "करेगा</w>": 3389,
      "लै": 3390,
      "yed</w>": 3391,
      "ign</w>": 3392,
      "न्त</w>": 3393,
      "ort</w>": 3394,
      "tech": 3395,
      "बाहर</w>": 3396,
      "वर्ष": 3397,
      "sible</w>": 3398,
      "whom</w>": 3399,
      "णों</w>": 3400,
      "अन": 3401,
      "यो</w>": 3402,
      "सिं": 3403,
      "put</w>": 3404,
      "णा</w>": 3405,
      "उपलब्ध</w>": 3406,
      "तैयार</w>": 3407,
      "ined</w>": 3408,
      "बड़े</w>": 3409,
      "econom": 3410,
      "आय</w>": 3411,
      "vil": 3412,
      "buil": 3413,
      "ask</w>": 3414,
      "च्च</w>": 3415,
      "चाहते</w>": 3416,
      "nor</w>": 3417,
      "वाह</w>": 3418,
      "indeed</w>": 3419,
      "action</w>": 3420,
      "प्रत्येक</w>": 3421,
      "विक</w>": 3422,
      "निश्चित</w>": 3423,
      "चार": 3424,
      "line</w>": 3425,
      "50</w>": 3426,
      "पानी</w>": 3427,
      "without</w>": 3428,
      "12</w>": 3429,
      "विषय</w>": 3430,
      "dic": 3431,
      "लेख": 3432,
      "सौ": 3433,
      "द्धि</w>": 3434,
      "ंग्रे": 3435,
      "धु": 3436,
      "कल</w>": 3437,
      "inclu": 3438,
      "three</w>": 3439,
      "sou": 3440,
      "came</w>": 3441,
      "ack": 3442,
      "commun": 3443,
      "times</w>": 3444,
      "महि": 3445,
      "dren</w>": 3446,
      "nal</w>": 3447,
      "What</w>": 3448,
      "जारी</w>": 3449,
      "त्त</w>": 3450,
      "bers</w>": 3451,
      "बन</w>": 3452,
      "succ": 3453,
      "body</w>": 3454,
      "ins</w>": 3455,
      "tly</w>": 3456,
      "knowledge</w>": 3457,
      "जग": 3458,
      "aff": 3459,
      "ीक</w>": 3460,
      "ple</w>": 3461,
      "तुम्हारी</w>": 3462,
      "National</w>": 3463,
      "फै": 3464,
      "Mar": 3465,
      "ority</w>": 3466,
      "she</w>": 3467,
      "भर</w>": 3468,
      "प्रया": 3469,
      "पीछ": 3470,
      "ently</w>": 3471,
      "स्तर</w>": 3472,
      "अध्य": 3473,
      "शक्ति</w>": 3474,
      "अवसर</w>": 3475,
      "issu": 3476,
      "काल</w>": 3477,
      "स्वय": 3478,
      "नाओं</w>": 3479,
      "लड़": 3480,
      "ia</w>": 3481,
      "क्ति": 3482,
      "nec": 3483,
      "प्रार": 3484,
      "सां": 3485,
      "religi": 3486,
      "ral</w>": 3487,
      "ides</w>": 3488,
      "हरा": 3489,
      "निश्चय</w>": 3490,
      "cial</w>": 3491,
      "बनाने</w>": 3492,
      "ma</w>": 3493,
      "vir": 3494,
      "ges</w>": 3495,
      "पूरी</w>": 3496,
      "sk": 3497,
      "Mess": 3498,
      "crip": 3499,
      "Mus": 3500,
      "भो": 3501,
      "ration</w>": 3502,
      "RE": 3503,
      "pun": 3504,
      "lease</w>": 3505,
      "state</w>": 3506,
      "different</w>": 3507,
      "दूर</w>": 3508,
      "झु": 3509,
      "केन्": 3510,
      "progra": 3511,
      "tle</w>": 3512,
      "ष्ठ</w>": 3513,
      "हरी</w>": 3514,
      "pra": 3515,
      "inf": 3516,
      "means</w>": 3517,
      "Au": 3518,
      "pass": 3519,
      "ired</w>": 3520,
      "uni": 3521,
      "found</w>": 3522,
      "'%</w>": 3523,
      "ह्": 3524,
      "much</w>": 3525,
      "ज्या": 3526,
      "प्रौद्": 3527,
      "bre": 3528,
      "contin": 3529,
      "cr": 3530,
      "पा</w>": 3531,
      "श्रे": 3532,
      "ister</w>": 3533,
      "धी": 3534,
      "सान</w>": 3535,
      "inc": 3536,
      "आपके</w>": 3537,
      "बता": 3538,
      "prob": 3539,
      "want</w>": 3540,
      "eth</w>": 3541,
      "ss</w>": 3542,
      "information</w>": 3543,
      "righ": 3544,
      "रखा</w>": 3545,
      "लगे</w>": 3546,
      "nam": 3547,
      "ount</w>": 3548,
      "स्थापित</w>": 3549,
      "ror</w>": 3550,
      "tice</w>": 3551,
      "र्ड</w>": 3552,
      "गै": 3553,
      "रती</w>": 3554,
      "langu": 3555,
      "अत्य": 3556,
      "Do</w>": 3557,
      "ंतु</w>": 3558,
      "अज़ा": 3559,
      "लना</w>": 3560,
      "incre": 3561,
      "OF</w>": 3562,
      "तीन</w>": 3563,
      "प्रौद्योगि": 3564,
      "taken</w>": 3565,
      "तिहा": 3566,
      "रण</w>": 3567,
      "typ": 3568,
      "Shri</w>": 3569,
      "लाभ</w>": 3570,
      "बा</w>": 3571,
      "हिं": 3572,
      "खंड</w>": 3573,
      "जब": 3574,
      "ष्य</w>": 3575,
      "प्रक्रिया</w>": 3576,
      "लते</w>": 3577,
      "vis": 3578,
      "अंतर": 3579,
      "नीति</w>": 3580,
      "ders</w>": 3581,
      "ध्यम</w>": 3582,
      "सामान्य</w>": 3583,
      "खुदा</w>": 3584,
      "eff": 3585,
      "ज़ा</w>": 3586,
      "लॉ": 3587,
      "विश्व</w>": 3588,
      "लौ": 3589,
      "परी": 3590,
      "ऊपर</w>": 3591,
      "ere": 3592,
      "आई</w>": 3593,
      "grou": 3594,
      "मगर</w>": 3595,
      "On</w>": 3596,
      "Sa": 3597,
      "ben": 3598,
      "लोक": 3599,
      "फो": 3600,
      "वि</w>": 3601,
      "Man": 3602,
      "गये</w>": 3603,
      "लु": 3604,
      "ond</w>": 3605,
      "र्ट</w>": 3606,
      "Hind": 3607,
      "unto</w>": 3608,
      "फी</w>": 3609,
      "करने": 3610,
      "heav": 3611,
      "नता</w>": 3612,
      "जरू": 3613,
      "Po": 3614,
      "account</w>": 3615,
      "शत</w>": 3616,
      "पार</w>": 3617,
      "men": 3618,
      "उठा": 3619,
      "लती</w>": 3620,
      "ham": 3621,
      "अज़ाब</w>": 3622,
      "That</w>": 3623,
      "स्वयं</w>": 3624,
      "onal</w>": 3625,
      "अंतर्": 3626,
      "रात</w>": 3627,
      "ठीक</w>": 3628,
      "earch</w>": 3629,
      "अनेक</w>": 3630,
      "स्त्र": 3631,
      "period</w>": 3632,
      "र्थ</w>": 3633,
      "ग्": 3634,
      "sist": 3635,
      "मुख्य</w>": 3636,
      "ishment</w>": 3637,
      "any": 3638,
      "प्रणा": 3639,
      "My</w>": 3640,
      "sure</w>": 3641,
      "चाहता</w>": 3642,
      "institu": 3643,
      "sive</w>": 3644,
      "hal": 3645,
      "inst": 3646,
      "बल</w>": 3647,
      "तुम्हारा</w>": 3648,
      "बनाया</w>": 3649,
      "sub</w>": 3650,
      "पि</w>": 3651,
      "nor": 3652,
      "''</w>": 3653,
      "ber": 3654,
      "हेतु</w>": 3655,
      "शुरू</w>": 3656,
      "Del": 3657,
      "women</w>": 3658,
      "भवन</w>": 3659,
      "वाय": 3660,
      "happ": 3661,
      "महत्वपूर्ण</w>": 3662,
      "तंत्र</w>": 3663,
      "घो": 3664,
      "gg": 3665,
      "वज": 3666,
      "lev": 3667,
      "आत्": 3668,
      "दर्शन</w>": 3669,
      "टो": 3670,
      "ural</w>": 3671,
      "बढ़ा": 3672,
      "षि</w>": 3673,
      "let</w>": 3674,
      "ख़ि": 3675,
      "30</w>": 3676,
      "over": 3677,
      "15</w>": 3678,
      "ental</w>": 3679,
      "truth</w>": 3680,
      "thy</w>": 3681,
      "अर्थ": 3682,
      "एस</w>": 3683,
      "देह</w>": 3684,
      "SI": 3685,
      "पढ़": 3686,
      "सर्व": 3687,
      "व्यवस्था</w>": 3688,
      "मि</w>": 3689,
      "high": 3690,
      "क़ा": 3691,
      "leg": 3692,
      "ca": 3693,
      "वादी</w>": 3694,
      "dom</w>": 3695,
      "tor": 3696,
      "avail": 3697,
      "परिणा": 3698,
      "created</w>": 3699,
      "मैंने</w>": 3700,
      "देखा</w>": 3701,
      "क्षेत्रों</w>": 3702,
      "विज्ञान</w>": 3703,
      "AT": 3704,
      "धिक</w>": 3705,
      "आर्थ": 3706,
      "रह</w>": 3707,
      "ult</w>": 3708,
      "सके</w>": 3709,
      "जिसने</w>": 3710,
      "ंस</w>": 3711,
      "Say</w>": 3712,
      "cannot</w>": 3713,
      "शरी": 3714,
      "प्रतिशत</w>": 3715,
      "fri": 3716,
      "आदि</w>": 3717,
      "For": 3718,
      "These</w>": 3719,
      "चुन": 3720,
      "व्य</w>": 3721,
      "बेशक</w>": 3722,
      "ima": 3723,
      "राज्य": 3724,
      "Bo": 3725,
      "exam": 3726,
      "मौजू": 3727,
      "dist": 3728,
      "Name</w>": 3729,
      "going</w>": 3730,
      "क्षि": 3731,
      "यहां</w>": 3732,
      "dition</w>": 3733,
      "ining</w>": 3734,
      "देना</w>": 3735,
      "view</w>": 3736,
      "196": 3737,
      "ember</w>": 3738,
      "mission</w>": 3739,
      "tal</w>": 3740,
      "नीचे</w>": 3741,
      "company</w>": 3742,
      "message</w>": 3743,
      "11</w>": 3744,
      "44</w>": 3745,
      "ete</w>": 3746,
      "करेंगे</w>": 3747,
      "lim": 3748,
      "पीछे</w>": 3749,
      "cent</w>": 3750,
      "बिना</w>": 3751,
      "except</w>": 3752,
      "ारि": 3753,
      "हिस्": 3754,
      "stud": 3755,
      "find</w>": 3756,
      "date</w>": 3757,
      "become</w>": 3758,
      "tific": 3759,
      "cro": 3760,
      "उल्": 3761,
      "ove</w>": 3762,
      "बैंक</w>": 3763,
      "Li": 3764,
      "days</w>": 3765,
      "ths</w>": 3766,
      "important</w>": 3767,
      "किताब</w>": 3768,
      "gress</w>": 3769,
      "आर्थिक</w>": 3770,
      "ंच": 3771,
      "लगा</w>": 3772,
      "ann": 3773,
      "ज़मीन</w>": 3774,
      "सुवि": 3775,
      "प्रौद्योगिकी</w>": 3776,
      "them": 3777,
      "loy": 3778,
      "ces</w>": 3779,
      "Pra": 3780,
      "ध्यान</w>": 3781,
      "busin": 3782,
      "word</w>": 3783,
      "एस": 3784,
      "यात</w>": 3785,
      "medi": 3786,
      "stric": 3787,
      "जिसका</w>": 3788,
      "तक": 3789,
      "dow</w>": 3790,
      "story</w>": 3791,
      "एक": 3792,
      "ented</w>": 3793,
      "ters</w>": 3794,
      "ze</w>": 3795,
      "ध्": 3796,
      "add": 3797,
      "हाथ</w>": 3798,
      "ii</w>": 3799,
      "les</w>": 3800,
      "chang": 3801,
      "गण": 3802,
      "public</w>": 3803,
      "सित</w>": 3804,
      "हिन्": 3805,
      "present</w>": 3806,
      "dit</w>": 3807,
      "च्चे</w>": 3808,
      "लाया</w>": 3809,
      "विश्वास</w>": 3810,
      "AN": 3811,
      "today</w>": 3812,
      "उच्च</w>": 3813,
      "दिष्ट</w>": 3814,
      "अधिकार</w>": 3815,
      "मदद</w>": 3816,
      "surely</w>": 3817,
      "Sp": 3818,
      "ta</w>": 3819,
      "रिक</w>": 3820,
      "establ": 3821,
      "plan": 3822,
      "चौ": 3823,
      "लक्ष": 3824,
      "लेकर</w>": 3825,
      "curr": 3826,
      "गयी</w>": 3827,
      "स्ते</w>": 3828,
      "किन्तु</w>": 3829,
      "ail</w>": 3830,
      "माण": 3831,
      "नि</w>": 3832,
      "त्</w>": 3833,
      "धरती</w>": 3834,
      "income</w>": 3835,
      "clear</w>": 3836,
      "स्पष्ट</w>": 3837,
      "ready</w>": 3838,
      "eting</w>": 3839,
      "जबकि</w>": 3840,
      "शासन</w>": 3841,
      "198": 3842,
      "ali": 3843,
      "never</w>": 3844,
      "ead</w>": 3845,
      "children</w>": 3846,
      "offic": 3847,
      "?\"</w>": 3848,
      "नित</w>": 3849,
      "ोल्डर</w>": 3850,
      "ands</w>": 3851,
      "बेह": 3852,
      "fear</w>": 3853,
      "अमे": 3854,
      "ered</w>": 3855,
      "चल</w>": 3856,
      "sing</w>": 3857,
      "kind</w>": 3858,
      "best</w>": 3859,
      "पिछ": 3860,
      "जार</w>": 3861,
      "आद": 3862,
      "ठि": 3863,
      "though</w>": 3864,
      "kes</w>": 3865,
      "प्रमुख</w>": 3866,
      "Musli": 3867,
      "तौर</w>": 3868,
      "शित</w>": 3869,
      "applic": 3870,
      "अतः</w>": 3871,
      "तो": 3872,
      "art</w>": 3873,
      "mor": 3874,
      "कारों</w>": 3875,
      "जन्": 3876,
      "read</w>": 3877,
      "वों</w>": 3878,
      "दिए</w>": 3879,
      "इसकी</w>": 3880,
      "कंपनी</w>": 3881,
      "मता</w>": 3882,
      "माध्यम</w>": 3883,
      "Dev": 3884,
      "गति</w>": 3885,
      "tax</w>": 3886,
      "विशेष": 3887,
      "government</w>": 3888,
      "RB</w>": 3889,
      "लाने</w>": 3890,
      "see": 3891,
      "अच्छे</w>": 3892,
      "तनी</w>": 3893,
      "ale</w>": 3894,
      "कृषि</w>": 3895,
      "बन": 3896,
      "ences</w>": 3897,
      "Minister</w>": 3898,
      "दारी</w>": 3899,
      "within</w>": 3900,
      "nology</w>": 3901,
      "ग्रह</w>": 3902,
      "दें</w>": 3903,
      "Pri": 3904,
      "सभा</w>": 3905,
      "होकर</w>": 3906,
      "ही": 3907,
      "hy": 3908,
      "ool</w>": 3909,
      "ket</w>": 3910,
      "धान": 3911,
      "विंड": 3912,
      "jud": 3913,
      "various</w>": 3914,
      "themselves</w>": 3915,
      "bor": 3916,
      "नियंत्र": 3917,
      "द्रीय</w>": 3918,
      "लाए</w>": 3919,
      "light</w>": 3920,
      "अमेरि": 3921,
      "क्यों</w>": 3922,
      "लाग": 3923,
      "done</w>": 3924,
      "जिक</w>": 3925,
      "र्ष": 3926,
      "समर्थ": 3927,
      "निर्दिष्ट</w>": 3928,
      "ged</w>": 3929,
      "चाहे</w>": 3930,
      "fy</w>": 3931,
      "business</w>": 3932,
      "fur": 3933,
      "Per": 3934,
      "मूल</w>": 3935,
      "last</w>": 3936,
      "मेरा</w>": 3937,
      "bed</w>": 3938,
      "main</w>": 3939,
      "ends</w>": 3940,
      "row</w>": 3941,
      "wit": 3942,
      "icy</w>": 3943,
      "पन्न</w>": 3944,
      "stor": 3945,
      "olution</w>": 3946,
      "evil</w>": 3947,
      "htt": 3948,
      "इनकार</w>": 3949,
      "New</w>": 3950,
      "ular</w>": 3951,
      "मर्": 3952,
      "थो": 3953,
      "भग</w>": 3954,
      "लेख</w>": 3955,
      "others</w>": 3956,
      "तुमसे</w>": 3957,
      "os": 3958,
      "ज्यादा</w>": 3959,
      "ably</w>": 3960,
      "play</w>": 3961,
      "rit": 3962,
      "पश्चा": 3963,
      "विधान</w>": 3964,
      "मार": 3965,
      "रिक्त</w>": 3966,
      "भूमि</w>": 3967,
      "hol": 3968,
      "धर्म</w>": 3969,
      "due</w>": 3970,
      "उत्तर</w>": 3971,
      "del": 3972,
      "धे</w>": 3973,
      "amount</w>": 3974,
      "सारे</w>": 3975,
      "शि</w>": 3976,
      "क़ौ": 3977,
      "better</w>": 3978,
      "रखते</w>": 3979,
      "निम्": 3980,
      "ren": 3981,
      "कहीं</w>": 3982,
      "पर्या": 3983,
      "मूल्य</w>": 3984,
      "ines</w>": 3985,
      "बे</w>": 3986,
      "स्ति": 3987,
      "bur": 3988,
      "सरी</w>": 3989,
      "आका": 3990,
      "समस्": 3991,
      "consider": 3992,
      "human</w>": 3993,
      "प्रणाली</w>": 3994,
      "ination</w>": 3995,
      "प्रि": 3996,
      "ल्ली</w>": 3997,
      "ements</w>": 3998,
      "लगभग</w>": 3999,
      "tural</w>": 4000,
      "ron": 4001,
      "ris": 4002,
      "आने</w>": 4003,
      "दू</w>": 4004,
      "pay": 4005,
      "तार</w>": 4006,
      "जानकारी</w>": 4007,
      "जनता</w>": 4008,
      "रचना</w>": 4009,
      "कार्यक्रम</w>": 4010,
      "ँगे</w>": 4011,
      "set": 4012,
      "contro": 4013,
      "निशा": 4014,
      "ery</w>": 4015,
      "क़ी": 4016,
      "plac": 4017,
      "Ab": 4018,
      "तरी": 4019,
      "अर्थ</w>": 4020,
      "concer": 4021,
      "too</w>": 4022,
      "शं": 4023,
      "small</w>": 4024,
      "संगठ": 4025,
      "197": 4026,
      "द्ध": 4027,
      "ight</w>": 4028,
      "अवधि</w>": 4029,
      "25</w>": 4030,
      "ईमान": 4031,
      "काफी</w>": 4032,
      "left</w>": 4033,
      "beg": 4034,
      "ease</w>": 4035,
      "ंश</w>": 4036,
      "rela": 4037,
      "poli": 4038,
      "सै": 4039,
      "पित</w>": 4040,
      "परा": 4041,
      "अच्छी</w>": 4042,
      "अभी</w>": 4043,
      "face</w>": 4044,
      "rought</w>": 4045,
      "कर्ता</w>": 4046,
      "ाई</w>": 4047,
      "समूह</w>": 4048,
      "position</w>": 4049,
      "लागू</w>": 4050,
      "ribu": 4051,
      "त्रु": 4052,
      "list</w>": 4053,
      "विश्वविद्": 4054,
      "ures</w>": 4055,
      "जानता</w>": 4056,
      "सों</w>": 4057,
      "जल</w>": 4058,
      "लू</w>": 4059,
      "परिवर्तन</w>": 4060,
      "ective</w>": 4061,
      "वहां</w>": 4062,
      "prof": 4063,
      "पर्क</w>": 4064,
      "रंग</w>": 4065,
      "heal": 4066,
      "प्रबंध": 4067,
      "available</w>": 4068,
      "ंद</w>": 4069,
      "कट</w>": 4070,
      "कोशि": 4071,
      "प्रती": 4072,
      "गर्": 4073,
      "education</w>": 4074,
      "194": 4075,
      "देख</w>": 4076,
      "सामाजिक</w>": 4077,
      "Ser": 4078,
      "पुरा": 4079,
      "grow": 4080,
      "cip": 4081,
      "जैसा</w>": 4082,
      "तू</w>": 4083,
      "शब्द</w>": 4084,
      "एन": 4085,
      "ones</w>": 4086,
      "त्रि": 4087,
      "सल": 4088,
      "http</w>": 4089,
      "sions</w>": 4090,
      "राम</w>": 4091,
      "Lo": 4092,
      "mul": 4093,
      "वर्त": 4094,
      "मामले</w>": 4095,
      "जाय": 4096,
      "arm": 4097,
      "lu": 4098,
      "ारी": 4099,
      "sc": 4100,
      "ख्या": 4101,
      "sit": 4102,
      "ferred</w>": 4103,
      "पस</w>": 4104,
      "ion</w>": 4105,
      "कम": 4106,
      "क़ि": 4107,
      "stat": 4108,
      "राशि</w>": 4109,
      "निस्": 4110,
      "सेवा": 4111,
      "ध्य</w>": 4112,
      "जों</w>": 4113,
      "ended</w>": 4114,
      "process</w>": 4115,
      "hand</w>": 4116,
      "शील</w>": 4117,
      "):</w>": 4118,
      "न्द</w>": 4119,
      "प्रस्तु": 4120,
      "van</w>": 4121,
      "One</w>": 4122,
      "कला": 4123,
      "फ़ोल्डर</w>": 4124,
      "lear": 4125,
      "मज": 4126,
      "igh": 4127,
      "rit</w>": 4128,
      "ator</w>": 4129,
      "pen": 4130,
      "large</w>": 4131,
      "Sch": 4132,
      "नाथ</w>": 4133,
      "देशी</w>": 4134,
      "versity</w>": 4135,
      "exist": 4136,
      "towards</w>": 4137,
      "pop": 4138,
      "eme</w>": 4139,
      "member</w>": 4140,
      "आधार": 4141,
      "बराबर</w>": 4142,
      "आदेश</w>": 4143,
      "ious</w>": 4144,
      "सिवा</w>": 4145,
      "jee</w>": 4146,
      "काम": 4147,
      "साल</w>": 4148,
      "AR": 4149,
      "कानू": 4150,
      "resul": 4151,
      "prot": 4152,
      "ट्टी</w>": 4153,
      "संस्था": 4154,
      "क़ु": 4155,
      "आया</w>": 4156,
      "poin": 4157,
      "समाज</w>": 4158,
      "mm": 4159,
      "र्फ</w>": 4160,
      "Book</w>": 4161,
      "इस्": 4162,
      "करो": 4163,
      "नियों</w>": 4164,
      "जाएगी</w>": 4165,
      "appro": 4166,
      "tal": 4167,
      "bring</w>": 4168,
      "Wor": 4169,
      "तने</w>": 4170,
      "जोड़": 4171,
      "law</w>": 4172,
      "समि": 4173,
      "sto": 4174,
      "ल्म</w>": 4175,
      "उसको</w>": 4176,
      "उद्योग</w>": 4177,
      ":/": 4178,
      "ability</w>": 4179,
      "आवश्यक</w>": 4180,
      "लिखित</w>": 4181,
      "vo": 4182,
      "षित</w>": 4183,
      "विधि</w>": 4184,
      "न्य": 4185,
      "निर्ण": 4186,
      "Central</w>": 4187,
      "डल</w>": 4188,
      "हाल</w>": 4189,
      "Gu": 4190,
      "ys": 4191,
      "195": 4192,
      "enger</w>": 4193,
      "टों</w>": 4194,
      "संदेह</w>": 4195,
      "high</w>": 4196,
      "af": 4197,
      "boo": 4198,
      "साहि": 4199,
      "reas": 4200,
      "Pr": 4201,
      "सिक</w>": 4202,
      "func": 4203,
      "Dis": 4204,
      "योजन</w>": 4205,
      "प्रभाव</w>": 4206,
      "दाय": 4207,
      "language</w>": 4208,
      "An</w>": 4209,
      "Raj": 4210,
      "son</w>": 4211,
      "स्वीकार</w>": 4212,
      "value</w>": 4213,
      "stand</w>": 4214,
      "लाल</w>": 4215,
      "क्षमता</w>": 4216,
      "जगह</w>": 4217,
      "जानते</w>": 4218,
      "window</w>": 4219,
      "ंक": 4220,
      "ब्र": 4221,
      "heavens</w>": 4222,
      "deli": 4223,
      "Indeed</w>": 4224,
      "ession</w>": 4225,
      "ques": 4226,
      "ंगी</w>": 4227,
      "उदा": 4228,
      "प्रयास</w>": 4229,
      "कोर्इ</w>": 4230,
      "सुरक्षा</w>": 4231,
      "नए</w>": 4232,
      "पूछ": 4233,
      "Cha": 4234,
      "क्षा": 4235,
      "डियो</w>": 4236,
      "कल्प</w>": 4237,
      "क़ौम</w>": 4238,
      "ंजी</w>": 4239,
      "रहने</w>": 4240,
      "Inter": 4241,
      "दिर</w>": 4242,
      "जिससे</w>": 4243,
      "tog": 4244,
      "तू": 4245,
      "again</w>": 4246,
      "nation</w>": 4247,
      "://</w>": 4248,
      "रस्": 4249,
      "मार</w>": 4250,
      "गं": 4251,
      "thou</w>": 4252,
      "नल</w>": 4253,
      "brought</w>": 4254,
      "ंगा</w>": 4255,
      "पार्": 4256,
      "elec": 4257,
      "Rs</w>": 4258,
      "tes</w>": 4259,
      "seen</w>": 4260,
      "pose</w>": 4261,
      "und": 4262,
      "remo": 4263,
      "tries</w>": 4264,
      "Isla": 4265,
      "Ver": 4266,
      "pe</w>": 4267,
      "punishment</w>": 4268,
      "ars</w>": 4269,
      "ेगी</w>": 4270,
      "स्ट</w>": 4271,
      "¤¾</w>": 4272,
      "ances</w>": 4273,
      "fiel": 4274,
      "द्य": 4275,
      "धित</w>": 4276,
      "dest": 4277,
      "धियों</w>": 4278,
      "ick</w>": 4279,
      "kher": 4280,
      "बच्च": 4281,
      "family</w>": 4282,
      "full</w>": 4283,
      "आवश्यकता</w>": 4284,
      "social</w>": 4285,
      "शों</w>": 4286,
      "नया</w>": 4287,
      "तुमने</w>": 4288,
      "divid": 4289,
      "ening</w>": 4290,
      "नन</w>": 4291,
      "एम": 4292,
      "पुर</w>": 4293,
      "तिम</w>": 4294,
      "nat": 4295,
      "15": 4296,
      "निष्": 4297,
      "him": 4298,
      "together</w>": 4299,
      "पक</w>": 4300,
      "outh</w>": 4301,
      "अनुसं": 4302,
      "allow": 4303,
      "रहते</w>": 4304,
      "गें</w>": 4305,
      "न्</w>": 4306,
      "kherjee</w>": 4307,
      "यं": 4308,
      "वक्त</w>": 4309,
      "Ban": 4310,
      "गे": 4311,
      "Who</w>": 4312,
      "डा</w>": 4313,
      "something</w>": 4314,
      "ey": 4315,
      "standing</w>": 4316,
      "employ": 4317,
      "prin": 4318,
      "अतिरिक्त</w>": 4319,
      "early</w>": 4320,
      "clause</w>": 4321,
      "proper": 4322,
      "think</w>": 4323,
      "ढा": 4324,
      "compu": 4325,
      "ized</w>": 4326,
      "आए</w>": 4327,
      "फर": 4328,
      "उम्": 4329,
      "लेने</w>": 4330,
      "जवा": 4331,
      "मूसा</w>": 4332,
      "14</w>": 4333,
      "धारण</w>": 4334,
      "call</w>": 4335,
      "associ": 4336,
      "ऋण</w>": 4337,
      "उत्पादन</w>": 4338,
      "सही</w>": 4339,
      "conn": 4340,
      "अंतर्गत</w>": 4341,
      "open</w>": 4342,
      "book</w>": 4343,
      "कहने</w>": 4344,
      "ills</w>": 4345,
      "isions</w>": 4346,
      "Vi": 4347,
      "cause</w>": 4348,
      "चुके</w>": 4349,
      "विभाग</w>": 4350,
      "उपा": 4351,
      "war</w>": 4352,
      "छु": 4353,
      "pow": 4354,
      "service</w>": 4355,
      "ज़ी</w>": 4356,
      "words</w>": 4357,
      "कृतिक</w>": 4358,
      "छोड़</w>": 4359,
      "turned</w>": 4360,
      "maj": 4361,
      "til</w>": 4362,
      "वर्ग</w>": 4363,
      "लाई</w>": 4364,
      "Ta": 4365,
      "¥</w>": 4366,
      "true</w>": 4367,
      "Am": 4368,
      "गति": 4369,
      "ख़ा": 4370,
      "वाई</w>": 4371,
      "रखने</w>": 4372,
      "fully</w>": 4373,
      "क्तियों</w>": 4374,
      "ंगा": 4375,
      "बह": 4376,
      "four</w>": 4377,
      "Rash": 4378,
      "fic</w>": 4379,
      "urity</w>": 4380,
      "ential</w>": 4381,
      "भाव</w>": 4382,
      "Bhavan</w>": 4383,
      "पश्चि": 4384,
      "यातना</w>": 4385,
      "nov": 4386,
      "mind</w>": 4387,
      "wea": 4388,
      "विशि": 4389,
      "Sel": 4390,
      "वास्तव</w>": 4391,
      "free</w>": 4392,
      "ls</w>": 4393,
      "nic</w>": 4394,
      "tors</w>": 4395,
      "stra": 4396,
      "respect</w>": 4397,
      "मनु": 4398,
      "he": 4399,
      "roo": 4400,
      "लकर</w>": 4401,
      "यामत</w>": 4402,
      "द्धा": 4403,
      "sol": 4404,
      "नाग": 4405,
      "tee</w>": 4406,
      "jects</w>": 4407,
      "हुक्": 4408,
      "राह</w>": 4409,
      "छि": 4410,
      "yer</w>": 4411,
      "ened</w>": 4412,
      "16</w>": 4413,
      "उद्दे": 4414,
      "वित्": 4415,
      "pati</w>": 4416,
      "TH": 4417,
      "villa": 4418,
      "na": 4419,
      "यात्रा</w>": 4420,
      "फल</w>": 4421,
      "every": 4422,
      "na</w>": 4423,
      "द्य</w>": 4424,
      "भावना</w>": 4425,
      "हाला": 4426,
      "मर": 4427,
      "off</w>": 4428,
      "दम</w>": 4429,
      "support</w>": 4430,
      "वर्तमान</w>": 4431,
      "यल</w>": 4432,
      "Amer": 4433,
      "नही</w>": 4434,
      "बद्ध</w>": 4435,
      "han</w>": 4436,
      "माना</w>": 4437,
      "publ": 4438,
      "टक</w>": 4439,
      "अनुसंधान</w>": 4440,
      "फू": 4441,
      "सिर्फ</w>": 4442,
      "Americ": 4443,
      "point</w>": 4444,
      "mad</w>": 4445,
      "ti</w>": 4446,
      "matter</w>": 4447,
      "वर्षों</w>": 4448,
      "जिन्हें</w>": 4449,
      "कूल</w>": 4450,
      "ource</w>": 4451,
      "gen": 4452,
      "सुन": 4453,
      "manag": 4454,
      "dly</w>": 4455,
      "Gener": 4456,
      "पड़े</w>": 4457,
      "नत</w>": 4458,
      "पक्ष": 4459,
      "वृत्": 4460,
      "आकार</w>": 4461,
      "कला</w>": 4462,
      "ateg": 4463,
      "चुका</w>": 4464,
      "provided</w>": 4465,
      "head</w>": 4466,
      "data</w>": 4467,
      "प्रधान": 4468,
      "चन</w>": 4469,
      "area</w>": 4470,
      "सफल</w>": 4471,
      "site</w>": 4472,
      "छोड़": 4473,
      "ala</w>": 4474,
      "स्तु</w>": 4475,
      "nature</w>": 4476,
      "ड्": 4477,
      "economic</w>": 4478,
      "उपधारा</w>": 4479,
      "already</w>": 4480,
      "gave</w>": 4481,
      "bir": 4482,
      "कौन</w>": 4483,
      "tives</w>": 4484,
      "संपर्क</w>": 4485,
      "gm</w>": 4486,
      "जान</w>": 4487,
      "dou": 4488,
      "प्ति</w>": 4489,
      "charac": 4490,
      "might</w>": 4491,
      "लोक</w>": 4492,
      "Your</w>": 4493,
      "जमा</w>": 4494,
      "प्रदेश</w>": 4495,
      "्रो": 4496,
      "Rashtra": 4497,
      "depend": 4498,
      "So": 4499,
      "कम्": 4500,
      "parti": 4501,
      "Sub": 4502,
      "structure</w>": 4503,
      "आख़ि": 4504,
      "अधिकारी</w>": 4505,
      "इतिहा": 4506,
      "हमारा</w>": 4507,
      "based</w>": 4508,
      "ji</w>": 4509,
      "sion": 4510,
      "परियोजना</w>": 4511,
      "दक्षि": 4512,
      "far</w>": 4513,
      "दाय</w>": 4514,
      "स्वास्थ": 4515,
      "ext": 4516,
      "दूसरी</w>": 4517,
      "जह": 4518,
      "death</w>": 4519,
      "acy</w>": 4520,
      "दुर्": 4521,
      "हे</w>": 4522,
      "टल</w>": 4523,
      "Gand": 4524,
      "Op": 4525,
      "rep": 4526,
      "डिया</w>": 4527,
      "मुद्र": 4528,
      "ization</w>": 4529,
      "यक़ी": 4530,
      "ster</w>": 4531,
      "promis": 4532,
      "partic": 4533,
      "चै": 4534,
      "whole</w>": 4535,
      "group</w>": 4536,
      "क्षम</w>": 4537,
      "पहचा": 4538,
      "half</w>": 4539,
      "signs</w>": 4540,
      "Delhi</w>": 4541,
      "chi": 4542,
      "ling</w>": 4543,
      "vious</w>": 4544,
      "कल्प": 4545,
      "युद्ध</w>": 4546,
      "Bri": 4547,
      "तुमको</w>": 4548,
      "liter": 4549,
      "Those</w>": 4550,
      "ht": 4551,
      "ours</w>": 4552,
      "सहयोग</w>": 4553,
      "तरा": 4554,
      "ublic</w>": 4555,
      "ury</w>": 4556,
      "Co": 4557,
      "To": 4558,
      "भूमि": 4559,
      "लाम</w>": 4560,
      "नाएं</w>": 4561,
      "विक": 4562,
      "prac": 4563,
      "भाई</w>": 4564,
      "type</w>": 4565,
      "व्यापार</w>": 4566,
      "liam": 4567,
      "वहाँ</w>": 4568,
      "वस्तु</w>": 4569,
      "उद्देश्य</w>": 4570,
      "non</w>": 4571,
      "hab": 4572,
      "Rashtrapati</w>": 4573,
      "dom": 4574,
      "took</w>": 4575,
      "ग्राम</w>": 4576,
      "irs</w>": 4577,
      "services</w>": 4578,
      "क्रम": 4579,
      "क्रिया": 4580,
      "interest</w>": 4581,
      "प्रशि": 4582,
      "निर": 4583,
      "र्च</w>": 4584,
      "gri": 4585,
      "entation</w>": 4586,
      "निर्णय</w>": 4587,
      "DI": 4588,
      "countries</w>": 4589,
      "स्तान</w>": 4590,
      "अस": 4591,
      "conc": 4592,
      "निवा": 4593,
      "following</w>": 4594,
      "थीं</w>": 4595,
      "निर्धारित</w>": 4596,
      "return</w>": 4597,
      "tory</w>": 4598,
      "हुक्म</w>": 4599,
      "night</w>": 4600,
      "रिश्": 4601,
      "झुठ": 4602,
      "aw": 4603,
      "above</w>": 4604,
      "bal</w>": 4605,
      "hold</w>": 4606,
      "level</w>": 4607,
      "making</w>": 4608,
      "समझ</w>": 4609,
      "दगी</w>": 4610,
      "गम</w>": 4611,
      "Sing": 4612,
      "सदस्य</w>": 4613,
      "including</w>": 4614,
      "UR": 4615,
      "न्यायालय</w>": 4616,
      "रोध</w>": 4617,
      "हमे": 4618,
      "giving</w>": 4619,
      "inal</w>": 4620,
      "ER": 4621,
      "दिल्ली</w>": 4622,
      "कट": 4623,
      "अंग्रे": 4624,
      "नव": 4625,
      "परन्तु</w>": 4626,
      "ोर</w>": 4627,
      "हरण</w>": 4628,
      "ference</w>": 4629,
      "मानव</w>": 4630,
      "ENT</w>": 4631,
      "himself</w>": 4632,
      "little</w>": 4633,
      "दृष्टि</w>": 4634,
      "कर्म": 4635,
      "जित</w>": 4636,
      "रु</w>": 4637,
      "food</w>": 4638,
      "using</w>": 4639,
      "areas</w>": 4640,
      "¤</w>": 4641,
      "पाद": 4642,
      "जें</w>": 4643,
      "provide</w>": 4644,
      "सम्बन्": 4645,
      "few</w>": 4646,
      "streng": 4647,
      "प्रधानमंत्री</w>": 4648,
      "अला": 4649,
      "अपे": 4650,
      "मुसल": 4651,
      "रुप": 4652,
      "पालन</w>": 4653,
      "स्वास्थ्य</w>": 4654,
      "ith": 4655,
      "एक्": 4656,
      "ched</w>": 4657,
      "नै": 4658,
      "सीमा</w>": 4659,
      "rate</w>": 4660,
      "post": 4661,
      "शरीर</w>": 4662,
      "लाइन</w>": 4663,
      "किस</w>": 4664,
      "थम</w>": 4665,
      "lies</w>": 4666,
      "¤°</w>": 4667,
      "जिनके</w>": 4668,
      "भर": 4669,
      "ancial</w>": 4670,
      "kgm</w>": 4671,
      "देखते</w>": 4672,
      "हमेशा</w>": 4673,
      "Jo": 4674,
      "प्रश्": 4675,
      "having</w>": 4676,
      "what": 4677,
      "छोटे</w>": 4678,
      "coll": 4679,
      "benef": 4680,
      "Sec": 4681,
      "बेहतर</w>": 4682,
      "पोर्ट</w>": 4683,
      "सुधार</w>": 4684,
      "इतिहास</w>": 4685,
      "goo": 4686,
      "सार्": 4687,
      "ग्री</w>": 4688,
      "fre": 4689,
      "झा": 4690,
      "देगा</w>": 4691,
      "प्रस्तुत</w>": 4692,
      "लक</w>": 4693,
      "बाद": 4694,
      "बच्चों</w>": 4695,
      "मंत्रा": 4696,
      "tation</w>": 4697,
      "विश्वविद्यालय</w>": 4698,
      "पक": 4699,
      "संसा": 4700,
      "possible</w>": 4701,
      "केंद्र</w>": 4702,
      "ker</w>": 4703,
      "वास्ते</w>": 4704,
      "संर": 4705,
      "ब्रि": 4706,
      "बनाए</w>": 4707,
      "Rec": 4708,
      "दिल</w>": 4709,
      "त्रता</w>": 4710,
      "lion</w>": 4711,
      "love</w>": 4712,
      "initi": 4713,
      "हक़</w>": 4714,
      "until</w>": 4715,
      "डर": 4716,
      "अमेरिका</w>": 4717,
      "घु": 4718,
      "निर्धारण</w>": 4719,
      "hearts</w>": 4720,
      "members</w>": 4721,
      "necess": 4722,
      "still</w>": 4723,
      "policy</w>": 4724,
      "योजित</w>": 4725,
      "guid": 4726,
      "विकसित</w>": 4727,
      "around</w>": 4728,
      "look</w>": 4729,
      "क़्": 4730,
      "ately</w>": 4731,
      "णन</w>": 4732,
      "individ": 4733,
      "वस्तु": 4734,
      "invest": 4735,
      "ples</w>": 4736,
      "ah</w>": 4737,
      "operation</w>": 4738,
      "fel": 4739,
      "rul": 4740,
      "परिणाम</w>": 4741,
      "tom": 4742,
      "deeds</w>": 4743,
      "कैसे</w>": 4744,
      "वृद्धि</w>": 4745,
      "don</w>": 4746,
      "क्ता</w>": 4747,
      "ON</w>": 4748,
      "विदेशी</w>": 4749,
      "ger</w>": 4750,
      "continu": 4751,
      "ीकरण</w>": 4752,
      "कित्": 4753,
      "आग</w>": 4754,
      "चू": 4755,
      "capital</w>": 4756,
      "industri": 4757,
      "viron": 4758,
      "र्ष</w>": 4759,
      "प्रमाण": 4760,
      "जिन्होंने</w>": 4761,
      "five</w>": 4762,
      "Sha": 4763,
      "संबंधी</w>": 4764,
      "desh</w>": 4765,
      "whether</w>": 4766,
      "तहत</w>": 4767,
      "सिंह</w>": 4768,
      "PRE": 4769,
      "pati": 4770,
      "house</w>": 4771,
      "ख़ु": 4772,
      "increas": 4773,
      "minist": 4774,
      "faith</w>": 4775,
      "ilities</w>": 4776,
      "अग्र": 4777,
      "प्रस्ता": 4778,
      "Me": 4779,
      "follow</w>": 4780,
      "ची</w>": 4781,
      "ough</w>": 4782,
      "certain</w>": 4783,
      "tish</w>": 4784,
      "संस्थान</w>": 4785,
      "अफ": 4786,
      "सार": 4787,
      "fact</w>": 4788,
      "society</w>": 4789,
      "orig": 4790,
      "worship</w>": 4791,
      "टि</w>": 4792,
      "वत</w>": 4793,
      "ंति</w>": 4794,
      "Cour": 4795,
      "tual</w>": 4796,
      "स्‍": 4797,
      "ously</w>": 4798,
      "bar": 4799,
      "Col": 4800,
      "fer</w>": 4801,
      "oura": 4802,
      "contain": 4803,
      "reg": 4804,
      "स्थानीय</w>": 4805,
      "वीं</w>": 4806,
      "always</w>": 4807,
      "occas": 4808,
      "ak</w>": 4809,
      "posed</w>": 4810,
      "ret": 4811,
      "प्रथम</w>": 4812,
      "तरण</w>": 4813,
      "राष्ट्र</w>": 4814,
      "टर": 4815,
      "Pe": 4816,
      "13</w>": 4817,
      "ve": 4818,
      "achi": 4819,
      "whose</w>": 4820,
      "dr": 4821,
      "sector</w>": 4822,
      "expres": 4823,
      "Rem": 4824,
      "meas": 4825,
      "टै": 4826,
      "अक्": 4827,
      "मौजूद</w>": 4828,
      "सक्रि": 4829,
      "चारों</w>": 4830,
      "tainly</w>": 4831,
      "States</w>": 4832,
      "believed</w>": 4833,
      "पत्ति</w>": 4834,
      "formed</w>": 4835,
      "fav": 4836,
      "आधारित</w>": 4837,
      "tem": 4838,
      "स्क</w>": 4839,
      "project</w>": 4840,
      "hon": 4841,
      "tics</w>": 4842,
      "ai</w>": 4843,
      "bility</w>": 4844,
      "ath": 4845,
      "ab</w>": 4846,
      "Coun": 4847,
      "dh": 4848,
      "अधिक": 4849,
      "fra": 4850,
      "भेजा</w>": 4851,
      "pur</w>": 4852,
      "10": 4853,
      "बदला</w>": 4854,
      "स्वरूप</w>": 4855,
      "ारो": 4856,
      "दस्ता": 4857,
      "effor": 4858,
      "ME</w>": 4859,
      "झू": 4860,
      "CO": 4861,
      "परंतु</w>": 4862,
      "ried</w>": 4863,
      "mov": 4864,
      "निवेश</w>": 4865,
      "शर्": 4866,
      "main": 4867,
      "डे</w>": 4868,
      "nothing</w>": 4869,
      "अंतिम</w>": 4870,
      "held</w>": 4871,
      "द्वि": 4872,
      "hammad</w>": 4873,
      "political</w>": 4874,
      "किये</w>": 4875,
      "गुण": 4876,
      "ffici": 4877,
      "therefore</w>": 4878,
      "contribu": 4879,
      "विवरण</w>": 4880,
      "निधि</w>": 4881,
      "key</w>": 4882,
      "SID": 4883,
      "स्थापना</w>": 4884,
      "common</w>": 4885,
      "partment</w>": 4886,
      "साइट</w>": 4887,
      "न्यास</w>": 4888,
      "istry</w>": 4889,
      "सद</w>": 4890,
      "पाया</w>": 4891,
      "obe": 4892,
      "yet</w>": 4893,
      "तृ": 4894,
      "निस्संदेह</w>": 4895,
      "प्राधि": 4896,
      "अनुम": 4897,
      "Please</w>": 4898,
      "लगता</w>": 4899,
      "साझ": 4900,
      "isation</w>": 4901,
      "पाल</w>": 4902,
      "sing": 4903,
      "लिम</w>": 4904,
      "दारों</w>": 4905,
      "folder</w>": 4906,
      "cy</w>": 4907,
      "uro": 4908,
      "जल्": 4909,
      "Beng": 4910,
      "जिसकी</w>": 4911,
      "thee</w>": 4912,
      "pleas": 4913,
      "top</w>": 4914,
      "समाप्त</w>": 4915,
      "sever": 4916,
      "चीन</w>": 4917,
      "keep</w>": 4918,
      "ेद</w>": 4919,
      "either</w>": 4920,
      "bea": 4921,
      "ics</w>": 4922,
      "मेल</w>": 4923,
      "मंदिर</w>": 4924,
      "wise</w>": 4925,
      "पुरु": 4926,
      "create</w>": 4927,
      "100</w>": 4928,
      "ering</w>": 4929,
      "णि": 4930,
      "ground</w>": 4931,
      "squ": 4932,
      "आवे": 4933,
      "rest</w>": 4934,
      "cum": 4935,
      "La": 4936,
      "2014</w>": 4937,
      "show</w>": 4938,
      "Govern": 4939,
      "दस्तावे": 4940,
      "चिकित्": 4941,
      "forms</w>": 4942,
      "religion</w>": 4943,
      "विशिष्ट</w>": 4944,
      "गुना": 4945,
      "और": 4946,
      "ern</w>": 4947,
      "Prov": 4948,
      "ternal</w>": 4949,
      "youn": 4950,
      "तत्": 4951,
      "stitution</w>": 4952,
      "tivi": 4953,
      "संघ</w>": 4954,
      "ew": 4955,
      "ped</w>": 4956,
      "ज़िल</w>": 4957,
      "uti": 4958,
      "ऊर्": 4959,
      "नौ": 4960,
      "तियां</w>": 4961,
      "छवि</w>": 4962,
      "18</w>": 4963,
      "growth</w>": 4964,
      "बंद</w>": 4965,
      "wat": 4966,
      "रहता</w>": 4967,
      "वित्तीय</w>": 4968,
      "सका</w>": 4969,
      "मानों</w>": 4970,
      "trac": 4971,
      "मध्य</w>": 4972,
      "मत": 4973,
      "संयुक्त</w>": 4974,
      "va</w>": 4975,
      "कर्म</w>": 4976,
      "विभा": 4977,
      "along</w>": 4978,
      "course</w>": 4979,
      "वरी</w>": 4980,
      "खोज</w>": 4981,
      "बत</w>": 4982,
      "जाओ</w>": 4983,
      "मूर्": 4984,
      "24</w>": 4985,
      "received</w>": 4986,
      "ners</w>": 4987,
      "fail": 4988,
      "tivity</w>": 4989,
      "नियंत्रण</w>": 4990,
      "bar</w>": 4991,
      "local</w>": 4992,
      "तकनी": 4993,
      "control</w>": 4994,
      "portun": 4995,
      "Ha": 4996,
      "प्रवेश</w>": 4997,
      "सिद्ध</w>": 4998,
      "flu": 4999,
      "equal</w>": 5000,
      "ge": 5001,
      "म्बर</w>": 5002,
      "where": 5003,
      "term</w>": 5004,
      "cir": 5005,
      "Muhammad</w>": 5006,
      "योग्य</w>": 5007,
      "address</w>": 5008,
      "How</w>": 5009,
      "taking</w>": 5010,
      "Qu": 5011,
      "mental</w>": 5012,
      "¥</w>": 5013,
      "पुनर्": 5014,
      "Hindi</w>": 5015,
      "thir": 5016,
      "agre": 5017,
      "बार": 5018,
      "चर्": 5019,
      "मॉ": 5020,
      "लर</w>": 5021,
      "जहाँ</w>": 5022,
      "further</w>": 5023,
      "British</w>": 5024,
      "जहन्": 5025,
      "Show</w>": 5026,
      "ूब</w>": 5027,
      "्री": 5028,
      "मंत्रालय</w>": 5029,
      "भुग": 5030,
      "became</w>": 5031,
      "technology</w>": 5032,
      "इस्त": 5033,
      "दियों</w>": 5034,
      "कवि": 5035,
      "लयों</w>": 5036,
      "सरकारी</w>": 5037,
      "accep": 5038,
      "path</w>": 5039,
      "Engl": 5040,
      "ka</w>": 5041,
      "cop": 5042,
      "हिस्सा</w>": 5043,
      "gy</w>": 5044,
      "कृप": 5045,
      "बर्": 5046,
      "19</w>": 5047,
      "hor": 5048,
      "ources</w>": 5049,
      "pan": 5050,
      "total</w>": 5051,
      "Can": 5052,
      "बाहरी</w>": 5053,
      "Offic": 5054,
      "भूमिका</w>": 5055,
      "सिल</w>": 5056,
      "sho": 5057,
      "सहायक</w>": 5058,
      "Sy": 5059,
      "नाज़िल</w>": 5060,
      "tivities</w>": 5061,
      "ols</w>": 5062,
      "health</w>": 5063,
      "cribed</w>": 5064,
      "IS": 5065,
      "लाख</w>": 5066,
      "ached</w>": 5067,
      "At</w>": 5068,
      "एगा</w>": 5069,
      "समिति</w>": 5070,
      "16": 5071,
      "सत्य</w>": 5072,
      "ditions</w>": 5073,
      "प्रेर": 5074,
      "duce</w>": 5075,
      "strict</w>": 5076,
      "ड़ों</w>": 5077,
      "opportun": 5078,
      "ermin": 5079,
      "परिवार</w>": 5080,
      "अम": 5081,
      "conf": 5082,
      "दृश्य</w>": 5083,
      "म्ब": 5084,
      "Messenger</w>": 5085,
      "पौ": 5086,
      "teach": 5087,
      "leave</w>": 5088,
      "next</w>": 5089,
      "dia</w>": 5090,
      "वेब": 5091,
      "ण्ड</w>": 5092,
      "जाएँ</w>": 5093,
      "hat": 5094,
      "संविधान</w>": 5095,
      "आरंभ</w>": 5096,
      "Des": 5097,
      "लक्ष्य</w>": 5098,
      "Isra": 5099,
      "टू": 5100,
      "ports</w>": 5101,
      "सक्रिय</w>": 5102,
      "experi": 5103,
      "पहली</w>": 5104,
      "med</w>": 5105,
      "spe": 5106,
      "real": 5107,
      "क्षक</w>": 5108,
      "आर</w>": 5109,
      "incl": 5110,
      "मिला</w>": 5111,
      "idence</w>": 5112,
      "bra": 5113,
      "repres": 5114,
      "translation</w>": 5115,
      "She</w>": 5116,
      "probably</w>": 5117,
      "ize</w>": 5118,
      "उदाहरण</w>": 5119,
      "met": 5120,
      "Commit": 5121,
      "etwork</w>": 5122,
      "optional</w>": 5123,
      "पैग़": 5124,
      "Cont": 5125,
      "मनुष्य</w>": 5126,
      "works</w>": 5127,
      "ricul": 5128,
      "प्रबंधन</w>": 5129,
      "hu": 5130,
      "\"%</w>": 5131,
      "required</w>": 5132,
      "कठि": 5133,
      "कहा": 5134,
      "tiz": 5135,
      "vers</w>": 5136,
      "ditional</w>": 5137,
      "mater": 5138,
      "later</w>": 5139,
      "wrong</w>": 5140,
      "After</w>": 5141,
      "Cre": 5142,
      "hop": 5143,
      "knows</w>": 5144,
      "Mon": 5145,
      "SIDENT</w>": 5146,
      "lat": 5147,
      "Prime</w>": 5148,
      "पिछले</w>": 5149,
      "टिंग</w>": 5150,
      "प्रदर्": 5151,
      "pointed</w>": 5152,
      "ज़र</w>": 5153,
      "THE</w>": 5154,
      "gn": 5155,
      "Most</w>": 5156,
      "ali</w>": 5157,
      "लेते</w>": 5158,
      "पद</w>": 5159,
      "selected</w>": 5160,
      "जल": 5161,
      "recog": 5162,
      "PRESIDENT</w>": 5163,
      "ब्रा": 5164,
      "father</w>": 5165,
      "spea": 5166,
      "child</w>": 5167,
      "कृपया</w>": 5168,
      "नक</w>": 5169,
      "ज़े</w>": 5170,
      "Tru": 5171,
      "error</w>": 5172,
      "वैज्ञा": 5173,
      "home</w>": 5174,
      "17</w>": 5175,
      "21</w>": 5176,
      "अनुमति</w>": 5177,
      "commit": 5178,
      "अलावा</w>": 5179,
      "खाता</w>": 5180,
      "ner": 5181,
      "essing</w>": 5182,
      "सहित</w>": 5183,
      "दिनों</w>": 5184,
      "पूर्वक</w>": 5185,
      "sted</w>": 5186,
      "स्रो": 5187,
      "श्वर</w>": 5188,
      "Develop": 5189,
      "पसं": 5190,
      "नेवाला</w>": 5191,
      "dies</w>": 5192,
      "उत्तर": 5193,
      "पों</w>": 5194,
      "दिशा</w>": 5195,
      "क्र</w>": 5196,
      "application</w>": 5197,
      "एल</w>": 5198,
      "industry</w>": 5199,
      "समर्थन</w>": 5200,
      "न्यू": 5201,
      "Mer": 5202,
      "arly</w>": 5203,
      "hands</w>": 5204,
      "ज़रू": 5205,
      "नेवाले</w>": 5206,
      "dri": 5207,
      "Be": 5208,
      "रखता</w>": 5209,
      "क्रा": 5210,
      "भाग": 5211,
      "field</w>": 5212,
      "भुगतान</w>": 5213,
      "Tr": 5214,
      "web": 5215,
      "सामग्री</w>": 5216,
      "एम</w>": 5217,
      "शाली</w>": 5218,
      "दया": 5219,
      "eafter</w>": 5220,
      "production</w>": 5221,
      "ring</w>": 5222,
      "ल्क</w>": 5223,
      "संशो": 5224,
      "promo": 5225,
      "सहे": 5226,
      "Bi": 5227,
      "aries</w>": 5228,
      "ज्ञात</w>": 5229,
      "उत्पन्न</w>": 5230,
      "परे": 5231,
      "ष्</w>": 5232,
      "अपना": 5233,
      "लोड</w>": 5234,
      "moder": 5235,
      "compan": 5236,
      "second</w>": 5237,
      "भीतर</w>": 5238,
      "हरे</w>": 5239,
      "lied</w>": 5240,
      "Parliam": 5241,
      "संभव</w>": 5242,
      "cover": 5243,
      "Ministry</w>": 5244,
      "money</w>": 5245,
      "त्रुटि</w>": 5246,
      "NA": 5247,
      "Si": 5248,
      "several</w>": 5249,
      "went</w>": 5250,
      "ches</w>": 5251,
      "air</w>": 5252,
      "working</w>": 5253,
      "activities</w>": 5254,
      "इस्ते": 5255,
      "English</w>": 5256,
      "anted</w>": 5257,
      "certainly</w>": 5258,
      "गल</w>": 5259,
      "Ne": 5260,
      "अनुभव</w>": 5261,
      "Cl": 5262,
      "peti": 5263,
      "अध्ययन</w>": 5264,
      "आदमी</w>": 5265,
      "Singh</w>": 5266,
      "iting</w>": 5267,
      "research</w>": 5268,
      "22</w>": 5269,
      "pris": 5270,
      "fig": 5271,
      "आवा": 5272,
      "IC": 5273,
      "स्त्र</w>": 5274,
      "Direc": 5275,
      "विद्या": 5276,
      "hand": 5277,
      "University</w>": 5278,
      "2015</w>": 5279,
      "फ़ा": 5280,
      "सेट</w>": 5281,
      "आधु": 5282,
      "क़यामत</w>": 5283,
      "मृत्य": 5284,
      "मही": 5285,
      "ails</w>": 5286,
      "authority</w>": 5287,
      "da": 5288,
      "Af": 5289,
      "General</w>": 5290,
      "anything</w>": 5291,
      "अप्र": 5292,
      "वो</w>": 5293,
      "example</w>": 5294,
      "cam": 5295,
      "दिव": 5296,
      "hind</w>": 5297,
      "सर्वर</w>": 5298,
      "ध्व": 5299,
      "Ro": 5300,
      "glo": 5301,
      "forth</w>": 5302,
      "bal": 5303,
      "special</w>": 5304,
      "चले</w>": 5305,
      "ound": 5306,
      "सुनिश्चित</w>": 5307,
      "Moses</w>": 5308,
      "सम</w>": 5309,
      "मजबू": 5310,
      "sw": 5311,
      "खाते</w>": 5312,
      "ष्टि": 5313,
      "खेल</w>": 5314,
      "mme</w>": 5315,
      "impl": 5316,
      "आसमान</w>": 5317,
      "comes</w>": 5318,
      "Nor": 5319,
      "current</w>": 5320,
      "छ्": 5321,
      "फी": 5322,
      "साहित्य</w>": 5323,
      "valu": 5324,
      "struction</w>": 5325,
      "मृत्यु</w>": 5326,
      "let": 5327,
      "uses</w>": 5328,
      "डाक</w>": 5329,
      "doub": 5330,
      "quality</w>": 5331,
      "भूत</w>": 5332,
      "बच्चे</w>": 5333,
      "मिटा": 5334,
      "अंत</w>": 5335,
      "आम</w>": 5336,
      "भौ": 5337,
      "दक्षिण</w>": 5338,
      "प्रारंभ</w>": 5339,
      "sem": 5340,
      "रुप</w>": 5341,
      "स्टे": 5342,
      "thought</w>": 5343,
      "itself</w>": 5344,
      "ported</w>": 5345,
      "anim": 5346,
      "पड़ा</w>": 5347,
      "टु": 5348,
      "बाजार</w>": 5349,
      "व्यक्ति": 5350,
      "City</w>": 5351,
      "verse</w>": 5352,
      "foreign</w>": 5353,
      "बाप</w>": 5354,
      "उनपर</w>": 5355,
      "paid</w>": 5356,
      "प्रशिक्षण</w>": 5357,
      "सियों</w>": 5358,
      "वापस</w>": 5359,
      "देव": 5360,
      "ied</w>": 5361,
      "क्षेत्र": 5362,
      "जैसी</w>": 5363,
      "सिद्धा": 5364,
      "situ": 5365,
      "got</w>": 5366,
      "Im": 5367,
      "SA": 5368,
      "पक्ष</w>": 5369,
      "sia</w>": 5370,
      "कारियों</w>": 5371,
      "heart</w>": 5372,
      "सार्वज": 5373,
      "press</w>": 5374,
      "iness</w>": 5375,
      "ash</w>": 5376,
      "राज्यों</w>": 5377,
      "रिया</w>": 5378,
      "लूम</w>": 5379,
      "गैर</w>": 5380,
      "ealed</w>": 5381,
      "ऊर्जा</w>": 5382,
      "01</w>": 5383,
      "हा</w>": 5384,
      "Fin": 5385,
      "ustice</w>": 5386,
      "विस्ता": 5387,
      "eness</w>": 5388,
      "इतना</w>": 5389,
      "necessary</w>": 5390,
      "farm": 5391,
      "पाठ": 5392,
      "सुर": 5393,
      "ests</w>": 5394,
      "मात्रा</w>": 5395,
      "सार्वजनिक</w>": 5396,
      "mit</w>": 5397,
      "ग्रह": 5398,
      "भवि": 5399,
      "omes</w>": 5400,
      "live</w>": 5401,
      "ama</w>": 5402,
      "जाएँगे</w>": 5403,
      "हैः</w>": 5404,
      "हस्ता": 5405,
      "स्थायी</w>": 5406,
      "occasion</w>": 5407,
      "kar</w>": 5408,
      "मय</w>": 5409,
      "ंः</w>": 5410,
      "ऊण्": 5411,
      "श्छ्": 5412,
      "ऊण्श्छ्": 5413,
      "ऊण्श्छ्ष्</w>": 5414,
      "60</w>": 5415,
      "पर्य": 5416,
      "इस्तेमाल</w>": 5417,
      "चय": 5418,
      "आन": 5419,
      "history</w>": 5420,
      "sequ": 5421,
      "fault</w>": 5422,
      "tran": 5423,
      "previous</w>": 5424,
      "diffic": 5425,
      "agricul": 5426,
      "यद</w>": 5427,
      "spo": 5428,
      "ested</w>": 5429,
      "provisions</w>": 5430,
      "प्रकृति</w>": 5431,
      "ray</w>": 5432,
      "lot</w>": 5433,
      "ongs</w>": 5434,
      "सला</w>": 5435,
      "property</w>": 5436,
      "शिया</w>": 5437,
      "2018</w>": 5438,
      "city</w>": 5439,
      "related</w>": 5440,
      "established</w>": 5441,
      "enjo": 5442,
      "त्सा": 5443,
      "tou": 5444,
      "लक": 5445,
      "save</w>": 5446,
      "financial</w>": 5447,
      "har</w>": 5448,
      "योगिक</w>": 5449,
      "विकल्प</w>": 5450,
      "started</w>": 5451,
      "fru": 5452,
      "ate": 5453,
      "ंग्": 5454,
      "poses</w>": 5455,
      "files</w>": 5456,
      "श्री": 5457,
      "बातें</w>": 5458,
      "Serv": 5459,
      "mail</w>": 5460,
      "disc": 5461,
      "प्रेम</w>": 5462,
      "रोग</w>": 5463,
      "graph": 5464,
      "17": 5465,
      "def": 5466,
      "पूरे</w>": 5467,
      "बढ़</w>": 5468,
      "सत्ता</w>": 5469,
      "साफ</w>": 5470,
      "how": 5471,
      "Rep": 5472,
      "Some</w>": 5473,
      "ats</w>": 5474,
      "ine": 5475,
      "निया": 5476,
      "Pradesh</w>": 5477,
      "बोर्ड</w>": 5478,
      "विस्तार</w>": 5479,
      "पुस्त": 5480,
      "security</w>": 5481,
      "therein</w>": 5482,
      "cil</w>": 5483,
      "मामलों</w>": 5484,
      "complete</w>": 5485,
      "ecu": 5486,
      "पुरस्": 5487,
      "लिखा</w>": 5488,
      "भ्र": 5489,
      "ending</w>": 5490,
      "Court</w>": 5491,
      "कमा": 5492,
      "wid": 5493,
      "doing</w>": 5494,
      "विंडो</w>": 5495,
      "रहो</w>": 5496,
      "tra</w>": 5497,
      "force</w>": 5498,
      "itation</w>": 5499,
      "image</w>": 5500,
      "assess": 5501,
      "tioned</w>": 5502,
      "बान</w>": 5503,
      "peace</w>": 5504,
      "scheme</w>": 5505,
      "ील</w>": 5506,
      "reward</w>": 5507,
      "changes</w>": 5508,
      "eted</w>": 5509,
      "बदल</w>": 5510,
      "ication</w>": 5511,
      "meeting</w>": 5512,
      "193": 5513,
      "नीतिक</w>": 5514,
      "young</w>": 5515,
      "cost</w>": 5516,
      "ऊँ": 5517,
      "ense</w>": 5518,
      "मालूम</w>": 5519,
      "जांच</w>": 5520,
      "मुँ": 5521,
      "डाल</w>": 5522,
      "जिनमें</w>": 5523,
      "soul</w>": 5524,
      "र्जी</w>": 5525,
      "ख़्": 5526,
      "40</w>": 5527,
      "न्व": 5528,
      "गठ": 5529,
      "hath</w>": 5530,
      "spi": 5531,
      "ton": 5532,
      "विध": 5533,
      "behind</w>": 5534,
      "ulation</w>": 5535,
      "lood</w>": 5536,
      "Development</w>": 5537,
      "साधारण</w>": 5538,
      "अत्यन्त</w>": 5539,
      "13": 5540,
      "प्रगति</w>": 5541,
      "phet</w>": 5542,
      "purpose</w>": 5543,
      "Ap": 5544,
      "ग्रामी": 5545,
      "निम्न": 5546,
      "bri": 5547,
      "दय</w>": 5548,
      "gue</w>": 5549,
      "पहुं": 5550,
      "near</w>": 5551,
      "written</w>": 5552,
      "र्स</w>": 5553,
      "asked</w>": 5554,
      "वाही</w>": 5555,
      "acity</w>": 5556,
      "शहर</w>": 5557,
      "बातों</w>": 5558,
      "Cal": 5559,
      "major</w>": 5560,
      "hou": 5561,
      "पहा": 5562,
      "संघ": 5563,
      "पदा": 5564,
      "कान</w>": 5565,
      "लाइ": 5566,
      "सेना</w>": 5567,
      "कांग्रे": 5568,
      "temp": 5569,
      "ड़ा": 5570,
      "2016</w>": 5571,
      "cell": 5572,
      "ठा</w>": 5573,
      "Now</w>": 5574,
      "iding</w>": 5575,
      "रोक": 5576,
      "Pol": 5577,
      "संके": 5578,
      "ists</w>": 5579,
      "mercy</w>": 5580,
      "कमी</w>": 5581,
      "शख्": 5582,
      "संगठन</w>": 5583,
      "यक़ीनन</w>": 5584,
      "साय": 5585,
      "specified</w>": 5586,
      "Euro": 5587,
      "By</w>": 5588,
      "सक्षम</w>": 5589,
      "ross</w>": 5590,
      "चित्र</w>": 5591,
      "referred</w>": 5592,
      "ili": 5593,
      "future</w>": 5594,
      "वेबसाइट</w>": 5595,
      "Thus</w>": 5596,
      "कार्या": 5597,
      "stom": 5598,
      "Sat": 5599,
      "इच्छ": 5600,
      "जरूरत</w>": 5601,
      "success": 5602,
      "महत्": 5603,
      "नदी</w>": 5604,
      "une</w>": 5605,
      "पाठ</w>": 5606,
      "bly</w>": 5607,
      "ph</w>": 5608,
      "लीन</w>": 5609,
      "चाई</w>": 5610,
      "once</w>": 5611,
      "soever</w>": 5612,
      "logical</w>": 5613,
      "पश्चात</w>": 5614,
      "संरचना</w>": 5615,
      "ard": 5616,
      "2000</w>": 5617,
      "अर्था": 5618,
      "rema": 5619,
      "संसद</w>": 5620,
      "ciful</w>": 5621,
      "खरी": 5622,
      "हरा</w>": 5623,
      "रीब</w>": 5624,
      "greater</w>": 5625,
      "जर</w>": 5626,
      "प्रश्न</w>": 5627,
      "fire</w>": 5628,
      "णी": 5629,
      "फाइल</w>": 5630,
      "शल</w>": 5631,
      "stitute</w>": 5632,
      "ligh": 5633,
      "usu": 5634,
      "soon</w>": 5635,
      "2013</w>": 5636,
      "अंत": 5637,
      "बच": 5638,
      "संगी": 5639,
      "net</w>": 5640,
      "Tra": 5641,
      "बंगा": 5642,
      "अपरा": 5643,
      "शख्स</w>": 5644,
      "मात्र</w>": 5645,
      "घटना</w>": 5646,
      "tively</w>": 5647,
      "IT": 5648,
      "टवर्": 5649,
      "identi": 5650,
      "market</w>": 5651,
      "lem</w>": 5652,
      "चारी</w>": 5653,
      "Dec": 5654,
      "ards</w>": 5655,
      "living</w>": 5656,
      "revealed</w>": 5657,
      "imum</w>": 5658,
      "23</w>": 5659,
      "esides</w>": 5660,
      "duction</w>": 5661,
      "whatever</w>": 5662,
      "table</w>": 5663,
      "वायु</w>": 5664,
      "community</w>": 5665,
      "higher</w>": 5666,
      "भारी</w>": 5667,
      "pay</w>": 5668,
      "देखने</w>": 5669,
      "vic": 5670,
      "उचित</w>": 5671,
      "पूर्ति</w>": 5672,
      "tures</w>": 5673,
      "inte": 5674,
      "institutions</w>": 5675,
      "ordin": 5676,
      "parts</w>": 5677,
      "सदस्यों</w>": 5678,
      "sor": 5679,
      "28</w>": 5680,
      "Is</w>": 5681,
      "कहो</w>": 5682,
      "अनिवा": 5683,
      "समस्या</w>": 5684,
      "मुँह</w>": 5685,
      "वृत्ति</w>": 5686,
      "kers</w>": 5687,
      "multi": 5688,
      "समारो": 5689,
      "जन्म</w>": 5690,
      "text</w>": 5691,
      "OR": 5692,
      "ग्रामीण</w>": 5693,
      "तारी": 5694,
      "understand</w>": 5695,
      "guidance</w>": 5696,
      "Ara": 5697,
      "भग": 5698,
      "उपयो": 5699,
      "नमा": 5700,
      "start</w>": 5701,
      "थि": 5702,
      "engers</w>": 5703,
      "students</w>": 5704,
      "करोड़</w>": 5705,
      "यें</w>": 5706,
      "command</w>": 5707,
      "sting</w>": 5708,
      "सुविधा": 5709,
      "meth": 5710,
      "kh</w>": 5711,
      "दिखाएँ</w>": 5712,
      "औद्": 5713,
      "केंद्रीय</w>": 5714,
      "संदर्": 5715,
      "व्यापक</w>": 5716,
      "share</w>": 5717,
      "stand": 5718,
      "since</w>": 5719,
      "ौती</w>": 5720,
      "environ": 5721,
      "आतं": 5722,
      "enter</w>": 5723,
      "खुद</w>": 5724,
      "sal": 5725,
      "ording</w>": 5726,
      "determin": 5727,
      "पूंजी</w>": 5728,
      "गांधी</w>": 5729,
      "Or": 5730,
      "मद</w>": 5731,
      "separ": 5732,
      "defin": 5733,
      "subject</w>": 5734,
      "रता</w>": 5735,
      "ourselves</w>": 5736,
      "खिला": 5737,
      "तरित</w>": 5738,
      "सृ": 5739,
      "कित</w>": 5740,
      "आँ": 5741,
      "चुनें</w>": 5742,
      "कोशिश</w>": 5743,
      "चो": 5744,
      "righte": 5745,
      "House</w>": 5746,
      "question</w>": 5747,
      "Union</w>": 5748,
      "जाति</w>": 5749,
      "क्षर</w>": 5750,
      "months</w>": 5751,
      "Pl": 5752,
      "Hindu</w>": 5753,
      "told</w>": 5754,
      "दिखाई</w>": 5755,
      "website</w>": 5756,
      "¤¸</w>": 5757,
      "यूरो": 5758,
      "run": 5759,
      "With</w>": 5760,
      "Muslims</w>": 5761,
      "release</w>": 5762,
      "nu": 5763,
      "Surely</w>": 5764,
      "ml</w>": 5765,
      "appointed</w>": 5766,
      "Dr</w>": 5767,
      "Verily</w>": 5768,
      "ant": 5769,
      "bank</w>": 5770,
      "rang": 5771,
      "नवा": 5772,
      "इनमें</w>": 5773,
      "ंभ": 5774,
      "sign</w>": 5775,
      "स्वतं": 5776,
      "ख्त</w>": 5777,
      "building</w>": 5778,
      "includ": 5779,
      "पृष्ठ</w>": 5780,
      "¤¿</w>": 5781,
      "प्राथ": 5782,
      "कानून</w>": 5783,
      "send</w>": 5784,
      "Congress</w>": 5785,
      "सत</w>": 5786,
      "INDI": 5787,
      "lig": 5788,
      "Mad": 5789,
      "्यूटर</w>": 5790,
      "बयान</w>": 5791,
      "regar": 5792,
      "शायद</w>": 5793,
      "goods</w>": 5794,
      "डो": 5795,
      "पहचान</w>": 5796,
      "चरण</w>": 5797,
      "chec": 5798,
      "मुक्त</w>": 5799,
      "weal": 5800,
      "Muslim</w>": 5801,
      "vision</w>": 5802,
      "स्तक</w>": 5803,
      "प्रकाश</w>": 5804,
      "नगर</w>": 5805,
      "Committee</w>": 5806,
      "Er": 5807,
      "pared</w>": 5808,
      "प्रोत्सा": 5809,
      "verily</w>": 5810,
      "फु": 5811,
      "till</w>": 5812,
      "देती</w>": 5813,
      "अधिका": 5814,
      "role</w>": 5815,
      "umb": 5816,
      "sett": 5817,
      "व्यक्त</w>": 5818,
      "eight</w>": 5819,
      "#-": 5820,
      "esses</w>": 5821,
      "RRB</w>": 5822,
      "court</w>": 5823,
      "gs</w>": 5824,
      "ंब": 5825,
      "बचा": 5826,
      "Department</w>": 5827,
      "if": 5828,
      "Cor": 5829,
      "needs</w>": 5830,
      "free": 5831,
      "बने</w>": 5832,
      "व्यवहार</w>": 5833,
      "सर्वो": 5834,
      "लिस</w>": 5835,
      "ज्ञ</w>": 5836,
      "care</w>": 5837,
      "mother</w>": 5838,
      "mitted</w>": 5839,
      "वजह</w>": 5840,
      "acqu": 5841,
      "बदले</w>": 5842,
      "mal</w>": 5843,
      "म्मे": 5844,
      "सफलता</w>": 5845,
      "26</w>": 5846,
      "चला</w>": 5847,
      "ident</w>": 5848,
      "destro": 5849,
      "नर</w>": 5850,
      "निजी</w>": 5851,
      "lier</w>": 5852,
      "blems</w>": 5853,
      "पुनः</w>": 5854,
      "deb": 5855,
      "Kno": 5856,
      "महान</w>": 5857,
      "दायि": 5858,
      "version</w>": 5859,
      "जोर</w>": 5860,
      "ita</w>": 5861,
      "office</w>": 5862,
      "र्म": 5863,
      "नियाँ</w>": 5864,
      "moun": 5865,
      "लाते</w>": 5866,
      "ग्रहण</w>": 5867,
      "LRB</w>": 5868,
      "ging</w>": 5869,
      "उच्च": 5870,
      "लेगा</w>": 5871,
      "कांग्रेस</w>": 5872,
      "ओगे</w>": 5873,
      "चयनित</w>": 5874,
      "stu": 5875,
      "सुविधा</w>": 5876,
      "Could</w>": 5877,
      "परिष": 5878,
      "dar": 5879,
      "निर्यात</w>": 5880,
      "बैं": 5881,
      "II</w>": 5882,
      "ching</w>": 5883,
      "राजा</w>": 5884,
      "gres": 5885,
      "किंतु</w>": 5886,
      "ailed</w>": 5887,
      "Sab": 5888,
      "century</w>": 5889,
      "eding</w>": 5890,
      "List</w>": 5891,
      "itor</w>": 5892,
      "मांग</w>": 5893,
      "रखना</w>": 5894,
      "्यों</w>": 5895,
      "server</w>": 5896,
      "result</w>": 5897,
      "gives</w>": 5898,
      "व्यक्तियों</w>": 5899,
      "invol": 5900,
      "खों</w>": 5901,
      "wing</w>": 5902,
      "स्वतंत्रता</w>": 5903,
      "why</w>": 5904,
      "size</w>": 5905,
      "allowed</w>": 5906,
      "hal</w>": 5907,
      "saying</w>": 5908,
      "लाओं</w>": 5909,
      "amp</w>": 5910,
      "मीटर</w>": 5911,
      "जवाब</w>": 5912,
      "eyes</w>": 5913,
      "close</w>": 5914,
      "simil": 5915,
      "back": 5916,
      "problem</w>": 5917,
      "मै</w>": 5918,
      "xed</w>": 5919,
      "बिल्": 5920,
      "योजनाओं</w>": 5921,
      "अर": 5922,
      "cription</w>": 5923,
      "रहेंगे</w>": 5924,
      "पुरुष</w>": 5925,
      "ideo</w>": 5926,
      "sear": 5927,
      "योगदान</w>": 5928,
      "MA": 5929,
      "आयतों</w>": 5930,
      "individual</w>": 5931,
      "आधुनिक</w>": 5932,
      "पात</w>": 5933,
      "tually</w>": 5934,
      "औद्योगिक</w>": 5935,
      "Bra": 5936,
      "प्रिय</w>": 5937,
      "रखो</w>": 5938,
      "books</w>": 5939,
      "ina</w>": 5940,
      "चाहिये</w>": 5941,
      "aj": 5942,
      "however</w>": 5943,
      "RO": 5944,
      "सवा": 5945,
      "nific": 5946,
      "sla": 5947,
      "दशा</w>": 5948,
      "basis</w>": 5949,
      "que</w>": 5950,
      "proce": 5951,
      "पुरस्कार</w>": 5952,
      "14": 5953,
      "Ju": 5954,
      "टाइ": 5955,
      "रिपोर्ट</w>": 5956,
      "ingly</w>": 5957,
      "मंडल</w>": 5958,
      "party</w>": 5959,
      "scienti": 5960,
      "Tri": 5961,
      "plant</w>": 5962,
      "tree</w>": 5963,
      "ाओं</w>": 5964,
      "sense</w>": 5965,
      "रल</w>": 5966,
      "शता": 5967,
      "considered</w>": 5968,
      "Tech": 5969,
      "eb": 5970,
      "क्त": 5971,
      "गुम": 5972,
      "coming</w>": 5973,
      "eat</w>": 5974,
      "माँ": 5975,
      "How": 5976,
      "energy</w>": 5977,
      "persons</w>": 5978,
      "effect</w>": 5979,
      "फा</w>": 5980,
      "हटा": 5981,
      "रख</w>": 5982,
      "रानी</w>": 5983,
      "लियों</w>": 5984,
      "परीक्षा</w>": 5985,
      "दृष्टि": 5986,
      "istan</w>": 5987,
      "remember</w>": 5988,
      "eci": 5989,
      "राय</w>": 5990,
      "problems</w>": 5991,
      "स्ती</w>": 5992,
      "गिर": 5993,
      "Parliament</w>": 5994,
      "phys": 5995,
      "purposes</w>": 5996,
      "lin": 5997,
      "Her": 5998,
      "ick": 5999,
      "ince</w>": 6000,
      "स्रोत</w>": 6001,
      "bil": 6002,
      "प्रकट</w>": 6003,
      "मुद्": 6004,
      "प्रशा": 6005,
      "Gre": 6006,
      "१९": 6007,
      "ech</w>": 6008,
      "पुस्तक</w>": 6009,
      "सक</w>": 6010,
      "Har": 6011,
      "वास्तविक</w>": 6012,
      "wealth</w>": 6013,
      "शेष</w>": 6014,
      "computer</w>": 6015,
      "movement</w>": 6016,
      "simp": 6017,
      "ati</w>": 6018,
      "conduc": 6019,
      "terms</w>": 6020,
      "El": 6021,
      "विस्त": 6022,
      "सुरक्षित</w>": 6023,
      "spir": 6024,
      "पण</w>": 6025,
      "mage</w>": 6026,
      "write</w>": 6027,
      "imp": 6028,
      "jour": 6029,
      "ither</w>": 6030,
      "वर्ती</w>": 6031,
      "single</w>": 6032,
      "!\"</w>": 6033,
      "नाटक</w>": 6034,
      "दूसरा</w>": 6035,
      "html</w>": 6036,
      "भविष्य</w>": 6037,
      "गुज": 6038,
      "proved</w>": 6039,
      "essed</w>": 6040,
      "co</w>": 6041,
      "मोह": 6042,
      "atters</w>": 6043,
      "वैज्ञानिक</w>": 6044,
      ".)</w>": 6045,
      "डिस्क</w>": 6046,
      "ग़ा": 6047,
      "प्रभावित</w>": 6048,
      "कीय</w>": 6049,
      "बुरा</w>": 6050,
      "ंद": 6051,
      "पिता</w>": 6052,
      "sil": 6053,
      "essee</w>": 6054,
      "साह": 6055,
      "aste</w>": 6056,
      "लागत</w>": 6057,
      "मुस्": 6058,
      "med": 6059,
      "mean": 6060,
      "dro": 6061,
      "अध्या": 6062,
      "tificate</w>": 6063,
      "थों</w>": 6064,
      "particip": 6065,
      "आयोजित</w>": 6066,
      "प्रकाशित</w>": 6067,
      "discus": 6068,
      "स्थ</w>": 6069,
      "हद</w>": 6070,
      "prev": 6071,
      "manner</w>": 6072,
      "vate</w>": 6073,
      "यू</w>": 6074,
      "acts</w>": 6075,
      "ES</w>": 6076,
      "Kar": 6077,
      "trade</w>": 6078,
      "Constitution</w>": 6079,
      "माता</w>": 6080,
      "टने</w>": 6081,
      "poor</w>": 6082,
      "ब्या": 6083,
      "However</w>": 6084,
      "citiz": 6085,
      "निर्धारि": 6086,
      "ategory</w>": 6087,
      "शिका": 6088,
      "रुद्ध</w>": 6089,
      "¤¨</w>": 6090,
      "poss": 6091,
      "pran": 6092,
      "27</w>": 6093,
      "Bud": 6094,
      "sac": 6095,
      "Information</w>": 6096,
      "शताब्": 6097,
      "कार्यालय</w>": 6098,
      "समारोह</w>": 6099,
      "thus</w>": 6100,
      "फिर": 6101,
      "Regi": 6102,
      "implem": 6103,
      "ot</w>": 6104,
      "ising</w>": 6105,
      "डाला</w>": 6106,
      "ip": 6107,
      "मार्ग": 6108,
      "village</w>": 6109,
      "नेटवर्": 6110,
      "थि</w>": 6111,
      "often</w>": 6112,
      "passed</w>": 6113,
      "ंकन</w>": 6114,
      "विशा": 6115,
      "फ़ॉ": 6116,
      "बू</w>": 6117,
      "समुदाय</w>": 6118,
      "निवे": 6119,
      "none</w>": 6120,
      "Israel</w>": 6121,
      "ढंग</w>": 6122,
      "दिवस</w>": 6123,
      "Bhar": 6124,
      "bs</w>": 6125,
      "Ev": 6126,
      "बनी</w>": 6127,
      "govern": 6128,
      "चर</w>": 6129,
      "टकर</w>": 6130,
      "मेलन</w>": 6131,
      "सल</w>": 6132,
      "religious</w>": 6133,
      "wee": 6134,
      "राजनीतिक</w>": 6135,
      "आवेदन</w>": 6136,
      "trav": 6137,
      "hr": 6138,
      "America</w>": 6139,
      "Hi": 6140,
      "cel": 6141,
      "Prophet</w>": 6142,
      "ian</w>": 6143,
      "श्त</w>": 6144,
      "कोण</w>": 6145,
      "strong</w>": 6146,
      "Bank</w>": 6147,
      "achiev": 6148,
      "बाज़</w>": 6149,
      "मिन": 6150,
      "Fol": 6151,
      "doers</w>": 6152,
      "निर्धारिती</w>": 6153,
      "यंत्र</w>": 6154,
      "fficient</w>": 6155,
      "नात्मक</w>": 6156,
      "चालन</w>": 6157,
      "कृष्": 6158,
      "messages</w>": 6159,
      "ror": 6160,
      "my": 6161,
      "पश्चिम</w>": 6162,
      "network</w>": 6163,
      "task</w>": 6164,
      "fication</w>": 6165,
      "31</w>": 6166,
      "रकम</w>": 6167,
      "international</w>": 6168,
      "administ": 6169,
      "ट्स</w>": 6170,
      "stre": 6171,
      "The": 6172,
      "sic</w>": 6173,
      "बंगाल</w>": 6174,
      "assessee</w>": 6175,
      "महारा": 6176,
      "natural</w>": 6177,
      "Bengal</w>": 6178,
      "वार": 6179,
      "शीर्ष": 6180,
      "seek</w>": 6181,
      "management</w>": 6182,
      "mach": 6183,
      "उपकरण</w>": 6184,
      "हृ": 6185,
      "esti": 6186,
      "संरक्षण</w>": 6187,
      "rish": 6188,
      "eded</w>": 6189,
      "संस्कृति</w>": 6190,
      "'.</w>": 6191,
      "idd": 6192,
      "tar": 6193,
      "मुसलमानों</w>": 6194,
      "दीन</w>": 6195,
      "संस्था</w>": 6196,
      "makes</w>": 6197,
      "चिं": 6198,
      "मनो": 6199,
      "issued</w>": 6200,
      "payment</w>": 6201,
      "ck</w>": 6202,
      "Open</w>": 6203,
      "महिला</w>": 6204,
      "Select</w>": 6205,
      "लैंड</w>": 6206,
      "सीधे</w>": 6207,
      "सॉ": 6208,
      "ticle</w>": 6209,
      "देंगे</w>": 6210,
      "ंतर</w>": 6211,
      "INDIA</w>": 6212,
      "अवश्य</w>": 6213,
      "यथा": 6214,
      "शुल्क</w>": 6215,
      "reason</w>": 6216,
      "assessment</w>": 6217,
      "alone</w>": 6218,
      "progress</w>": 6219,
      "समझौ": 6220,
      "ST": 6221,
      "मर</w>": 6222,
      "anci": 6223,
      "lower</w>": 6224,
      "संदर्भ</w>": 6225,
      "निकल</w>": 6226,
      "Gandhi</w>": 6227,
      "बॉ": 6228,
      "शू": 6229,
      "यद्य": 6230,
      "File</w>": 6231,
      "Let</w>": 6232,
      "छोटी</w>": 6233,
      "fron": 6234,
      "sibility</w>": 6235,
      "mark": 6236,
      "हासिल</w>": 6237,
      "Us</w>": 6238,
      "school</w>": 6239,
      "author": 6240,
      "आपकी</w>": 6241,
      "lock</w>": 6242,
      "संगीत</w>": 6243,
      "class</w>": 6244,
      "rup": 6245,
      "visit</w>": 6246,
      "प्रस्ताव</w>": 6247,
      "माइ": 6248,
      "चित्र": 6249,
      "चुकी</w>": 6250,
      "दोलन</w>": 6251,
      "सेवाओं</w>": 6252,
      "मुखर्जी</w>": 6253,
      "fla": 6254,
      "किंग</w>": 6255,
      "पथ</w>": 6256,
      "केन्द्रीय</w>": 6257,
      "यद्यपि</w>": 6258,
      "च्चा</w>": 6259,
      "mukherjee</w>": 6260,
      "everything</w>": 6261,
      "devo": 6262,
      "दल</w>": 6263,
      "tract</w>": 6264,
      "भेज": 6265,
      "oul": 6266,
      "लेखा</w>": 6267,
      "Ko": 6268,
      "गृ": 6269,
      "इका": 6270,
      "conditions</w>": 6271,
      "क्रमण</w>": 6272,
      "abmukherjee</w>": 6273,
      "निम्नलिखित</w>": 6274,
      "pranabmukherjee</w>": 6275,
      "short</w>": 6276,
      "मुद्रा</w>": 6277,
      "Council</w>": 6278,
      "मन": 6279,
      "इयों</w>": 6280,
      "पर्याप्त</w>": 6281,
      "viol": 6282,
      "blood</w>": 6283,
      "wel": 6284,
      "increase</w>": 6285,
      "आतंक": 6286,
      "मारी</w>": 6287,
      "sis</w>": 6288,
      "really</w>": 6289,
      "ref": 6290,
      "परं": 6291,
      "region</w>": 6292,
      "विन": 6293,
      "space</w>": 6294,
      "¤</w>": 6295,
      "Fire</w>": 6296,
      "ser</w>": 6297,
      "tically</w>": 6298,
      "efforts</w>": 6299,
      "according</w>": 6300,
      "चर्चा</w>": 6301,
      "tained</w>": 6302,
      "प्रभावी</w>": 6303,
      "pal": 6304,
      "बैठे</w>": 6305,
      "mun": 6306,
      "ani</w>": 6307,
      "pot": 6308,
      "illed</w>": 6309,
      "सत": 6310,
      "freedom</w>": 6311,
      "least</w>": 6312,
      "general</w>": 6313,
      "neither</w>": 6314,
      "developed</w>": 6315,
      "कम्प": 6316,
      "संपत्ति</w>": 6317,
      "pain": 6318,
      "charge</w>": 6319,
      "कहना</w>": 6320,
      "ories</w>": 6321,
      "fal": 6322,
      "पूर्ण": 6323,
      "obj": 6324,
      "source</w>": 6325,
      "तत्व": 6326,
      "RA": 6327,
      "ज्ञा</w>": 6328,
      "cle": 6329,
      "matters</w>": 6330,
      "ँकि</w>": 6331,
      "ention</w>": 6332,
      "धाई</w>": 6333,
      "गिरो": 6334,
      "गाह</w>": 6335,
      "Se": 6336,
      "Such</w>": 6337,
      "सकें</w>": 6338,
      "तरीके</w>": 6339,
      "हिन्दी</w>": 6340,
      "गुणव": 6341,
      "12": 6342,
      "लब</w>": 6343,
      "eral</w>": 6344,
      "तेरे</w>": 6345,
      "मियों</w>": 6346,
      "culture</w>": 6347,
      "six</w>": 6348,
      "उत्पाद</w>": 6349,
      "केन्द्र</w>": 6350,
      "(%</w>": 6351,
      "लिंग</w>": 6352,
      "fast</w>": 6353,
      "consci": 6354,
      "duty</w>": 6355,
      "न्याय": 6356,
      "जीव</w>": 6357,
      "शब्दों</w>": 6358,
      "आता</w>": 6359,
      "द्वी": 6360,
      "past</w>": 6361,
      "रंग": 6362,
      "जहन्नु": 6363,
      "ँच</w>": 6364,
      "स्टा": 6365,
      "sum": 6366,
      "meet</w>": 6367,
      "az": 6368,
      "Whether</w>": 6369,
      "आती</w>": 6370,
      "rer</w>": 6371,
      "valid</w>": 6372,
      "ज़ु": 6373,
      "देशक</w>": 6374,
      "elo": 6375,
      "शीघ": 6376,
      "tar</w>": 6377,
      "पृथ": 6378,
      "००": 6379,
      "स्कूल</w>": 6380,
      "कार्ड</w>": 6381,
      "million</w>": 6382,
      "modern</w>": 6383,
      "दक</w>": 6384,
      "पद्ध": 6385,
      "thous": 6386,
      "कल्पना</w>": 6387,
      "sym": 6388,
      "न्द्र": 6389,
      "benefit</w>": 6390,
      "hard</w>": 6391,
      "Or</w>": 6392,
      "des</w>": 6393,
      "सन्</w>": 6394,
      "ज़रूर</w>": 6395,
      "धनों</w>": 6396,
      "लग</w>": 6397,
      "हक</w>": 6398,
      "loss</w>": 6399,
      "सूचित</w>": 6400,
      "नें</w>": 6401,
      "प्रण": 6402,
      "महत्व</w>": 6403,
      "संसाधन</w>": 6404,
      "धार्": 6405,
      "आत्म": 6406,
      "आयात</w>": 6407,
      "External</w>": 6408,
      "आख़िरत</w>": 6409,
      "1st</w>": 6410,
      "scal": 6411,
      "अत्या": 6412,
      "vil</w>": 6413,
      "mankind</w>": 6414,
      "सब्": 6415,
      "capacity</w>": 6416,
      "खी</w>": 6417,
      "chall": 6418,
      "सम्मि": 6419,
      "ज़िन्": 6420,
      "regu": 6421,
      "पादन</w>": 6422,
      "dio</w>": 6423,
      "पंचा": 6424,
      "सारी</w>": 6425,
      "नाव</w>": 6426,
      "पाने</w>": 6427,
      "प्राकृतिक</w>": 6428,
      "निकट</w>": 6429,
      "itable</w>": 6430,
      "नेक्": 6431,
      "month</w>": 6432,
      "बधाई</w>": 6433,
      "राज</w>": 6434,
      "lab": 6435,
      "क्रो": 6436,
      "sa</w>": 6437,
      "विरुद्ध</w>": 6438,
      "सात</w>": 6439,
      "],</w>": 6440,
      "अना": 6441,
      "पेश</w>": 6442,
      "उत": 6443,
      "followed</w>": 6444,
      "wish</w>": 6445,
      "चयन</w>": 6446,
      "says</w>": 6447,
      "duced</w>": 6448,
      "Mr</w>": 6449,
      "वार्ष": 6450,
      "वेयर</w>": 6451,
      "training</w>": 6452,
      "ara</w>": 6453,
      "निर्वा": 6454,
      "road</w>": 6455,
      "forward</w>": 6456,
      "निर्मित</w>": 6457,
      "ढू": 6458,
      "षक</w>": 6459,
      "प्रमाणपत्र</w>": 6460,
      "sea</w>": 6461,
      "डॉ": 6462,
      "हीम</w>": 6463,
      "गो</w>": 6464,
      "Error</w>": 6465,
      "creation</w>": 6466,
      "justice</w>": 6467,
      "फरमा": 6468,
      "thre": 6469,
      "independ": 6470,
      "preme</w>": 6471,
      "उपस्थित</w>": 6472,
      "स्पष्ट": 6473,
      "परिवर्त": 6474,
      "di</w>": 6475,
      "ews</w>": 6476,
      "संस्करण</w>": 6477,
      "wife</w>": 6478,
      "ff</w>": 6479,
      "आयोग</w>": 6480,
      "क्का</w>": 6481,
      "लिका</w>": 6482,
      "लाना</w>": 6483,
      "आते</w>": 6484,
      "idden</w>": 6485,
      "बैठक</w>": 6486,
      "ww": 6487,
      "aper</w>": 6488,
      "निर्भर</w>": 6489,
      "access</w>": 6490,
      "माने</w>": 6491,
      "Even</w>": 6492,
      "सीमित</w>": 6493,
      "woman</w>": 6494,
      "शैली</w>": 6495,
      "dw": 6496,
      "व्": 6497,
      "समस्या": 6498,
      "नेट</w>": 6499,
      "घोष": 6500,
      "temple</w>": 6501,
      "वं": 6502,
      "छोड़कर</w>": 6503,
      "rights</w>": 6504,
      "समृ": 6505,
      "2017</w>": 6506,
      "angels</w>": 6507,
      "Cannot</w>": 6508,
      "ug": 6509,
      "एफ": 6510,
      "धों</w>": 6511,
      "eps</w>": 6512,
      "रखी</w>": 6513,
      "elling</w>": 6514,
      "particular</w>": 6515,
      "tell</w>": 6516,
      "regist": 6517,
      "writing</w>": 6518,
      "Pal": 6519,
      "ousness</w>": 6520,
      "हार्": 6521,
      "नेटवर्क</w>": 6522,
      "tains</w>": 6523,
      "बन्दों</w>": 6524,
      "स्त्री</w>": 6525,
      "ऑफ</w>": 6526,
      "People</w>": 6527,
      "आस्": 6528,
      "augh": 6529,
      "चिकित्सा</w>": 6530,
      "Nar": 6531,
      "entire</w>": 6532,
      "ग़र": 6533,
      "opens</w>": 6534,
      "gic</w>": 6535,
      "ड्र": 6536,
      "www</w>": 6537,
      "भार</w>": 6538,
      "ठहरा": 6539,
      "adem": 6540,
      "इला": 6541,
      "रोज": 6542,
      "अगले</w>": 6543,
      "बताया</w>": 6544,
      "DA": 6545,
      "ires</w>": 6546,
      "दित</w>": 6547,
      "त्री</w>": 6548,
      "Cer": 6549,
      "ishes</w>": 6550,
      "integr": 6551,
      "आउ": 6552,
      "anti": 6553,
      "aged</w>": 6554,
      "धार्मिक</w>": 6555,
      "नो</w>": 6556,
      "लम्": 6557,
      "ृत</w>": 6558,
      "ख़बर</w>": 6559,
      "भागी": 6560,
      "tan": 6561,
      "programm": 6562,
      "लेना</w>": 6563,
      "contact</w>": 6564,
      "democ": 6565,
      "धीरे</w>": 6566,
      "नतम</w>": 6567,
      "adop": 6568,
      "wrong": 6569,
      "witness</w>": 6570,
      "Public</w>": 6571,
      "emed</w>": 6572,
      "गतिवि": 6573,
      "वीडियो</w>": 6574,
      "outside</w>": 6575,
      "Him": 6576,
      "ori": 6577,
      "एफ</w>": 6578,
      "distri": 6579,
      "पसंद</w>": 6580,
      "Chi": 6581,
      "किन": 6582,
      "क्ष्": 6583,
      "च्छेद</w>": 6584,
      "lead</w>": 6585,
      "distribu": 6586,
      "नमाज़</w>": 6587,
      "दूरी</w>": 6588,
      "जल्दी</w>": 6589,
      "रम</w>": 6590,
      "वित्त</w>": 6591,
      "cles</w>": 6592,
      "भोजन</w>": 6593,
      "उम्मी": 6594,
      "रखे</w>": 6595,
      "श्रेणी": 6596,
      "Indu": 6597,
      "literature</w>": 6598,
      "पंजी": 6599,
      "condition</w>": 6600,
      "lic": 6601,
      "सम्मेलन</w>": 6602,
      "अता</w>": 6603,
      "population</w>": 6604,
      "गौ": 6605,
      "user</w>": 6606,
      "प्रयोज": 6607,
      "disease</w>": 6608,
      "आशा</w>": 6609,
      "चारियों</w>": 6610,
      "कवि</w>": 6611,
      "ham</w>": 6612,
      "जनक</w>": 6613,
      "खड़े</w>": 6614,
      "संशोधन</w>": 6615,
      "yle</w>": 6616,
      "प्रदर्शन</w>": 6617,
      "ID</w>": 6618,
      "र्थियों</w>": 6619,
      "placed</w>": 6620,
      "रिया": 6621,
      "चिह्": 6622,
      "कालीन</w>": 6623,
      "trust</w>": 6624,
      "आकाश</w>": 6625,
      "सोच": 6626,
      "क्टर</w>": 6627,
      "Sur": 6628,
      "जिला</w>": 6629,
      "sust": 6630,
      "function</w>": 6631,
      "gle</w>": 6632,
      "prec": 6633,
      "बाल</w>": 6634,
      "ari</w>": 6635,
      "लम</w>": 6636,
      "saw</w>": 6637,
      "fem": 6638,
      "val</w>": 6639,
      ".,</w>": 6640,
      "atic</w>": 6641,
      "कनेक्": 6642,
      "mission": 6643,
      "ced</w>": 6644,
      "केट</w>": 6645,
      "जीव": 6646,
      "ूप</w>": 6647,
      "manu": 6648,
      "29</w>": 6649,
      "गर्इ</w>": 6650,
      "अधिकारियों</w>": 6651,
      "क्रमों</w>": 6652,
      "एजे": 6653,
      "पॉ": 6654,
      "नैतिक</w>": 6655,
      "रो</w>": 6656,
      "सम्मान</w>": 6657,
      "08</w>": 6658,
      "खतर": 6659,
      "सख्त</w>": 6660,
      "काओं</w>": 6661,
      "supp": 6662,
      "आत्मा</w>": 6663,
      "पत्थ": 6664,
      "serve</w>": 6665,
      "lations</w>": 6666,
      "आर्": 6667,
      "दर्शा": 6668,
      "promise</w>": 6669,
      "ब्याज</w>": 6670,
      "करे": 6671,
      "बनाना</w>": 6672,
      "Shi": 6673,
      "संस्थानों</w>": 6674,
      "cases</w>": 6675,
      "dings</w>": 6676,
      "तुमपर</w>": 6677,
      "programme</w>": 6678,
      "atory</w>": 6679,
      "arti": 6680,
      "box</w>": 6681,
      "Oc": 6682,
      "आपका</w>": 6683,
      "दायत</w>": 6684,
      "rule</w>": 6685,
      "active</w>": 6686,
      "सानों</w>": 6687,
      "sistance</w>": 6688,
      "अह": 6689,
      "credit</w>": 6690,
      "less": 6691,
      "हिदायत</w>": 6692,
      "intro": 6693,
      "esp": 6694,
      "मित्र</w>": 6695,
      "रखें</w>": 6696,
      "गुण</w>": 6697,
      "न्याया": 6698,
      "Jan": 6699,
      "¤²</w>": 6700,
      "ularly</w>": 6701,
      "2007</w>": 6702,
      "Fo": 6703,
      "erve</w>": 6704,
      "मिलता</w>": 6705,
      "seven</w>": 6706,
      "nel</w>": 6707,
      "राम": 6708,
      "resources</w>": 6709,
      "र्थी</w>": 6710,
      "वैश्": 6711,
      "उठा</w>": 6712,
      "कदम</w>": 6713,
      "innov": 6714,
      "than": 6715,
      "lost</w>": 6716,
      "cle</w>": 6717,
      "constitu": 6718,
      "निर्दे": 6719,
      "mode</w>": 6720,
      "immedi": 6721,
      "80</w>": 6722,
      "Manag": 6723,
      "ठी</w>": 6724,
      "Not</w>": 6725,
      "बह</w>": 6726,
      "titu": 6727,
      "oph": 6728,
      "almost</w>": 6729,
      "चालित</w>": 6730,
      "कार्यों</w>": 6731,
      "ansk": 6732,
      "इबरा": 6733,
      "raised</w>": 6734,
      "page</w>": 6735,
      "ंख": 6736,
      "क्रे": 6737,
      "include</w>": 6738,
      "नसी": 6739,
      "सच्चे</w>": 6740,
      "तुममें</w>": 6741,
      "pil": 6742,
      "नियमित</w>": 6743,
      "हार": 6744,
      "खाने</w>": 6745,
      "Have</w>": 6746,
      "hood</w>": 6747,
      "1961</w>": 6748,
      "कठ": 6749,
      "हालत</w>": 6750,
      "ग़रज़</w>": 6751,
      "एशिया</w>": 6752,
      "ज़ार</w>": 6753,
      "revel": 6754,
      "ao": 6755,
      "2012</w>": 6756,
      "alism</w>": 6757,
      "enty</w>": 6758,
      "continue</w>": 6759,
      "sugg": 6760,
      "earlier</w>": 6761,
      "tware</w>": 6762,
      "occ": 6763,
      "ण्ड": 6764,
      "search</w>": 6765,
      "bran": 6766,
      "investment</w>": 6767,
      "Section</w>": 6768,
      "earing</w>": 6769,
      "run</w>": 6770,
      "बां": 6771,
      "पांच</w>": 6772,
      "वर्णन</w>": 6773,
      "मजबूत</w>": 6774,
      "प्रधान</w>": 6775,
      "करनी</w>": 6776,
      "etting</w>": 6777,
      "disbelieve</w>": 6778,
      "firm</w>": 6779,
      "global</w>": 6780,
      "board</w>": 6781,
      "2019</w>": 6782,
      "Afric": 6783,
      "कंप्यूटर</w>": 6784,
      "पट्टी</w>": 6785,
      "Why</w>": 6786,
      "Mukherjee</w>": 6787,
      "अंग": 6788,
      "आकर्": 6789,
      "deny</w>": 6790,
      "receive</w>": 6791,
      "कत</w>": 6792,
      "जाये</w>": 6793,
      "तया</w>": 6794,
      "उन्हीं</w>": 6795,
      "उपभो": 6796,
      "शैतान</w>": 6797,
      "इबराहीम</w>": 6798,
      "स्ता</w>": 6799,
      "uration</w>": 6800,
      "anced</w>": 6801,
      "प्रणब</w>": 6802,
      "sev": 6803,
      "Mahar": 6804,
      "There": 6805,
      "अध्यक्ष</w>": 6806,
      "doubt</w>": 6807,
      "kept</w>": 6808,
      "छू": 6809,
      "एक्स</w>": 6810,
      "gment</w>": 6811,
      "exten": 6812,
      "ैल</w>": 6813,
      "करू": 6814,
      "pril</w>": 6815,
      "April</w>": 6816,
      "From</w>": 6817,
      "इल</w>": 6818,
      "दिलों</w>": 6819,
      "emer": 6820,
      "ड़ि": 6821,
      "signific": 6822,
      "प्रतिष्ठ": 6823,
      "alay": 6824,
      "foo": 6825,
      "संस्कृत</w>": 6826,
      "cra": 6827,
      "स्थल</w>": 6828,
      "experience</w>": 6829,
      "बख्": 6830,
      "Pun": 6831,
      "देखो</w>": 6832,
      "attle</w>": 6833,
      "Fi": 6834,
      "alo": 6835,
      "संपाद": 6836,
      "price</w>": 6837,
      "न्द्र</w>": 6838,
      "बिल्कुल</w>": 6839,
      "प्राचीन</w>": 6840,
      "मीर</w>": 6841,
      "जरूरी</w>": 6842,
      "युक्ति</w>": 6843,
      "list": 6844,
      "सिस्ट": 6845,
      "पहुंच</w>": 6846,
      "Merciful</w>": 6847,
      "Institute</w>": 6848,
      "समझते</w>": 6849,
      "जोड़ें</w>": 6850,
      "नियमों</w>": 6851,
      "across</w>": 6852,
      "पान</w>": 6853,
      "products</w>": 6854,
      "transp": 6855,
      "urrec": 6856,
      "science</w>": 6857,
      "शक्ति": 6858,
      "म्भ</w>": 6859,
      "टिश</w>": 6860,
      "alls</w>": 6861,
      "fall</w>": 6862,
      "ock</w>": 6863,
      "2006</w>": 6864,
      "personal</w>": 6865,
      "long": 6866,
      "दबा": 6867,
      "स्क्र": 6868,
      "जाय</w>": 6869,
      "dead</w>": 6870,
      "पाक</w>": 6871,
      "enough</w>": 6872,
      "ष्ट्र": 6873,
      "guided</w>": 6874,
      "transfer</w>": 6875,
      "समझा</w>": 6876,
      "United</w>": 6877,
      "फॉ": 6878,
      "रहना</w>": 6879,
      "terror": 6880,
      "श्रेणीः": 6881,
      ");</w>": 6882,
      "stone</w>": 6883,
      "मेहर": 6884,
      "प्ता": 6885,
      "Mem": 6886,
      "endar</w>": 6887,
      "brother</w>": 6888,
      "Sabha</w>": 6889,
      "laun": 6890,
      "डेटा</w>": 6891,
      "कट्": 6892,
      "Bu": 6893,
      "प्रमाण</w>": 6894,
      "inking</w>": 6895,
      "अवस्था</w>": 6896,
      "district</w>": 6897,
      "बिज": 6898,
      "ताल</w>": 6899,
      "मानते</w>": 6900,
      "अधिकांश</w>": 6901,
      "\",</w>": 6902,
      "उल": 6903,
      "स्वामी</w>": 6904,
      "test</w>": 6905,
      "मश": 6906,
      "enem": 6907,
      "वासी</w>": 6908,
      "Pur": 6909,
      "पल": 6910,
      "टना</w>": 6911,
      "High</w>": 6912,
      "लगी</w>": 6913,
      "private</w>": 6914,
      "recogni": 6915,
      "pic": 6916,
      "खाना</w>": 6917,
      "शीघ्र</w>": 6918,
      "गुणवत्ता</w>": 6919,
      "ऊं": 6920,
      "श्रम</w>": 6921,
      "व्यय</w>": 6922,
      "projects</w>": 6923,
      "फोन</w>": 6924,
      "ब्रिटिश</w>": 6925,
      "एं": 6926,
      "वहन</w>": 6927,
      "आपने</w>": 6928,
      "नाक</w>": 6929,
      "signed</w>": 6930,
      "लघ": 6931,
      "room</w>": 6932,
      "report</w>": 6933,
      "Add</w>": 6934,
      "पहुँचा</w>": 6935,
      "सिर</w>": 6936,
      "भूति</w>": 6937,
      "शताब्दी</w>": 6938,
      "dow": 6939,
      "provision</w>": 6940,
      "treat": 6941,
      "happy</w>": 6942,
      "torment</w>": 6943,
      "Ti": 6944,
      "ically</w>": 6945,
      "preci": 6946,
      "farmers</w>": 6947,
      "रहती</w>": 6948,
      "#-#-": 6949,
      "्यता</w>": 6950,
      "satis": 6951,
      "तारीख</w>": 6952,
      "guide</w>": 6953,
      "छोटा</w>": 6954,
      "प्रत्यक्ष</w>": 6955,
      "modi": 6956,
      "below</w>": 6957,
      "आदर्": 6958,
      "णीय</w>": 6959,
      "मुस्लिम</w>": 6960,
      "“%</w>": 6961,
      "गुना</w>": 6962,
      "esting</w>": 6963,
      "West</w>": 6964,
      "अंग्रेजी</w>": 6965,
      "Pran": 6966,
      "धर</w>": 6967,
      "करनेवालों</w>": 6968,
      "सचि": 6969,
      "disbelievers</w>": 6970,
      "accept</w>": 6971,
      "जरा": 6972,
      "क्षमा</w>": 6973,
      "\".</w>": 6974,
      "issue</w>": 6975,
      "अपेक्षा</w>": 6976,
      "influ": 6977,
      "समाधान</w>": 6978,
      "mark</w>": 6979,
      "produce</w>": 6980,
      "Auth": 6981,
      "legal</w>": 6982,
      "दस</w>": 6983,
      "ens": 6984,
      "places</w>": 6985,
      "hun": 6986,
      "दिक</w>": 6987,
      "अक": 6988,
      "Board</w>": 6989,
      "hope</w>": 6990,
      "अप</w>": 6991,
      "guar": 6992,
      "विवाह</w>": 6993,
      "सौं": 6994,
      "astray</w>": 6995,
      "Jud": 6996,
      "डरा": 6997,
      "iddle</w>": 6998,
      "ex</w>": 6999,
      "ैव</w>": 7000,
      "किसानों</w>": 7001,
      "spirit</w>": 7002,
      "gest</w>": 7003,
      "फ़रिश्": 7004,
      "घं": 7005,
      "indic": 7006,
      "ban</w>": 7007,
      "वधान</w>": 7008,
      "actions</w>": 7009,
      "तुलना</w>": 7010,
      "2005</w>": 7011,
      "रोक</w>": 7012,
      "played</w>": 7013,
      "atives</w>": 7014,
      "णु</w>": 7015,
      "व्यक्तिगत</w>": 7016,
      "big</w>": 7017,
      "friend": 7018,
      "East</w>": 7019,
      "हालाँकि</w>": 7020,
      "प्रवि": 7021,
      "रहे": 7022,
      "Islam</w>": 7023,
      "airs</w>": 7024,
      "एन</w>": 7025,
      "रोजगार</w>": 7026,
      "सत्या": 7027,
      "सांस्": 7028,
      "industrial</w>": 7029,
      "anskrit</w>": 7030,
      "UN": 7031,
      "पे</w>": 7032,
      "बले</w>": 7033,
      "दर्शी</w>": 7034,
      "color</w>": 7035,
      "electr": 7036,
      "विशाल</w>": 7037,
      "जहन्नुम</w>": 7038,
      "र्र": 7039,
      "estern</w>": 7040,
      "तथ": 7041,
      "ators</w>": 7042,
      "बुरा": 7043,
      "infra": 7044,
      "मर्श</w>": 7045,
      "टुक": 7046,
      "स्य</w>": 7047,
      "विचारों</w>": 7048,
      "etry</w>": 7049,
      "अनुच्छेद</w>": 7050,
      "लग्": 7051,
      "carried</w>": 7052,
      "Where</w>": 7053,
      "पुलिस</w>": 7054,
      "परिक</w>": 7055,
      "मौजूदा</w>": 7056,
      "आकाशों</w>": 7057,
      "संतु": 7058,
      "pped</w>": 7059,
      "detail</w>": 7060,
      "failed</w>": 7061,
      "अप्रैल</w>": 7062,
      "लघु</w>": 7063,
      "rich</w>": 7064,
      "ठा": 7065,
      "्राष्ट्र": 7066,
      "inning</w>": 7067,
      "प्रतिनि": 7068,
      "Lan": 7069,
      "खर्च</w>": 7070,
      "बाव": 7071,
      "सीमा": 7072,
      "uments</w>": 7073,
      "दाता</w>": 7074,
      "परिषद</w>": 7075,
      "Ak": 7076,
      "Asia</w>": 7077,
      "show": 7078,
      "शांति</w>": 7079,
      "rural</w>": 7080,
      "र्क</w>": 7081,
      "स्तर": 7082,
      "haps</w>": 7083,
      "conv": 7084,
      "घोषणा</w>": 7085,
      "cut</w>": 7086,
      "foc": 7087,
      "Val": 7088,
      "anda</w>": 7089,
      "bear</w>": 7090,
      "exchange</w>": 7091,
      "environment</w>": 7092,
      "फाय": 7093,
      "decided</w>": 7094,
      "South</w>": 7095,
      "औन</w>": 7096,
      "real</w>": 7097,
      "जूद</w>": 7098,
      "Sci": 7099,
      "scri": 7100,
      "संसार</w>": 7101,
      "खुलती</w>": 7102,
      "Hindu": 7103,
      "asp": 7104,
      "संकेत</w>": 7105,
      "ईश्वर</w>": 7106,
      "lives</w>": 7107,
      "ATI": 7108,
      "aware</w>": 7109,
      "आंदोलन</w>": 7110,
      "speak</w>": 7111,
      "चम": 7112,
      "प्रदर्शित</w>": 7113,
      "wal": 7114,
      "कुफ्": 7115,
      "provides</w>": 7116,
      "load</w>": 7117,
      "लेंगे</w>": 7118,
      "शाह</w>": 7119,
      "desire</w>": 7120,
      "पर्यावरण</w>": 7121,
      "प्रतीक</w>": 7122,
      "अत्यंत</w>": 7123,
      "built</w>": 7124,
      "Fil": 7125,
      "spread</w>": 7126,
      "संचार</w>": 7127,
      "secre": 7128,
      "relating</w>": 7129,
      "zed</w>": 7130,
      "गलत</w>": 7131,
      "प्रयोजनों</w>": 7132,
      "states</w>": 7133,
      "Islam": 7134,
      "मिली</w>": 7135,
      "्राष्ट्रीय</w>": 7136,
      "प्ले": 7137,
      "इस्लाम</w>": 7138,
      "बों</w>": 7139,
      "ste</w>": 7140,
      "mus": 7141,
      "remain</w>": 7142,
      "तमा": 7143,
      "भव": 7144,
      "fight</w>": 7145,
      "पश्चात्</w>": 7146,
      "महीने</w>": 7147,
      "अनिवार्य</w>": 7148,
      "Sar": 7149,
      "जहा": 7150,
      "institution</w>": 7151,
      "Income</w>": 7152,
      "मार्च</w>": 7153,
      "economy</w>": 7154,
      "कन</w>": 7155,
      "सम्मिलित</w>": 7156,
      "09</w>": 7157,
      "चलते</w>": 7158,
      "झग": 7159,
      "reach</w>": 7160,
      "कात</w>": 7161,
      "गिरोह</w>": 7162,
      "righteous</w>": 7163,
      "material</w>": 7164,
      "विंडों</w>": 7165,
      "न्द": 7166,
      "Chil": 7167,
      "published</w>": 7168,
      "Gur": 7169,
      "क्री</w>": 7170,
      "केंद्र": 7171,
      "दायित्व</w>": 7172,
      "Commission</w>": 7173,
      "ites</w>": 7174,
      "decision</w>": 7175,
      "इंटर": 7176,
      "uty</w>": 7177,
      "Brah": 7178,
      "ghty</w>": 7179,
      "behalf</w>": 7180,
      "strength</w>": 7181,
      "सम्बन्ध</w>": 7182,
      "third</w>": 7183,
      "TO</w>": 7184,
      "ंबर</w>": 7185,
      "रिए</w>": 7186,
      "मानव": 7187,
      "manufac": 7188,
      "CH": 7189,
      "Educ": 7190,
      "actually</w>": 7191,
      "character</w>": 7192,
      "Accoun": 7193,
      "tification</w>": 7194,
      "वाक़ि": 7195,
      "served</w>": 7196,
      "groups</w>": 7197,
      "cut": 7198,
      "arri": 7199,
      "turns</w>": 7200,
      "custom": 7201,
      "सांस्कृतिक</w>": 7202,
      "Are</w>": 7203,
      "dated</w>": 7204,
      "टर्": 7205,
      "cho": 7206,
      "मिट्टी</w>": 7207,
      "Comment</w>": 7208,
      "cy": 7209,
      "jected</w>": 7210,
      "घरों</w>": 7211,
      "post</w>": 7212,
      "यूनि": 7213,
      "सदैव</w>": 7214,
      "ensure</w>": 7215,
      "निदेशक</w>": 7216,
      "ट्रा": 7217,
      "prayer</w>": 7218,
      "एक्स": 7219,
      "issues</w>": 7220,
      "अफ्री": 7221,
      "Technology</w>": 7222,
      "video</w>": 7223,
      "Commission": 7224,
      "गुनाह</w>": 7225,
      "care": 7226,
      "ecially</w>": 7227,
      "gation</w>": 7228,
      "load": 7229,
      "add</w>": 7230,
      "आरो": 7231,
      "इंडिया</w>": 7232,
      "hear</w>": 7233,
      "Pan": 7234,
      "चीज़": 7235,
      "2001</w>": 7236,
      "नये</w>": 7237,
      "asses</w>": 7238,
      "उल्लेख</w>": 7239,
      "SE": 7240,
      "दंड</w>": 7241,
      "नियत</w>": 7242,
      "belief</w>": 7243,
      "तकनीकी</w>": 7244,
      "IN</w>": 7245,
      "ign": 7246,
      "तेजी</w>": 7247,
      "कठिन</w>": 7248,
      "prepared</w>": 7249,
      "leaders</w>": 7250,
      "निशानियाँ</w>": 7251,
      "टो</w>": 7252,
      "ene": 7253,
      "फ़ाइ": 7254,
      "02</w>": 7255,
      "साफ़</w>": 7256,
      "entary</w>": 7257,
      "पहला</w>": 7258,
      "March</w>": 7259,
      "जिम्मे": 7260,
      "लगाया</w>": 7261,
      "ँगा</w>": 7262,
      "मुझ": 7263,
      "युवा</w>": 7264,
      "क्षेत्रीय</w>": 7265,
      "news</w>": 7266,
      "Republic</w>": 7267,
      "ईसा</w>": 7268,
      "demand</w>": 7269,
      "ping</w>": 7270,
      "काना</w>": 7271,
      "whoever</w>": 7272,
      "चं": 7273,
      "Sanskrit</w>": 7274,
      "istic</w>": 7275,
      "जिसको</w>": 7276,
      "presid": 7277,
      "situation</w>": 7278,
      "DE": 7279,
      "fare</w>": 7280,
      "रहेगा</w>": 7281,
      "difficult</w>": 7282,
      "Mis": 7283,
      "स्म</w>": 7284,
      "निकाल</w>": 7285,
      "Ram": 7286,
      "पहुँच</w>": 7287,
      "Leg": 7288,
      "correc": 7289,
      "ney</w>": 7290,
      "तरफ़</w>": 7291,
      "especially</w>": 7292,
      "स्टर</w>": 7293,
      "takes</w>": 7294,
      "ables</w>": 7295,
      "Pranab</w>": 7296,
      "लियन</w>": 7297,
      "Char": 7298,
      "फ़ै": 7299,
      "अंदर</w>": 7300,
      "दीर्": 7301,
      "Use</w>": 7302,
      "stage</w>": 7303,
      "river</w>": 7304,
      "इनके</w>": 7305,
      "Ja": 7306,
      "ªà</w>": 7307,
      "विज": 7308,
      "inion</w>": 7309,
      "original</w>": 7310,
      "unbelievers</w>": 7311,
      "ounded</w>": 7312,
      "super": 7313,
      "Chief</w>": 7314,
      "item</w>": 7315,
      "rules</w>": 7316,
      "रद्": 7317,
      "direct</w>": 7318,
      "covered</w>": 7319,
      "lam": 7320,
      "gir": 7321,
      "oose</w>": 7322,
      "बढ़ाने</w>": 7323,
      "गंभी": 7324,
      "besides</w>": 7325,
      "ials</w>": 7326,
      "Agr": 7327,
      "un</w>": 7328,
      "dispu": 7329,
      "खोल</w>": 7330,
      "feel</w>": 7331,
      "नेता</w>": 7332,
      "study</w>": 7333,
      "relations</w>": 7334,
      "Phar": 7335,
      "ograph": 7336,
      "बुरी</w>": 7337,
      "iture</w>": 7338,
      "move</w>": 7339,
      "eph": 7340,
      "easy</w>": 7341,
      "',</w>": 7342,
      "crore</w>": 7343,
      "कश्": 7344,
      "मज़": 7345,
      "physical</w>": 7346,
      "प्राप्ति</w>": 7347,
      "एँगे</w>": 7348,
      "ada</w>": 7349,
      "brary</w>": 7350,
      "Their</w>": 7351,
      "45</w>": 7352,
      "details</w>": 7353,
      "मेंट</w>": 7354,
      "Cop": 7355,
      "friends</w>": 7356,
      "values</w>": 7357,
      "execu": 7358,
      "HT": 7359,
      "versi": 7360,
      "Comp": 7361,
      "एह": 7362,
      "टक": 7363,
      "आंक": 7364,
      "cies</w>": 7365,
      "विरोध</w>": 7366,
      "देखें</w>": 7367,
      "figure</w>": 7368,
      "निग": 7369,
      "birth</w>": 7370,
      "front</w>": 7371,
      "कहेंगे</w>": 7372,
      "success</w>": 7373,
      "स्थितियों</w>": 7374,
      "वस्तुओं</w>": 7375,
      "05</w>": 7376,
      "स्मृ": 7377,
      "पृष्ठ": 7378,
      "ंसी</w>": 7379,
      "ste": 7380,
      "समी": 7381,
      "god</w>": 7382,
      "scre": 7383,
      "tel": 7384,
      "प्रशं": 7385,
      "ries</w>": 7386,
      "perform": 7387,
      "jar": 7388,
      "ilos": 7389,
      "साक्ष": 7390,
      "शैक्ष": 7391,
      "wro": 7392,
      "योगों</w>": 7393,
      "प्रसिद्ध</w>": 7394,
      "dered</w>": 7395,
      "accepted</w>": 7396,
      "die</w>": 7397,
      "यथा</w>": 7398,
      "mod": 7399,
      "veness</w>": 7400,
      "atures</w>": 7401,
      "iii</w>": 7402,
      "मध्य": 7403,
      "जीवित</w>": 7404,
      "आपस</w>": 7405,
      "गिज़</w>": 7406,
      "concerned</w>": 7407,
      "प्रशासन</w>": 7408,
      "मालिक</w>": 7409,
      "2008</w>": 7410,
      "पत्थर</w>": 7411,
      "uran</w>": 7412,
      "लेक्": 7413,
      "पुकार": 7414,
      "त्तर</w>": 7415,
      "लेता</w>": 7416,
      "dig": 7417,
      "sound</w>": 7418,
      "हीन</w>": 7419,
      "टेड</w>": 7420,
      "ghts</w>": 7421,
      "os</w>": 7422,
      "जिनका</w>": 7423,
      "opportunity</w>": 7424,
      "status</w>": 7425,
      "रुपये</w>": 7426,
      "tro": 7427,
      "भली</w>": 7428,
      "नाम": 7429,
      "फ़र": 7430,
      "flow</w>": 7431,
      "सबको</w>": 7432,
      "भाषण</w>": 7433,
      "flow": 7434,
      "erc": 7435,
      "offer": 7436,
      "नृ": 7437,
      "व्याव": 7438,
      "वैश्विक</w>": 7439,
      "संगत</w>": 7440,
      "क़ुरान</w>": 7441,
      "बनाकर</w>": 7442,
      "anded</w>": 7443,
      "encoura": 7444,
      "संभा": 7445,
      "पड़ता</w>": 7446,
      "ंभिक</w>": 7447,
      "कथ": 7448,
      "ade</w>": 7449,
      "करी</w>": 7450,
      "आत</w>": 7451,
      "इतनी</w>": 7452,
      "पहुंच": 7453,
      "नाई</w>": 7454,
      "person": 7455,
      "अर्थव्यवस्था</w>": 7456,
      "letter</w>": 7457,
      "Ram</w>": 7458,
      "शुभ": 7459,
      "power": 7460,
      "सिस्टम</w>": 7461,
      "बावजूद</w>": 7462,
      "तला": 7463,
      "करी": 7464,
      "वाता": 7465,
      "International</w>": 7466,
      "agreement</w>": 7467,
      "महिलाओं</w>": 7468,
      "कार्र": 7469,
      "providing</w>": 7470,
      "अंतरराष्ट्रीय</w>": 7471,
      "विनि": 7472,
      "accord": 7473,
      "इजरा": 7474,
      "अभ": 7475,
      "हिमा": 7476,
      "apply</w>": 7477,
      "इस्ला": 7478,
      "arch": 7479,
      "लाभ": 7480,
      "vol": 7481,
      "itary</w>": 7482,
      "Service</w>": 7483,
      "Fun": 7484,
      "वार्षिक</w>": 7485,
      "Lo</w>": 7486,
      "हानि</w>": 7487,
      "ishing</w>": 7488,
      "नसीहत</w>": 7489,
      "बढ़ावा</w>": 7490,
      "ढां": 7491,
      "देव</w>": 7492,
      "पश्चिमी</w>": 7493,
      "संघर्ष</w>": 7494,
      "wrote</w>": 7495,
      "patient</w>": 7496,
      "एल": 7497,
      "हरगिज़</w>": 7498,
      "During</w>": 7499,
      "नेवालों</w>": 7500,
      "ंज</w>": 7501,
      "assu": 7502,
      "appe": 7503,
      "evidence</w>": 7504,
      "बिल</w>": 7505,
      "May</w>": 7506,
      "dd": 7507,
      "lay</w>": 7508,
      "caused</w>": 7509,
      "Category</w>": 7510,
      "चढ़": 7511,
      "मिलने</w>": 7512,
      "hus": 7513,
      "reached</w>": 7514,
      "प्राय": 7515,
      "increased</w>": 7516,
      "ffer</w>": 7517,
      "ships</w>": 7518,
      "भेज</w>": 7519,
      "पंजा": 7520,
      "साद</w>": 7521,
      "गांव</w>": 7522,
      "gone</w>": 7523,
      "भला</w>": 7524,
      "मन्": 7525,
      "arrang": 7526,
      "similar</w>": 7527,
      "facilities</w>": 7528,
      "great": 7529,
      "sun</w>": 7530,
      "वेद": 7531,
      "ecting</w>": 7532,
      "instead</w>": 7533,
      "दृष्टिकोण</w>": 7534,
      "abled</w>": 7535,
      "prove</w>": 7536,
      "While</w>": 7537,
      "प्रयासों</w>": 7538,
      "विनिर्दिष्ट</w>": 7539,
      "born</w>": 7540,
      "ज्ञापन</w>": 7541,
      "तल</w>": 7542,
      "mar</w>": 7543,
      "plan</w>": 7544,
      "plus</w>": 7545,
      "मंड": 7546,
      "sh</w>": 7547,
      "becomes</w>": 7548,
      "विद्यु": 7549,
      "regard</w>": 7550,
      "उर्": 7551,
      "सड़": 7552,
      "..</w>": 7553,
      "साब</w>": 7554,
      "पीठ</w>": 7555,
      "बिजली</w>": 7556,
      "Ho": 7557,
      "लाता</w>": 7558,
      "employment</w>": 7559,
      "सव</w>": 7560,
      "अधिकतर</w>": 7561,
      "Tur": 7562,
      "डॉ</w>": 7563,
      "न्याय</w>": 7564,
      "समर्": 7565,
      "cultural</w>": 7566,
      "लेखक</w>": 7567,
      "Pat": 7568,
      "Progra": 7569,
      "thereof</w>": 7570,
      "dian</w>": 7571,
      "अधिकतम</w>": 7572,
      "हस्ताक्षर</w>": 7573,
      "nar": 7574,
      "न्ट</w>": 7575,
      "manif": 7576,
      "illing</w>": 7577,
      "एका": 7578,
      "docum": 7579,
      "App": 7580,
      "planation</w>": 7581,
      "पद्धति</w>": 7582,
      "urrection</w>": 7583,
      "bit</w>": 7584,
      "प्रयुक्त</w>": 7585,
      "राब</w>": 7586,
      "रोज़ी</w>": 7587,
      "बनाई</w>": 7588,
      "धो": 7589,
      "approach</w>": 7590,
      "मूल्या": 7591,
      "bul": 7592,
      "yers</w>": 7593,
      "names</w>": 7594,
      "बित</w>": 7595,
      "वाहि": 7596,
      "died</w>": 7597,
      "infrastructure</w>": 7598,
      "wide</w>": 7599,
      "पाए</w>": 7600,
      "क़रीब</w>": 7601,
      "pho": 7602,
      "Kash": 7603,
      "पड़</w>": 7604,
      "सामान</w>": 7605,
      "ounds</w>": 7606,
      "खाद्य</w>": 7607,
      "हिसाब</w>": 7608,
      "morning</w>": 7609,
      "bun": 7610,
      "corpor": 7611,
      "importance</w>": 7612,
      "Hereafter</w>": 7613,
      "IT</w>": 7614,
      "भरो": 7615,
      "began</w>": 7616,
      "विस्तृत</w>": 7617,
      "200</w>": 7618,
      "हालांकि</w>": 7619,
      "yourselves</w>": 7620,
      "आस": 7621,
      "unless</w>": 7622,
      "stem</w>": 7623,
      "ज़रु": 7624,
      "दिखाया</w>": 7625,
      "air": 7626,
      "sof": 7627,
      "tton</w>": 7628,
      "Save</w>": 7629,
      "परस्": 7630,
      "Cur": 7631,
      "दिये</w>": 7632,
      "bey": 7633,
      "चिन्": 7634,
      "भेद</w>": 7635,
      "belongs</w>": 7636,
      "खी": 7637,
      "expla": 7638,
      "शख़्": 7639,
      "programmes</w>": 7640,
      "रक्त</w>": 7641,
      "सज": 7642,
      "rather</w>": 7643,
      "lik": 7644,
      "सरक": 7645,
      "500</w>": 7646,
      "न्वे": 7647,
      "unit</w>": 7648,
      "responsible</w>": 7649,
      "perf": 7650,
      "निर्देश</w>": 7651,
      "हृदय</w>": 7652,
      "Officer</w>": 7653,
      "हिर</w>": 7654,
      "अंग</w>": 7655,
      "Bas": 7656,
      "असफल</w>": 7657,
      "2002</w>": 7658,
      "Eng": 7659,
      "gain": 7660,
      "सूक्ष्": 7661,
      "तर्क</w>": 7662,
      "ck": 7663,
      "सलाह</w>": 7664,
      "उद्य": 7665,
      "aver": 7666,
      "ode</w>": 7667,
      "dru": 7668,
      "poet</w>": 7669,
      "मार्गदर्शन</w>": 7670,
      "कहानी</w>": 7671,
      "record</w>": 7672,
      "effective</w>": 7673,
      "प्राप्": 7674,
      "Pak": 7675,
      "estiv": 7676,
      "conver": 7677,
      "Commissioner</w>": 7678,
      "beyond</w>": 7679,
      "रौ": 7680,
      "शु</w>": 7681,
      "माँ</w>": 7682,
      "बूल</w>": 7683,
      "event</w>": 7684,
      "अपील</w>": 7685,
      "कल्या": 7686,
      "विरो": 7687,
      "ingu": 7688,
      "समक्ष</w>": 7689,
      "sky</w>": 7690,
      "75</w>": 7691,
      "sanc": 7692,
      "specific</w>": 7693,
      "Africa</w>": 7694,
      "संग्रह</w>": 7695,
      "fund</w>": 7696,
      "सहम": 7697,
      "normal</w>": 7698,
      "पाई</w>": 7699,
      "च्छ</w>": 7700,
      "sons</w>": 7701,
      "prescribed</w>": 7702,
      "band</w>": 7703,
      "दूर": 7704,
      "fort": 7705,
      "सूस</w>": 7706,
      "princi": 7707,
      "gets</w>": 7708,
      "प्रभु": 7709,
      "शुभकाम": 7710,
      "“”</w>": 7711,
      "निप": 7712,
      "histor": 7713,
      "मिला": 7714,
      "शक़</w>": 7715,
      "संलग्": 7716,
      "ulture</w>": 7717,
      "strument</w>": 7718,
      "बचा</w>": 7719,
      "device</w>": 7720,
      "relev": 7721,
      "AL": 7722,
      "Sw": 7723,
      "World</w>": 7724,
      "Secret": 7725,
      "चरि": 7726,
      "shown</w>": 7727,
      "fif": 7728,
      "अवै": 7729,
      "परा</w>": 7730,
      "पैग़म्बर</w>": 7731,
      "¤®</w>": 7732,
      "खाली</w>": 7733,
      "felt</w>": 7734,
      "श्रेणी</w>": 7735,
      "Ge": 7736,
      "--</w>": 7737,
      "वें</w>": 7738,
      "ago</w>": 7739,
      "फ्रे": 7740,
      "भंड": 7741,
      "कुंजी</w>": 7742,
      "check</w>": 7743,
      "Of</w>": 7744,
      "cast</w>": 7745,
      "खिल</w>": 7746,
      "न्वयन</w>": 7747,
      "अल</w>": 7748,
      "मिलकर</w>": 7749,
      "enting</w>": 7750,
      "Krish": 7751,
      "San": 7752,
      "हरों</w>": 7753,
      "music</w>": 7754,
      "आयु</w>": 7755,
      "enter": 7756,
      "नागरिक</w>": 7757,
      "दै": 7758,
      "ils</w>": 7759,
      "करनेवाला</w>": 7760,
      "07</w>": 7761,
      "फ़ी</w>": 7762,
      "क्षेप</w>": 7763,
      "heard</w>": 7764,
      "bit": 7765,
      "मानता</w>": 7766,
      "idea</w>": 7767,
      "scrip": 7768,
      "खोलें</w>": 7769,
      "option</w>": 7770,
      "ट्रै": 7771,
      "बहा": 7772,
      "refl": 7773,
      "सामना</w>": 7774,
      "खे</w>": 7775,
      "वितरण</w>": 7776,
      "कारि": 7777,
      "powers</w>": 7778,
      "स्पष्टीकरण</w>": 7779,
      "नम</w>": 7780,
      "accounts</w>": 7781,
      "languages</w>": 7782,
      "Hell</w>": 7783,
      "dy": 7784,
      "स्पर्": 7785,
      "तेल</w>": 7786,
      "90</w>": 7787,
      "sper": 7788,
      "returned</w>": 7789,
      "Gujar": 7790,
      "dam": 7791,
      "han": 7792,
      "तव्य</w>": 7793,
      "folk</w>": 7794,
      "कटौती</w>": 7795,
      "उपयुक्त</w>": 7796,
      "यूशन</w>": 7797,
      "वायदा</w>": 7798,
      "इच्छा</w>": 7799,
      "Sam": 7800,
      "खड़ा</w>": 7801,
      "03</w>": 7802,
      "सागर</w>": 7803,
      "portion</w>": 7804,
      "शुद्ध</w>": 7805,
      "ER</w>": 7806,
      "spirit": 7807,
      "Grou": 7808,
      "युग</w>": 7809,
      "Trans": 7810,
      "docu": 7811,
      "eping</w>": 7812,
      "understanding</w>": 7813,
      "forb": 7814,
      "उपबंध</w>": 7815,
      "activity</w>": 7816,
      "chasti": 7817,
      "document</w>": 7818,
      "ler</w>": 7819,
      "देवी</w>": 7820,
      "la</w>": 7821,
      "rivers</w>": 7822,
      "पाते</w>": 7823,
      "ग्रे": 7824,
      "प्रोग्राम</w>": 7825,
      "Spea": 7826,
      "ancient</w>": 7827,
      "35</w>": 7828,
      "कारबार</w>": 7829,
      ")।</w>": 7830,
      "bon": 7831,
      "taining</w>": 7832,
      "law": 7833,
      "पां": 7834,
      "डिंग</w>": 7835,
      "gain</w>": 7836,
      "परस्पर</w>": 7837,
      "तत्व</w>": 7838,
      "लिखने</w>": 7839,
      "कर्मचारियों</w>": 7840,
      "गतिविधियों</w>": 7841,
      ".'</w>": 7842,
      "सज़ा</w>": 7843,
      "किस्तान</w>": 7844,
      "ट्रे": 7845,
      "खर</w>": 7846,
      "शिका</w>": 7847,
      "ग़</w>": 7848,
      "style</w>": 7849,
      "हिन्दू</w>": 7850,
      "अके": 7851,
      "anal": 7852,
      "Project</w>": 7853,
      "View</w>": 7854,
      "शय</w>": 7855,
      "setting</w>": 7856,
      "क्लिक</w>": 7857,
      "goes</w>": 7858,
      "Wise</w>": 7859,
      "program</w>": 7860,
      "iter": 7861,
      "अनुप्रयोग</w>": 7862,
      "समुद्र</w>": 7863,
      "र्ण</w>": 7864,
      "comb": 7865,
      "Me</w>": 7866,
      "ram</w>": 7867,
      "ड़ने</w>": 7868,
      "instrument</w>": 7869,
      "sian</w>": 7870,
      "दास</w>": 7871,
      "कोड</w>": 7872,
      "tered</w>": 7873,
      "तृत्व</w>": 7874,
      "Education</w>": 7875,
      "काव्य</w>": 7876,
      "cli": 7877,
      "चलता</w>": 7878,
      "टवेयर</w>": 7879,
      "देय</w>": 7880,
      "व्यवसा": 7881,
      "कूट": 7882,
      "पहुँच": 7883,
      "titude</w>": 7884,
      "नामक</w>": 7885,
      "ल्स</w>": 7886,
      "sum</w>": 7887,
      "विश्ले": 7888,
      "Quran</w>": 7889,
      "gro": 7890,
      "तय</w>": 7891,
      "‍य</w>": 7892,
      "ley</w>": 7893,
      "ग्रं": 7894,
      "Centre</w>": 7895,
      "mag": 7896,
      "द्वीप</w>": 7897,
      "उसपर</w>": 7898,
      "दृढ़</w>": 7899,
      "daugh": 7900,
      "ior</w>": 7901,
      "जानी</w>": 7902,
      "sement</w>": 7903,
      "धानी</w>": 7904,
      "बीमा</w>": 7905,
      "आसान</w>": 7906,
      "तरिक</w>": 7907,
      "मानी</w>": 7908,
      "rain</w>": 7909,
      "recor": 7910,
      "मतलब</w>": 7911,
      "Failed</w>": 7912,
      "वाओं</w>": 7913,
      "इबाद": 7914,
      "काफ़ि": 7915,
      "exce": 7916,
      "friend</w>": 7917,
      "जर्": 7918,
      "lands</w>": 7919,
      "dn</w>": 7920,
      "जिए</w>": 7921,
      "added</w>": 7922,
      "AL</w>": 7923,
      "हाथों</w>": 7924,
      "North</w>": 7925,
      "houses</w>": 7926,
      "sight</w>": 7927,
      "प्प": 7928,
      "Tam": 7929,
      "ख़</w>": 7930,
      "connection</w>": 7931,
      "parents</w>": 7932,
      "beginning</w>": 7933,
      "white</w>": 7934,
      "mighty</w>": 7935,
      "directly</w>": 7936,
      "त्मा</w>": 7937,
      "mal": 7938,
      "round</w>": 7939,
      "note</w>": 7940,
      "cele": 7941,
      "treatment</w>": 7942,
      "ology</w>": 7943,
      "सदन</w>": 7944,
      "प्रसन्": 7945,
      "कक्ष</w>": 7946,
      "addres": 7947,
      "getting</w>": 7948,
      "सकेगा</w>": 7949,
      "supported</w>": 7950,
      "ire": 7951,
      "lakh</w>": 7952,
      "generation</w>": 7953,
      "refu": 7954,
      "सुं": 7955,
      "mand": 7956,
      "filled</w>": 7957,
      "माबू": 7958,
      "मुर्": 7959,
      "Ob": 7960,
      "steps</w>": 7961,
      "loan</w>": 7962,
      "default</w>": 7963,
      "film</w>": 7964,
      "copy</w>": 7965,
      "बता</w>": 7966,
      "नेवाली</w>": 7967,
      "servants</w>": 7968,
      "रिकों</w>": 7969,
      "ro</w>": 7970,
      "सच</w>": 7971,
      "Evolution</w>": 7972,
      "mom": 7973,
      "यण</w>": 7974,
      "quite</w>": 7975,
      "inten": 7976,
      "existing</w>": 7977,
      "nical</w>": 7978,
      "exper": 7979,
      "मानसिक</w>": 7980,
      "answer</w>": 7981,
      "खुशी</w>": 7982,
      "existence</w>": 7983,
      "आख़िर</w>": 7984,
      "सश": 7985,
      "ढ़ी</w>": 7986,
      "वातावरण</w>": 7987,
      "समर्थ</w>": 7988,
      "arm</w>": 7989,
      "इबादत</w>": 7990,
      "वालो</w>": 7991,
      "सर्वा": 7992,
      "wanted</w>": 7993,
      "नियुक्त</w>": 7994,
      "hur": 7995,
      "अद्य": 7996,
      "Off": 7997,
      ",\"</w>": 7998,
      "stly</w>": 7999,
      "method</w>": 8000,
      "Many</w>": 8001,
      "Ri": 8002,
      "aught</w>": 8003,
      "शुरु": 8004,
      "करनेवाले</w>": 8005,
      "जाएं</w>": 8006,
      "Chand": 8007,
      "philos": 8008,
      "Scheme</w>": 8009,
      "कदा": 8010,
      "शीर्ष</w>": 8011,
      ":-</w>": 8012,
      "सरा": 8013,
      "article</w>": 8014,
      "निम्न</w>": 8015,
      "ून</w>": 8016,
      "देकर</w>": 8017,
      "agar</w>": 8018,
      "Therefore</w>": 8019,
      "cru": 8020,
      "स्ना": 8021,
      "स्मृति</w>": 8022,
      "Le": 8023,
      "गवाह</w>": 8024,
      "महसूस</w>": 8025,
      "Gang": 8026,
      "Na": 8027,
      "लाव</w>": 8028,
      "सरण</w>": 8029,
      "object</w>": 8030,
      "निरंतर</w>": 8031,
      "location</w>": 8032,
      "deep</w>": 8033,
      "इत्या": 8034,
      "पूर्वा": 8035,
      "Goo": 8036,
      "encies</w>": 8037,
      "रहें</w>": 8038,
      "point": 8039,
      "पुट</w>": 8040,
      "AN</w>": 8041,
      "Win": 8042,
      "dows</w>": 8043,
      "जाग": 8044,
      "Bal": 8045,
      "lie</w>": 8046,
      "US</w>": 8047,
      "Pharao": 8048,
      "पें": 8049,
      "Research</w>": 8050,
      "ारण</w>": 8051,
      "instal": 8052,
      "may": 8053,
      "Punj": 8054,
      "23": 8055,
      "ताएं</w>": 8056,
      "avo": 8057,
      "Pharaoh</w>": 8058,
      "bac": 8059,
      "undred</w>": 8060,
      "citizens</w>": 8061,
      "एच": 8062,
      "iling</w>": 8063,
      "जनवरी</w>": 8064,
      "गठन</w>": 8065,
      "scale</w>": 8066,
      "ees</w>": 8067,
      "eared</w>": 8068,
      "central</w>": 8069,
      "reading</w>": 8070,
      "concerning</w>": 8071,
      "systems</w>": 8072,
      "eal</w>": 8073,
      "Who": 8074,
      "uary</w>": 8075,
      "सप्ता": 8076,
      "साम्रा": 8077,
      "bene": 8078,
      "प्रेरित</w>": 8079,
      "अवैध</w>": 8080,
      "यत्": 8081,
      "जिनकी</w>": 8082,
      "¥</w>": 8083,
      "saf": 8084,
      "अन्तर्": 8085,
      "ancy</w>": 8086,
      "मना": 8087,
      "aring</w>": 8088,
      "तौबा</w>": 8089,
      "कठोर</w>": 8090,
      "tis</w>": 8091,
      "Nov": 8092,
      "पदार्थ</w>": 8093,
      "ush</w>": 8094,
      "रन</w>": 8095,
      "quar": 8096,
      "शिक</w>": 8097,
      "tribu": 8098,
      "Rel": 8099,
      "Sal": 8100,
      "wil": 8101,
      "अवि": 8102,
      "eption</w>": 8103,
      "शून्य</w>": 8104,
      "झुठलाया</w>": 8105,
      "pass</w>": 8106,
      "सानी</w>": 8107,
      "claim</w>": 8108,
      "कविता</w>": 8109,
      "simple</w>": 8110,
      "ये": 8111,
      "मुक़": 8112,
      "ज़ू": 8113,
      "produced</w>": 8114,
      "changed</w>": 8115,
      "पार्टी</w>": 8116,
      "speech</w>": 8117,
      "शकों</w>": 8118,
      "flic": 8119,
      "mentioned</w>": 8120,
      "usually</w>": 8121,
      "दावा</w>": 8122,
      "खेती</w>": 8123,
      "sin</w>": 8124,
      "verses</w>": 8125,
      "new": 8126,
      "certificate</w>": 8127,
      "cat": 8128,
      "¤¤</w>": 8129,
      "remin": 8130,
      "limited</w>": 8131,
      "].</w>": 8132,
      "presented</w>": 8133,
      "enditure</w>": 8134,
      "Abra": 8135,
      "deal</w>": 8136,
      "अनुमो": 8137,
      "लेखन</w>": 8138,
      "agricultural</w>": 8139,
      "तिथि</w>": 8140,
      "भाल</w>": 8141,
      "ख़ास</w>": 8142,
      "अस्ति": 8143,
      "फल": 8144,
      "asset</w>": 8145,
      "मिले</w>": 8146,
      "वारों</w>": 8147,
      "अंतर्राष्ट्रीय</w>": 8148,
      "oundation</w>": 8149,
      "स्वतंत्र</w>": 8150,
      "range</w>": 8151,
      "विदेश</w>": 8152,
      "सरल</w>": 8153,
      "ग्रस्त</w>": 8154,
      "obey</w>": 8155,
      "exerc": 8156,
      "ृंख": 8157,
      "dule</w>": 8158,
      "शुभकामनाएं</w>": 8159,
      "hundred</w>": 8160,
      "नस्": 8161,
      "1999</w>": 8162,
      "proper</w>": 8163,
      "पत्नी</w>": 8164,
      "ारिश</w>": 8165,
      "कार्रवाई</w>": 8166,
      "basic</w>": 8167,
      "भरोसा</w>": 8168,
      "भाँ": 8169,
      "ग्र</w>": 8170,
      "riage</w>": 8171,
      "commer": 8172,
      "स्वागत</w>": 8173,
      "इन्हें</w>": 8174,
      "मूल्यांकन</w>": 8175,
      "70</w>": 8176,
      "etings</w>": 8177,
      "मान्": 8178,
      "पूर्ववर्ष</w>": 8179,
      "पुराने</w>": 8180,
      "ब्रह्": 8181,
      "Kal": 8182,
      "भय</w>": 8183,
      "female</w>": 8184,
      "pha": 8185,
      "Today</w>": 8186,
      "अक्सर</w>": 8187,
      "गुमरा": 8188,
      "नक": 8189,
      "चुनाव</w>": 8190,
      "pursu": 8191,
      "फेर</w>": 8192,
      "बढ़कर</w>": 8193,
      "surance</w>": 8194,
      "परीक्षण</w>": 8195,
      "Emp": 8196,
      "omb": 8197,
      "cover</w>": 8198,
      "समस्याओं</w>": 8199,
      "संपूर्ण</w>": 8200,
      "अन्त": 8201,
      "Will</w>": 8202,
      "piec": 8203,
      "Islamic</w>": 8204,
      "heaven</w>": 8205,
      "learning</w>": 8206,
      "मुह": 8207,
      "बुद्धि</w>": 8208,
      "resh</w>": 8209,
      "direction</w>": 8210,
      "PO": 8211,
      "hen": 8212,
      "थियों</w>": 8213,
      "दत्त</w>": 8214,
      "ept": 8215,
      "ढूं": 8216,
      "कितने</w>": 8217,
      "उत्कृ": 8218,
      "meaning</w>": 8219,
      "giveness</w>": 8220,
      "यूरोप</w>": 8221,
      "running</w>": 8222,
      "fixed</w>": 8223,
      "मंच</w>": 8224,
      "मुक़ा": 8225,
      "सुधार": 8226,
      "Rev": 8227,
      "चलो</w>": 8228,
      "जंग": 8229,
      "worl": 8230,
      "भेजे</w>": 8231,
      "AND</w>": 8232,
      "वेतन</w>": 8233,
      "Abraham</w>": 8234,
      "rac": 8235,
      "वाणि": 8236,
      "eam</w>": 8237,
      "parties</w>": 8238,
      "निहित</w>": 8239,
      "ises</w>": 8240,
      "fathers</w>": 8241,
      "generally</w>": 8242,
      "Resurrection</w>": 8243,
      "Fir": 8244,
      "Lea": 8245,
      "bes</w>": 8246,
      "मिलती</w>": 8247,
      "मूल": 8248,
      "पेज</w>": 8249,
      "thousand</w>": 8250,
      "परियोजनाओं</w>": 8251,
      "पारि": 8252,
      "ati": 8253,
      "racy</w>": 8254,
      "कार्यक्रमों</w>": 8255,
      "continued</w>": 8256,
      "notice</w>": 8257,
      "तिहासिक</w>": 8258,
      "til": 8259,
      "चीत</w>": 8260,
      "Europe</w>": 8261,
      "उम्मीद</w>": 8262,
      "कलन</w>": 8263,
      "emes</w>": 8264,
      "del</w>": 8265,
      "Sim": 8266,
      "हवा</w>": 8267,
      "forces</w>": 8268,
      "पात्र</w>": 8269,
      "thern</w>": 8270,
      "elled</w>": 8271,
      "बात": 8272,
      "scho": 8273,
      "ोल्यूशन</w>": 8274,
      "gies</w>": 8275,
      "हल</w>": 8276,
      "January</w>": 8277,
      "Jam": 8278,
      "oil</w>": 8279,
      "मिशन</w>": 8280,
      "दूध</w>": 8281,
      "faces</w>": 8282,
      "कराने</w>": 8283,
      "सहेजें</w>": 8284,
      "Gi": 8285,
      "mary</w>": 8286,
      "मुला": 8287,
      "Corpor": 8288,
      "knew</w>": 8289,
      "enh": 8290,
      "संबो": 8291,
      "abad</w>": 8292,
      "सुझा": 8293,
      "regarding</w>": 8294,
      "अफ्रीका</w>": 8295,
      "प्रसन्नता</w>": 8296,
      "awar": 8297,
      "bad</w>": 8298,
      "rent</w>": 8299,
      "beauti": 8300,
      "यहू": 8301,
      "किल</w>": 8302,
      "excell": 8303,
      "लगाने</w>": 8304,
      "आयोजन</w>": 8305,
      "अरब</w>": 8306,
      "deal": 8307,
      "nership</w>": 8308,
      "शख़्श</w>": 8309,
      "धक</w>": 8310,
      "मानो</w>": 8311,
      "remove</w>": 8312,
      "directory</w>": 8313,
      "भलाई</w>": 8314,
      "aka</w>": 8315,
      "December</w>": 8316,
      "ैर</w>": 8317,
      "ero": 8318,
      "कितनी</w>": 8319,
      "plants</w>": 8320,
      "former</w>": 8321,
      "she": 8322,
      "तरी</w>": 8323,
      "connected</w>": 8324,
      "पर्यटन</w>": 8325,
      "Kashm": 8326,
      "ल्ला</w>": 8327,
      "responsibility</w>": 8328,
      "बन्द</w>": 8329,
      "URL</w>": 8330,
      "सिद्धांत</w>": 8331,
      "निगम</w>": 8332,
      "ological</w>": 8333,
      "सत्र</w>": 8334,
      "ख़र्च</w>": 8335,
      "trem": 8336,
      "esh</w>": 8337,
      "associated</w>": 8338,
      "Add": 8339,
      "लिख</w>": 8340,
      "liber": 8341,
      "2011</w>": 8342,
      "addition</w>": 8343,
      "परिणाम": 8344,
      "Scrip": 8345,
      "display</w>": 8346,
      "Ba": 8347,
      "LE": 8348,
      "बारा</w>": 8349,
      "doc": 8350,
      "शिकायत</w>": 8351,
      "Ter": 8352,
      "संग्र": 8353,
      "वर्ण": 8354,
      "04</w>": 8355,
      "top": 8356,
      "destroyed</w>": 8357,
      "वट</w>": 8358,
      "उपाय</w>": 8359,
      "elop</w>": 8360,
      "ल्ड</w>": 8361,
      "statement</w>": 8362,
      "pon": 8363,
      "ams</w>": 8364,
      "दस्तावेज</w>": 8365,
      "गंभीर</w>": 8366,
      "ton</w>": 8367,
      "यि": 8368,
      "स्व</w>": 8369,
      "kin": 8370,
      "ont</w>": 8371,
      "stood</w>": 8372,
      "lose</w>": 8373,
      "अभियान</w>": 8374,
      "Accor": 8375,
      "वृत्त</w>": 8376,
      "प्रार्थ": 8377,
      "करार</w>": 8378,
      "उत्तम</w>": 8379,
      "eling</w>": 8380,
      "ज़ी": 8381,
      "endra</w>": 8382,
      "जायेगा</w>": 8383,
      "आयुक्त</w>": 8384,
      "तुर्": 8385,
      "tried</w>": 8386,
      "practice</w>": 8387,
      "आतंकवाद</w>": 8388,
      "हराम</w>": 8389,
      "नवान्वे": 8390,
      "CD</w>": 8391,
      "इंजी": 8392,
      "मुख्य": 8393,
      "ideas</w>": 8394,
      "improv": 8395,
      "गणराज्य</w>": 8396,
      "ज्य": 8397,
      "बजे</w>": 8398,
      "suffer": 8399,
      "carry</w>": 8400,
      "केन्द्र": 8401,
      "lines</w>": 8402,
      "खूब</w>": 8403,
      "बरी</w>": 8404,
      "Loc": 8405,
      "Te": 8406,
      "pul": 8407,
      "session</w>": 8408,
      "आइ": 8409,
      "asc": 8410,
      "तकली": 8411,
      "झूठ</w>": 8412,
      "AR</w>": 8413,
      "नेतृत्व</w>": 8414,
      "appropri": 8415,
      "इत्यादि</w>": 8416,
      "ento": 8417,
      "immediately</w>": 8418,
      "SH": 8419,
      "tober</w>": 8420,
      "porary</w>": 8421,
      "हॉ": 8422,
      "ज़ुल्म</w>": 8423,
      "षों</w>": 8424,
      "ताव": 8425,
      "successful</w>": 8426,
      "relevant</w>": 8427,
      "भाँति</w>": 8428,
      "प्रच": 8429,
      "इरा": 8430,
      "Supreme</w>": 8431,
      "estic</w>": 8432,
      "धिकार</w>": 8433,
      "grant</w>": 8434,
      "password</w>": 8435,
      "Ku": 8436,
      "ट्रो": 8437,
      "htm</w>": 8438,
      "उप</w>": 8439,
      "insec": 8440,
      "होनी</w>": 8441,
      "units</w>": 8442,
      "स्क्रीन</w>": 8443,
      "oured</w>": 8444,
      "पेट</w>": 8445,
      "निशानी</w>": 8446,
      "संस्थाओं</w>": 8447,
      "Legis": 8448,
      "spend</w>": 8449,
      "syn": 8450,
      "UT": 8451,
      "Up": 8452,
      "अनुवाद</w>": 8453,
      "animals</w>": 8454,
      "aid</w>": 8455,
      "२००": 8456,
      "अनुसरण</w>": 8457,
      "medic": 8458,
      "समाचार</w>": 8459,
      "job</w>": 8460,
      "Bar": 8461,
      "कृत": 8462,
      "presence</w>": 8463,
      "kh": 8464,
      "बंधों</w>": 8465,
      "wishes</w>": 8466,
      "Sig": 8467,
      "टिक</w>": 8468,
      "faith": 8469,
      "अंतरण</w>": 8470,
      "Mal": 8471,
      "पवि": 8472,
      "ML</w>": 8473,
      "disci": 8474,
      "सामान्य": 8475,
      "किरा": 8476,
      "painful</w>": 8477,
      "सुन</w>": 8478,
      "lege</w>": 8479,
      "मती</w>": 8480,
      "please</w>": 8481,
      "बुनिया": 8482,
      "विद्युत</w>": 8483,
      "ँव</w>": 8484,
      "जातियों</w>": 8485,
      "Only</w>": 8486,
      "Ass": 8487,
      "ming</w>": 8488,
      "strate</w>": 8489,
      "सें": 8490,
      "एवोल्यूशन</w>": 8491,
      "32</w>": 8492,
      "step</w>": 8493,
      "विवे": 8494,
      "बेटे</w>": 8495,
      "Yet</w>": 8496,
      "construction</w>": 8497,
      "crimin": 8498,
      "types</w>": 8499,
      "October</w>": 8500,
      "गर": 8501,
      "autom": 8502,
      "Provided</w>": 8503,
      "stances</w>": 8504,
      "deri": 8505,
      "purcha": 8506,
      "companies</w>": 8507,
      "late</w>": 8508,
      "चना</w>": 8509,
      "मिन</w>": 8510,
      "cities</w>": 8511,
      "उपचार</w>": 8512,
      "अस्तित्व</w>": 8513,
      "icro": 8514,
      "बदलें</w>": 8515,
      "NO": 8516,
      "bla": 8517,
      "looking</w>": 8518,
      "banks</w>": 8519,
      "spiritual</w>": 8520,
      "link</w>": 8521,
      "परहे": 8522,
      "निरा": 8523,
      "नाइ": 8524,
      "echan": 8525,
      "ईमानदारों</w>": 8526,
      "umbai</w>": 8527,
      "कल्याण</w>": 8528,
      "Hy": 8529,
      "wait</w>": 8530,
      "हिंदू</w>": 8531,
      "solu": 8532,
      "ंस": 8533,
      "साधन</w>": 8534,
      "जोड़</w>": 8535,
      "American</w>": 8536,
      "आम": 8537,
      "labor": 8538,
      "बनाते</w>": 8539,
      "opportunities</w>": 8540,
      "software</w>": 8541,
      "बातचीत</w>": 8542,
      "alty</w>": 8543,
      "findia</w>": 8544,
      "build</w>": 8545,
      "आस्ति</w>": 8546,
      "Em": 8547,
      "alist</w>": 8548,
      "अभिलेख</w>": 8549,
      "anyone</w>": 8550,
      "therwise</w>": 8551,
      "conven": 8552,
      "मुना": 8553,
      "degre": 8554,
      "मानक</w>": 8555,
      "बढ़ा</w>": 8556,
      "पहुँचा": 8557,
      "famous</w>": 8558,
      "मस्": 8559,
      "ट्यू": 8560,
      "poetry</w>": 8561,
      "presidento": 8562,
      "लिब</w>": 8563,
      "समे": 8564,
      "grace</w>": 8565,
      "dens</w>": 8566,
      "दिना": 8567,
      "presidentofindia</w>": 8568,
      "sle": 8569,
      "चर": 8570,
      "न्वित</w>": 8571,
      "रास्ता</w>": 8572,
      "imed</w>": 8573,
      "feet</w>": 8574,
      "ods</w>": 8575,
      "ईं</w>": 8576,
      "मशी": 8577,
      "जून</w>": 8578,
      "yan</w>": 8579,
      "अंतर</w>": 8580,
      "revelations</w>": 8581,
      "06</w>": 8582,
      "¤</w>": 8583,
      "potential</w>": 8584,
      "गू": 8585,
      "गंगा</w>": 8586,
      "कें</w>": 8587,
      "विद्यार्थियों</w>": 8588,
      "forgiveness</w>": 8589,
      "lot": 8590,
      "isible</w>": 8591,
      "medical</w>": 8592,
      "वेक्षण</w>": 8593,
      "बिक्री</w>": 8594,
      "Explanation</w>": 8595,
      "घाटन</w>": 8596,
      "ऐतिहासिक</w>": 8597,
      "पड़ी</w>": 8598,
      "recomm": 8599,
      "बनाएँ</w>": 8600,
      "numbers</w>": 8601,
      "स्त्रियों</w>": 8602,
      "particularly</w>": 8603,
      "base</w>": 8604,
      "नुसार</w>": 8605,
      "डरते</w>": 8606,
      "आदर्श</w>": 8607,
      "निर्देशिका</w>": 8608,
      "पाकिस्तान</w>": 8609,
      "लेखा": 8610,
      "ims</w>": 8611,
      "met</w>": 8612,
      "तापूर्वक</w>": 8613,
      "म्मद</w>": 8614,
      "ज़्या": 8615,
      "गुप्त</w>": 8616,
      "industries</w>": 8617,
      "आध्या": 8618,
      "ब्रे": 8619,
      "includes</w>": 8620,
      "occup": 8621,
      "November</w>": 8622,
      "आन</w>": 8623,
      "पसन्": 8624,
      "contains</w>": 8625,
      "max": 8626,
      "sides</w>": 8627,
      "कर्मचारी</w>": 8628,
      "ME": 8629,
      "खो</w>": 8630,
      "दिख": 8631,
      "workers</w>": 8632,
      "अत्यधिक</w>": 8633,
      "मोड</w>": 8634,
      "संगण": 8635,
      "पंचांग</w>": 8636,
      "allow</w>": 8637,
      "पूजा</w>": 8638,
      "कद": 8639,
      "learn</w>": 8640,
      "प्राथमि": 8641,
      "खंड": 8642,
      "घे": 8643,
      "ज़ालिम</w>": 8644,
      "आयतें</w>": 8645,
      "Cap": 8646,
      "Do": 8647,
      "jun": 8648,
      "कौशल</w>": 8649,
      "da</w>": 8650,
      "मानित</w>": 8651,
      "ace": 8652,
      "measure</w>": 8653,
      "scientific</w>": 8654,
      "सप्ताह</w>": 8655,
      "Which</w>": 8656,
      "संबंधों</w>": 8657,
      "बुनियादी</w>": 8658,
      "आध्यात्": 8659,
      "offer</w>": 8660,
      "मुसलमान</w>": 8661,
      "26": 8662,
      "शनल</w>": 8663,
      "यमान</w>": 8664,
      "ठिकाना</w>": 8665,
      "बैंकों</w>": 8666,
      "अदा": 8667,
      "बाँ": 8668,
      "content</w>": 8669,
      "talk</w>": 8670,
      "वाय</w>": 8671,
      "assistance</w>": 8672,
      "worshi": 8673,
      "traditional</w>": 8674,
      "गीत</w>": 8675,
      "legis": 8676,
      "judge</w>": 8677,
      "त्रिका</w>": 8678,
      "era</w>": 8679,
      "नाट": 8680,
      "ष्क</w>": 8681,
      "कीमत</w>": 8682,
      "पंक्ति</w>": 8683,
      "कृष्ण</w>": 8684,
      "किसान</w>": 8685,
      "ingdom</w>": 8686,
      "क्ट</w>": 8687,
      "द्वार</w>": 8688,
      "कॉन्": 8689,
      "ggle</w>": 8690,
      "NAME</w>": 8691,
      "Message</w>": 8692,
      "Pakistan</w>": 8693,
      "Ay": 8694,
      "Fa": 8695,
      "laid</w>": 8696,
      "स्थानों</w>": 8697,
      "भगवान</w>": 8698,
      "गुमराही</w>": 8699,
      "वादा</w>": 8700,
      "¤¯</w>": 8701,
      "इतने</w>": 8702,
      "चक</w>": 8703,
      "विध</w>": 8704,
      "वार्": 8705,
      "sufficient</w>": 8706,
      "boy</w>": 8707,
      "located</w>": 8708,
      "मिटाएँ</w>": 8709,
      "bha": 8710,
      "marks</w>": 8711,
      "खुले</w>": 8712,
      "pping</w>": 8713,
      "सोच</w>": 8714,
      "risti": 8715,
      "Search</w>": 8716,
      "thro": 8717,
      "adise</w>": 8718,
      "attemp": 8719,
      "divided</w>": 8720,
      "जमा": 8721,
      "cred": 8722,
      "देखभाल</w>": 8723,
      "पूज्य</w>": 8724,
      "rise</w>": 8725,
      "इजरायल</w>": 8726,
      "uk": 8727,
      "perhaps</w>": 8728,
      "मामला</w>": 8729,
      "मूर्ति</w>": 8730,
      "त्म</w>": 8731,
      "gods</w>": 8732,
      "जात</w>": 8733,
      "Sm": 8734,
      "शीर्षक</w>": 8735,
      "ठे</w>": 8736,
      "पट्": 8737,
      "मीडिया</w>": 8738,
      "व्यवसाय</w>": 8739,
      "granted</w>": 8740,
      "तीसर": 8741,
      "Truth</w>": 8742,
      "ख्याल</w>": 8743,
      "विदा</w>": 8744,
      "iry</w>": 8745,
      "code</w>": 8746,
      "पोर्": 8747,
      "कानूनी</w>": 8748,
      "घरे": 8749,
      "कालिक</w>": 8750,
      "regular</w>": 8751,
      "त्रा": 8752,
      "सामर्थ": 8753,
      "णिक</w>": 8754,
      "कां": 8755,
      "भागों</w>": 8756,
      "विषयों</w>": 8757,
      "धर्": 8758,
      "हाद</w>": 8759,
      "ules</w>": 8760,
      "सिफ": 8761,
      "format</w>": 8762,
      "उद": 8763,
      "distinc": 8764,
      "रै": 8765,
      "2009</w>": 8766,
      "consider</w>": 8767,
      "थोड़ा</w>": 8768,
      "इकट्": 8769,
      "imag": 8770,
      "विवाद</w>": 8771,
      "cou": 8772,
      "विरा": 8773,
      "essi": 8774,
      "fair</w>": 8775,
      "Proc": 8776,
      "edure</w>": 8777,
      "कॉल</w>": 8778,
      "accordance</w>": 8779,
      "canc": 8780,
      "मिल": 8781,
      "Every</w>": 8782,
      "iv</w>": 8783,
      "करा</w>": 8784,
      "देन</w>": 8785,
      "गृह</w>": 8786,
      "cutta</w>": 8787,
      "Bang": 8788,
      "vely</w>": 8789,
      "वर्ण</w>": 8790,
      "महल</w>": 8791,
      "ऑन": 8792,
      "करीब</w>": 8793,
      "2004</w>": 8794,
      "जुड़े</w>": 8795,
      "collection</w>": 8796,
      "contribution</w>": 8797,
      "Create</w>": 8798,
      "ध्वनि</w>": 8799,
      "हाइ": 8800,
      "2003</w>": 8801,
      "chem": 8802,
      "इंजीनिय": 8803,
      "तथा": 8804,
      "पुस्ति": 8805,
      "प्रतिनिधि": 8806,
      "हालॉ": 8807,
      "Sept": 8808,
      "don": 8809,
      "relation</w>": 8810,
      "Chair": 8811,
      "Governor</w>": 8812,
      "टें</w>": 8813,
      "summ": 8814,
      "फ़ैसला</w>": 8815,
      "सुबह</w>": 8816,
      "police</w>": 8817,
      "सॉफ्": 8818,
      "Ker": 8819,
      "paper</w>": 8820,
      "सला": 8821,
      "कहता</w>": 8822,
      "24": 8823,
      "ions</w>": 8824,
      "popular</w>": 8825,
      "agriculture</w>": 8826,
      "gust</w>": 8827,
      "ength</w>": 8828,
      "expenditure</w>": 8829,
      "पथ": 8830,
      "विचार": 8831,
      "जाँच</w>": 8832,
      "मौसम</w>": 8833,
      "Calcutta</w>": 8834,
      "ik": 8835,
      "लाओ</w>": 8836,
      "memory</w>": 8837,
      "hours</w>": 8838,
      "Christi": 8839,
      "प्रकाश": 8840,
      "benefits</w>": 8841,
      "अमरी": 8842,
      "दूसरों</w>": 8843,
      "Folder</w>": 8844,
      "philosoph": 8845,
      "September</w>": 8846,
      "June</w>": 8847,
      "हजार</w>": 8848,
      "ids</w>": 8849,
      "moon</w>": 8850,
      "तीव": 8851,
      "ौर</w>": 8852,
      "lative</w>": 8853,
      "develop</w>": 8854,
      "centre</w>": 8855,
      "challeng": 8856,
      "ectively</w>": 8857,
      "लगातार</w>": 8858,
      "announ": 8859,
      "Al</w>": 8860,
      "SS": 8861,
      "स्ट्रे": 8862,
      "leading</w>": 8863,
      "क़ुर": 8864,
      "apost": 8865,
      "oom</w>": 8866,
      "cipal</w>": 8867,
      "violence</w>": 8868,
      "अद्यतन</w>": 8869,
      "ort": 8870,
      "पूर्वी</w>": 8871,
      "compla": 8872,
      "orders</w>": 8873,
      "gam": 8874,
      "नष्ट</w>": 8875,
      "लेगी</w>": 8876,
      "पोषण</w>": 8877,
      "require": 8878,
      "पढ़ने</w>": 8879,
      "इलेक्": 8880,
      "गवाही</w>": 8881,
      "मण</w>": 8882,
      "ony</w>": 8883,
      "icity</w>": 8884,
      "आजा": 8885,
      "ilit": 8886,
      "सीधा</w>": 8887,
      "Assem": 8888,
      "घरेलू</w>": 8889,
      "gate</w>": 8890,
      "संचालन</w>": 8891,
      "sud": 8892,
      "पुत्र</w>": 8893,
      "expected</w>": 8894,
      "draw</w>": 8895,
      "मेहरबान</w>": 8896,
      "संकल्प</w>": 8897,
      "गढ़</w>": 8898,
      "तुर": 8899,
      "अका": 8900,
      "टरी</w>": 8901,
      "न्यूनतम</w>": 8902,
      "ंति": 8903,
      "म्</w>": 8904,
      "asks</w>": 8905,
      "Soci": 8906,
      "versities</w>": 8907,
      "कियों</w>": 8908,
      "relation": 8909,
      "सुना</w>": 8910,
      "administration</w>": 8911,
      "खद</w>": 8912,
      "assets</w>": 8913,
      "सवाल</w>": 8914,
      "”.</w>": 8915,
      "laws</w>": 8916,
      "लेज</w>": 8917,
      "expression</w>": 8918,
      "sacri": 8919,
      "Prin": 8920,
      "promised</w>": 8921,
      "सिवाय</w>": 8922,
      "essential</w>": 8923,
      "witn": 8924,
      "हालॉकि</w>": 8925,
      "ert</w>": 8926,
      "circum": 8927,
      "Organ": 8928,
      "बुराई</w>": 8929,
      "पसन्द</w>": 8930,
      "टॉ": 8931,
      "bat": 8932,
      "techno": 8933,
      "seful</w>": 8934,
      "बनने</w>": 8935,
      "सेवाएं</w>": 8936,
      "Kashmir</w>": 8937,
      "सका": 8938,
      "पहल</w>": 8939,
      "वरों</w>": 8940,
      "nations</w>": 8941,
      "क्रय</w>": 8942,
      "King</w>": 8943,
      "मछ": 8944,
      "aug": 8945,
      "शेयर</w>": 8946,
      "जोखि": 8947,
      "पकड़</w>": 8948,
      "Director</w>": 8949,
      "रस</w>": 8950,
      "सभ": 8951,
      "निकों</w>": 8952,
      "hosp": 8953,
      "आंतरिक</w>": 8954,
      "ख़ुद</w>": 8955,
      "Last</w>": 8956,
      "tified</w>": 8957,
      "ications</w>": 8958,
      "संसाधनों</w>": 8959,
      "mountains</w>": 8960,
      "Children</w>": 8961,
      "Mumbai</w>": 8962,
      "रिंग</w>": 8963,
      "मुंब": 8964,
      "मई</w>": 8965,
      "villages</w>": 8966,
      "अर्थात</w>": 8967,
      "अपराध</w>": 8968,
      "प्रदू": 8969,
      "tionary</w>": 8970,
      "work": 8971,
      "प्रायः</w>": 8972,
      "चि</w>": 8973,
      "सौ</w>": 8974,
      "¥</w>": 8975,
      "मास</w>": 8976,
      "संभावना</w>": 8977,
      "ung</w>": 8978,
      "सहकारी</w>": 8979,
      "named</w>": 8980,
      "chief</w>": 8981,
      "तमाम</w>": 8982,
      "भाषाओं</w>": 8983,
      "प्रेत</w>": 8984,
      "घात</w>": 8985,
      "balance</w>": 8986,
      "विन्यास</w>": 8987,
      "प्रोत्साहन</w>": 8988,
      "Its</w>": 8989,
      "Pen": 8990,
      "घन</w>": 8991,
      "लाद</w>": 8992,
      "separate</w>": 8993,
      "क्षता</w>": 8994,
      "opened</w>": 8995,
      "measures</w>": 8996,
      "तता</w>": 8997,
      "insp": 8998,
      "System</w>": 8999,
      "नबी</w>": 9000,
      "वचन</w>": 9001,
      "वेब</w>": 9002,
      "सभा": 9003,
      "समस्त</w>": 9004,
      "gradu": 9005,
      "चीज</w>": 9006,
      "product</w>": 9007,
      "denied</w>": 9008,
      "Some": 9009,
      "aci": 9010,
      "operative</w>": 9011,
      "रद्द</w>": 9012,
      "मल": 9013,
      "वेद</w>": 9014,
      "attention</w>": 9015,
      "ought</w>": 9016,
      "Thou</w>": 9017,
      "Messengers</w>": 9018,
      "inside</w>": 9019,
      "जाकर</w>": 9020,
      "गणना</w>": 9021,
      "चय</w>": 9022,
      "opinion</w>": 9023,
      "चेतना</w>": 9024,
      "Management</w>": 9025,
      "वर्ड</w>": 9026,
      "विधे": 9027,
      "मुंबई</w>": 9028,
      "सरों</w>": 9029,
      "plication</w>": 9030,
      "eligi": 9031,
      "harm</w>": 9032,
      "अर्थात्</w>": 9033,
      "नागरिकों</w>": 9034,
      "महत्त्वपूर्ण</w>": 9035,
      "गुजरात</w>": 9036,
      "माबूद</w>": 9037,
      "jur": 9038,
      "culp": 9039,
      "ऑनलाइन</w>": 9040,
      "वक</w>": 9041,
      "न्स</w>": 9042,
      "वाद्य</w>": 9043,
      "Tamil</w>": 9044,
      "Hea": 9045,
      "आया": 9046,
      "rap": 9047,
      "ल्ट</w>": 9048,
      "enth</w>": 9049,
      "perc": 9050,
      "Go</w>": 9051,
      "तभी</w>": 9052,
      "timate</w>": 9053,
      "उम्र</w>": 9054,
      "uals</w>": 9055,
      "रास्ते</w>": 9056,
      "पास": 9057,
      "Forgiving</w>": 9058,
      "प्रार्थना</w>": 9059,
      "deemed</w>": 9060,
      "बल": 9061,
      "polic": 9062,
      "प्रभ": 9063,
      "sins</w>": 9064,
      "देखकर</w>": 9065,
      "Bl": 9066,
      "कर्ताओं</w>": 9067,
      "Other</w>": 9068,
      "ंजी": 9069,
      "गरी": 9070,
      "हट</w>": 9071,
      "ulated</w>": 9072,
      "zing</w>": 9073,
      "वासियों</w>": 9074,
      "कुमार</w>": 9075,
      "cooperation</w>": 9076,
      "Bab": 9077,
      "IP": 9078,
      "ulate</w>": 9079,
      "2020</w>": 9080,
      "largest</w>": 9081,
      "appear</w>": 9082,
      "भागीदारी</w>": 9083,
[...]
